<pad>
<unk>
<start>
<end>
#
the
.
,
to
in
of
a
on
and
s
&apos;
for
@-@
said
with
at
that
as
unk
from
an
&quot;
by
new
has
his
after
tuesday
wednesday
thursday
is
president
its
monday
was
friday
will
u.s.
us
china
it
-lrb-
-rrb-
over
two
government
world
be
first
up
minister
-
their
have
against
year
he
percent
more
sunday
police
who
saturday
were
people
here
one
state
this
officials
are
says
into
million
country
three
united
south
out
killed
but
reported
official
not
former
iraq
foreign
than
about
chinese
last
day
international
$
years
been
they
military
european
states
would
week
city
court
group
down
war
had
bank
security
national
prime
talks
prices
oil
leader
off
news
billion
top
dollars
cup
when
second
which
four
next
trade
british
party
time
stock
bush
hong
kong
israeli
stocks
no
today
french
economic
her
announced
between
american
chief
or
may
market
dollar
company
russian
israel
close
all
five
could
peace
russia
high
taiwan
during
month
man
some
visit
higher
palestinian
end
open
agency
according
back
eu
india
house
general
central
north
un
home
union
team
pakistan
leaders
--
set
major
nuclear
other
korea
death
;
lower
france
iran
southern
german
local
federal
political
shares
n
six
opposition
before
election
early
win
most
african
points
troops
defense
help
york
attack
east
called
women
nations
authorities
least
under
plan
old
report
province
exchange
league
closed
plans
held
presidential
countries
army
th
al
months
air
share
record
final
secretary
third
deal
northern
west
africa
australian
take
clinton
rights
meeting
health
quarter
forces
indian
iraqi
u.n.
if
ministry
killing
died
elections
asian
capital
britain
him
arrested
fire
economy
since
gold
amid
while
attacks
anti
expected
lead
nation
left
days
crisis
afghanistan
dead
public
germany
region
obama
&apos;t
australia
long
night
largest
office
case
power
financial
trial
say
men
reports
support
through
made
ahead
another
index
following
being
key
_
euro
-year
despite
global
head
found
round
profit
hit
near
won
street
force
them
victory
workers
drug
charges
injured
media
bid
parliament
aid
season
make
campaign
calls
olympic
rebels
service
beijing
business
accused
games
border
part
senior
bomb
center
meet
europe
council
still
can
work
agreement
led
saying
law
members
soldiers
ago
strike
sales
george
sri
thousands
gaza
wall
white
test
late
because
urged
program
bill
trading
rose
seven
there
john
:
investors
where
including
wins
london
human
mexico
premier
way
cooperation
coach
run
development
turkey
markets
nato
vote
republic
car
children
industry
violence
press
what
rate
suspected
game
released
indonesia
washington
efforts
spokesman
democratic
summit
should
italian
return
protest
korean
cut
nearly
dealers
half
judge
growth
race
she
gas
department
start
england
administration
just
congress
eight
only
islamic
opened
fight
free
beat
tour
companies
food
commission
morning
western
energy
rise
conference
life
match
school
america
due
philippine
prison
spain
hold
get
italy
agreed
face
leading
i
fell
asia
committee
w.
move
thai
shot
afghan
title
canada
eastern
took
across
island
system
show
brazil
around
strong
vice
soccer
senate
town
decision
pay
many
ruling
woman
ban
series
star
tokyo
interest
giant
budget
turkish
release
control
champion
big
investment
vietnam
zealand
number
chairman
ties
un@@
thailand
re@@
any
others
signed
biggest
coast
recent
indonesian
again
right
taking
past
told
so
even
warned
money
charged
now
use
spanish
militants
baghdad
several
red
lanka
go
fall
price
latest
family
weekend
possible
policy
march
do
urges
airport
california
hopes
arab
tax
organization
play
increase
among
weeks
yen
plane
zimbabwe
middle
began
o
flu
put
rebel
sign
fourth
terrorism
hospital
muslim
met
fund
opening
discuss
fighting
main
de
club
myanmar
hundreds
egypt
t
nine
championship
call
malaysia
action
demand
university
suicide
special
alleged
lebanon
king
executive
republican
labor
rates
without
post
palestinians
future
television
give
missing
whether
ended
shanghai
rally
board
saudi
ministers
further
terror
like
murder
barack
times
both
philippines
texas
canadian
results
corp.
become
relations
groups
arrived
wounded
newspaper
keep
contract
terrorist
loss
finance
internet
crash
how
line
nigeria
victims
iranian
football
boost
june
level
water
making
role
arrest
small
sources
body
pakistani
best
mission
much
joint
area
supreme
dies
illegal
regional
tournament
k@@
issue
july
pm
dutch
investigation
data
production
continue
place
battle
well
net
earlier
launched
kosovo
gains
hamas
based
change
used
taliban
ex
los
greek
concerns
mark
low
trying
sentenced
stop
scored
paris
firm
players
rival
emergency
little
wants
students
space
bombing
earnings
step
bangladesh
issues
san
crimes
hours
claims
term
away
armed
ordered
jobs
lawmakers
member
association
offer
private
civil
pressure
building
outside
takes
angeles
far
reach
cabinet
tv
re
stage
amp
young
taipei
land
effort
banks
own
same
mixed
sea
corruption
annual
launch
moscow
medical
likely
communist
good
kills
son
rules
jordan
services
fears
envoy
continued
ready
failed
buy
black
lost
opens
deadly
grand
champions
earthquake
film
m
probe
threat
justice
gulf
winning
went
coalition
order
growing
swiss
join
director
greece
road
protests
history
airlines
technology
dispute
toward
ireland
information
whose
daily
&amp;
leave
did
process
study
aimed
plant
sent
e
must
station
championships
reached
planned
inc.
inflation
pacific
d@@
reform
session
confirmed
seek
xinhua
meets
toll
named
heavy
cross
maker
job
governor
s.
americans
statement
egyptian
\
soon
mayor
officer
/
candidate
full
ever
co
bosnia
drop
olympics
prosecutors
field
legal
build
convicted
michael
bus
kill
showed
debt
mexican
gets
anniversary
n@@
behind
church
kenya
embassy
in@@
sudan
better
might
until
officers
s@@
radio
begin
host
real
debate
train
project
bosnian
sports
sell
less
seeking
ii
experts
dlrs
t@@
aids
detained
wife
deputy
florida
september
total
seeks
site
you
decided
operation
cuts
warns
nepal
cases
parties
straight
sector
construction
profits
measures
guilty
asked
arms
safety
proposed
tennis
rising
suspect
democrats
reserve
fresh
explosion
flight
january
signs
cricket
ed
fired
sanctions
losses
disease
industrial
brazilian
weapons
large
al@@
malaysian
czech
soldier
strip
few
er
ing
try
community
problems
operations
ukraine
argentina
child
research
jail
training
pope
credit
such
working
concern
g@@
computer
later
pro
blast
short
spending
care
send
d
faces
within
find
storm
cuba
refugees
fuel
summer
scandal
running
previous
base
shooting
japan
travel
warning
those
front
education
social
venezuela
see
domestic
ambassador
almost
y@@
side
network
player
ship
hits
list
delegation
issued
arafat
p@@
camp
hk
funds
known
es
along
november
saddam
georgia
syria
county
once
sharply
afternoon
accident
i@@
search
negotiations
affairs
residents
areas
jewish
massive
ground
co.
products
expressed
parliamentary
z@@
worth
c@@
park
david
port
allow
ruled
airline
river
h
currency
visiting
break
confidence
conflict
sex
october
paul
heart
charge
manager
trip
consumer
lawyer
kashmir
m@@
slightly
exports
hope
nigerian
drugs
japanese
ers
period
come
attempt
event
w@@
rule
fraud
also
gave
suspects
colombia
lebanese
h@@
poor
forced
current
remains
scheduled
rescue
ending
rejected
claimed
moving
democracy
suspended
beats
b
crime
push
robert
movement
helped
age
protesters
ethnic
hard
provide
denied
orders
goal
bird
poland
serb
came
does
sweden
sale
aircraft
great
mass
turned
euros
century
staff
missile
progress
militant
relief
homes
rises
too
music
diplomatic
authority
deaths
makes
taken
carrying
each
bring
received
dropped
cost
august
cyprus
stay
crude
recovery
seen
guard
caused
injury
zone
leaving
sept
ar@@
cancer
ch@@
civilians
moved
hussein
putin
e@@
polls
intelligence
fans
calling
draw
uganda
festival
clashes
madrid
traffic
returned
himself
insurance
remain
troubled
deficit
activists
interior
point
yuan
controversial
sets
raise
decades
allegedly
clash
millions
congo
figures
futures
using
published
voters
falls
g
english
leaves
coming
increased
competition
improve
career
highest
forward
hurricane
flights
crashed
dozens
powerful
phone
given
elected
resume
proposal
december
basketball
swedish
challenge
panel
en
commander
going
poll
seized
boston
en@@
cash
kuwait
book
form
shows
scientists
already
row
prevent
u
settlement
rice
planning
overseas
overnight
need
y
qaida
attend
el
criminal
threatened
climate
name
cities
evidence
track
costs
unit
tamil
resolution
division
serbia
b@@
jailed
irish
light
navy
protect
selling
huge
statistics
prize
chicago
blair
protection
immigration
independence
started
attorney
k
allegations
auto
positive
tests
prosecutor
district
agree
hand
banned
fifth
yet
worst
ends
sees
mideast
religious
tourism
alliance
look
corp
mainland
beating
finish
f@@
tried
denies
shiite
holding
v@@
northwest
facing
st@@
export
closes
tiger
finals
southeast
analysts
april
polish
st
february
linked
holiday
abuse
risk
commercial
became
banking
friendly
candidates
supporters
owned
college
schools
changes
catholic
l@@
parts
visits
turn
declared
serious
recently
promote
able
situation
bay
popular
tough
double
drive
weather
begins
claim
bodies
treaty
haiti
arabia
u@@
de@@
lawyers
jerusalem
super
am@@
enough
approved
bilateral
er@@
wo
quake
stake
j@@
offers
want
independent
winter
damage
reaching
assembly
performance
rugby
rain
an@@
supply
medal
hotel
looking
online
draft
zambia
got
gunmen
condemned
environmental
pct
arrives
territory
federation
mother
stadium
bombings
movie
lankan
republicans
athens
o@@
employees
mine
kurdish
housing
colombian
winner
management
village
advance
broke
st.
baseball
sen.
jury
student
teams
wanted
doctors
boy
art
treatment
lawsuit
squad
prisoners
closer
evening
moves
tony
majority
leads
then
review
criticism
having
reforms
raised
father
starting
strikes
cambodia
tourists
defending
unemployment
c
firms
steps
immigrants
passengers
blue
jet
natural
soviet
disaster
stand
giving
el@@
die
raid
award
microsoft
conservative
vowed
mccain
response
darfur
pledged
filed
cars
upcoming
sought
raising
loan
brought
annan
rejects
truck
minutes
reduce
l
croatia
passenger
offered
combat
fair
sh@@
ra@@
defeat
non
ro@@
conditions
focus
holds
returns
talk
yugoslavia
gives
lives
helicopter
clear
brown
striker
surgery
crackdown
vows
tensions
museum
dis@@
backed
families
target
decade
constitution
ceremony
streets
latin
gov.
q
video
green
farmers
act
ted
syrian
journalist
buying
portugal
tehran
historic
names
attacked
hostage
gay
romania
chavez
royal
girl
journalists
heads
speed
demands
projects
hillary
never
chance
prince
struck
boat
continues
position
legislation
source
accord
switzerland
survey
crew
avoid
counterpart
miss
headquarters
delay
mobile
announces
citizens
atlanta
ating
goals
sold
norway
disputed
injuring
ting
sides
southwest
involved
secret
virus
stars
separatist
needed
course
a@@
corporate
treasury
bad
laws
every
congressional
austria
offensive
potential
ford
investigators
northeast
vladimir
representatives
access
bonds
losing
closing
chechnya
netherlands
setting
violent
above
questions
getting
securities
rare
sending
p
milan
package
single
remained
halt
pounds
rich
headed
create
expand
living
voted
expectations
hearing
leadership
chancellor
recession
refugee
prepared
enterprises
tons
islands
hockey
jones
era
decline
needs
referendum
christmas
cuban
ways
bureau
hall
goes
pentagon
outbreak
problem
speech
peru
expects
agriculture
jersey
williams
elect
presidency
bringing
speaker
gore
sharp
ease
james
paid
links
per
fed
inc
rocket
humanitarian
chile
equipment
bin
block
gain
property
steel
votes
kenyan
investigating
web
forum
civilian
allowed
rivals
sentence
software
launches
falling
programs
output
ts
or@@
weak
newly
witnesses
important
fast
tech
serbs
wing
hollywood
la
coup
manchester
nba
transport
lee
personal
davis
related
monetary
driver
request
businesses
develop
boeing
deep
together
awards
inside
diplomats
yeltsin
yasser
person
leg
strengthen
nationwide
very
jan
diplomat
save
environment
allies
welcomed
tourist
jose
played
forecast
these
starts
qualifying
ated
fm
figure
hands
playing
let
fbi
prix
developing
condemns
nobel
common
ivory
carrier
agencies
ice
deadline
ic
mar@@
records
finally
it@@
bombs
argentine
extend
supplies
threats
peacekeeping
rock
is@@
belgian
legislative
austrian
delayed
worries
takeover
refused
motor
wounding
francisco
cause
promised
alert
ate
chen
shut
injuries
strategy
criticized
flood
pact
spread
success
considering
though
sudanese
compared
struggling
classic
governing
scores
guerrillas
doping
muslims
tsunami
hurt
plot
at@@
executives
passed
politics
guantanamo
traders
worldwide
abbas
direct
activities
vehicles
renewed
veteran
believed
governments
documents
bomber
targets
posts
commerce
th@@
status
ag
assets
atlantic
macao
somalia
imports
ad@@
finds
increasing
assault
ten
retail
rangers
wave
r@@
on@@
income
le
spring
consider
jets
fiscal
lift
prominent
suffered
serbian
ally
rest
vietnamese
crucial
penalty
loans
owner
failure
wake
live
appeared
fighters
christian
policies
helping
over@@
-@@
martin
golf
venezuelan
resolve
surge
chemical
parents
joined
es@@
somali
wto
self
berlin
powell
posted
poverty
terrorists
dialogue
blamed
sharon
di@@
gun
tens
r
van
tanzania
population
ethiopia
revenue
message
mostly
room
floods
watchdog
imf
belgium
li
caribbean
interview
resignation
exploded
queen
showing
extended
activist
producer
con@@
bulgaria
unity
auction
chirac
youth
decide
giants
gathered
address
farm
daughter
lines
coal
plc
born
satellite
pilot
tie
cold
afp
freed
sars
exhibition
regime
ugandan
bankruptcy
seriously
patients
resigned
voting
freedom
hoping
chechen
commissioner
planes
trafficking
vehicle
levels
spent
terms
peacekeepers
goods
below
kept
asks
threatens
communications
agent
discovered
jackson
roman
captain
sa
blow
minute
jakarta
smuggling
danish
airways
result
controlled
charles
tribunal
man@@
dow
ali
cell
nazi
offering
ation
class
sarkozy
connection
beach
cargo
ensure
backs
angola
withdrawal
im@@
powers
senator
science
jump
baby
aviation
immediate
resort
bond
steady
table
saw
ukrainian
tobacco
hezbollah
agents
doctor
expansion
as@@
blood
greater
concerned
involving
wide
hour
musharraf
scale
defeated
pledges
slow
tibet
uk
cutting
welcomes
le@@
bl@@
denmark
johnson
hiv
changed
lawmaker
spy
dismissed
libya
investigate
ad
beginning
qaeda
assistance
be@@
unions
fear
inter
f
sydney
blasts
unveiled
ab@@
richard
spot
cease
shuttle
safe
opec
motors
institute
looks
surprise
range
venture
pace
faced
standing
pulled
consecutive
primary
eve
inquiry
ic@@
ousted
cultural
qualifier
critical
separate
dprk
cia
highway
debut
fifa
laden
factory
date
mining
ne@@
completed
question
becoming
car@@
accept
finland
average
detention
we
ounce
impact
fires
abroad
practice
reporting
telecom
actor
causing
resources
taiwanese
ocean
telecommunications
convention
arsenal
dozen
female
mubarak
threatening
runs
rwanda
qu@@
enter
sixth
ring
husband
added
asean
se@@
stability
replace
lack
announce
norwegian
letter
preparing
postponed
swine
ol@@
systems
assassination
constitutional
iraqis
hungary
operating
customs
custody
masters
jean
demanded
telephone
semi
invest
kim
your
handed
torn
advanced
barrel
barcelona
timor
yugoslav
matches
pre@@
pipeline
failing
lake
traditional
politicians
aboard
waters
seeded
severe
currencies
tropical
ia
albanian
mountain
organizers
receive
longer
singer
value
israelis
neighboring
regulators
romanian
ti@@
sites
divided
detroit
built
peter
couple
guards
driving
interim
ask
flat
welcome
milosevic
ill
committed
marine
memorial
drops
magazine
forest
abortion
clients
genocide
da
landmark
channel
bob
researchers
defends
rural
suit
contracts
boris
limited
themselves
continuing
marathon
prepare
comes
nd
ac@@
arrests
brother
mike
bo@@
ri@@
semifinals
resign
outlook
mo@@
stories
autonomous
sexual
portuguese
nasa
settle
itself
electricity
stronger
ag@@
honor
boycott
plunged
benefits
promises
vatican
si@@
cambodian
rome
hostages
merger
z
pre
mahmoud
trust
killer
northeastern
yemen
raises
jacques
square
-month
critics
aide
membership
pleaded
peaceful
spend
quit
overall
shenzhen
kofi
estate
seat
culture
struggle
jordanian
solution
fishing
canceled
stepped
heat
miami
complete
withdraw
delays
entry
chelsea
kerry
belarus
gop
arrive
em@@
reaches
offices
provincial
arizona
remote
organizations
fighter
nt
houston
citing
watch
survivors
electoral
urge
x
funding
agenda
hugo
radical
mail
truce
cox
confident
testing
clean
caught
breaking
marks
link
transfer
destroyed
ecuador
ski
guinea
sport
love
carlos
involvement
ian
carry
bridge
policemen
railway
successful
ma
hot
consumers
manufacturing
moderate
sp@@
formally
manhattan
out@@
quickly
cable
demanding
grant
holy
seoul
william
midfielder
killings
miles
pass
events
il
lose
scotland
ongoing
commonwealth
officially
agrees
ly
famous
?
cocaine
croatian
signing
smith
mosque
accuses
pilots
bar@@
fellow
northwestern
restrictions
story
asylum
expert
landing
admitted
plants
teen
grew
rallied
pledge
nomination
ar
although
pull
ancient
funeral
card
cleric
ates
abu
allowing
airbus
hang
tries
edge
snow
details
founder
angry
rail
ailing
celebrate
dubai
electric
wild
indicted
keeping
agricultural
berlusconi
mugabe
taxes
yankees
macedonia
-day
worker
meters
formula
massacre
quarterfinals
lifted
benchmark
strategic
defend
twice
netanyahu
language
technical
jiang
imposed
carried
thomas
abdullah
marked
boss
described
kabul
curb
warming
restore
ley
instead
judicial
spokeswoman
athletes
v
oct
urging
mid
defended
retired
hu
gu@@
zambian
bloc
moon
marriage
militia
racing
different
electronics
apparently
ds
box
crashes
finished
standards
establish
bowl
amnesty
politician
streak
uefa
foot
dec
qatar
os
responsible
owners
opponents
rodham
chiefs
designed
entered
tu@@
petroleum
returning
feared
tells
reserves
quality
exercise
thanks
books
tom
comments
upset
carolina
confirms
bangkok
deals
increasingly
import
mln
rebound
store
retirement
produce
product
tight
commitment
valley
begun
resistance
representative
gang
relatives
beef
ki
du@@
riot
ed@@
my
nicolas
staged
sends
cast
golden
li@@
cleared
effect
woods
ac
split
presence
know
bailout
increases
sierra
towards
rockets
rains
palace
fine
contest
resigns
liverpool
weekly
finding
sparked
often
manila
ca
southeastern
our
maintain
suffering
downtown
eye
partner
colin
virginia
defender
teachers
society
pick
georgian
houses
ma@@
works
unrest
eyes
minority
massachusetts
exchanges
friends
personnel
stopped
investor
zimbabwean
ceasefire
partnership
ec@@
responsibility
senators
stores
extra
ist
knee
thought
crowd
fully
slain
co@@
sun
par@@
gm
broken
stations
strongly
crown
presidents
victim
am
missiles
developed
challenges
demonstrators
liberation
dangerous
heading
fly
philadelphia
colorado
measure
foundation
preliminary
rwandan
bail
seize
algeria
strength
illegally
mortgage
me
gained
cairo
traded
operator
hill
turns
neighbors
condition
additional
tribal
burundi
rio
route
pushed
toyota
puts
atomic
nov
foreigners
embattled
enforcement
ha@@
seed
awarded
internal
su@@
nfl
ling
command
accusing
compensation
secure
rd
putting
cycling
initial
%
incident
indies
ding
dallas
lowest
steve
earth
casualties
emirates
ex@@
ran
appointed
slump
guangdong
significant
improved
gmt
present
ethiopian
bc
cover
style
writer
bu@@
overhaul
unchanged
oscar
volatile
proposals
girls
loses
possibility
bulgarian
keeps
breaks
flying
pollution
fined
serve
estimated
conduct
quoted
mozambique
reportedly
approval
ceo
gates
immediately
industries
birth
insurgents
speculation
damaged
har@@
costa
louis
mandela
grow
surplus
ranking
corporation
positions
os@@
considered
claiming
chip
attention
explosives
ous
cl@@
revealed
flooding
cypriot
sweeping
regions
boxing
makers
calm
trouble
buildings
serving
drivers
alive
ships
purchase
hunger
la@@
turmoil
swept
marking
gasoline
kennedy
ru@@
fields
fashion
castro
created
joining
prospects
modern
optimism
customers
activity
naval
ir@@
hailed
ies
recovered
albania
leone
winds
granted
fl@@
legislature
backing
drought
think
google
view
sharing
blocked
seconds
compromise
tiny
karzai
businessman
author
placed
mc@@
ying
democrat
x@@
fatal
pl@@
standoff
witness
visitors
kansas
acting
partners
playoff
ton
om@@
southwestern
quick
standard
birthday
meetings
judges
leftist
academy
athletics
appeal
cooperate
troop
jobless
believe
flag
adding
bound
tackle
ana
surged
chain
numbers
seattle
ohio
patrol
passes
finnish
delta
comeback
ations
holocaust
per@@
dodgers
adviser
raids
mis@@
website
swimming
bangladeshi
sentiment
sox
e.
administrative
howard
remaining
welfare
cpc
schedule
probably
tension
morocco
remarks
uranium
extradition
alexander
seventh
image
spill
gordon
supports
stable
sentences
improving
resumed
joe
sunni
edged
limit
awaited
animal
agreements
stem
bills
task
nepali
slams
throughout
bar
joseph
cor@@
newspapers
charity
digital
choice
announcement
les
complex
kind
midday
coastal
boosted
lakers
islam
actress
why
accusations
under@@
concluded
dissident
gov
inspectors
stroke
contributed
adopted
door
nothing
bp
hu@@
transportation
ter
junta
wales
favorite
unless
worked
fails
belgrade
follow
ig@@
willing
buried
aims
automaker
mount
counter
generation
dole
negotiators
fish
der
shopping
execution
algerian
lay
discovery
homeland
reconstruction
mutual
turning
stolen
sweep
roadside
chilean
hunt
evacuated
investments
plunge
forcing
pe@@
differences
file
uae
rather
visa
strait
pushing
declined
lady
simpson
stalled
account
insisted
pair
pop
kazakhstan
initiative
-meter
kremlin
deutsche
fought
bloody
cheney
professional
doing
hails
anger
sarajevo
advertising
remove
acquire
fatah
associated
voice
suspension
devastating
unlikely
check
highly
ren@@
ira
hunting
difficult
weaker
fierce
u.s.-led
tigers
facilities
denver
available
certain
jumped
luxury
celebrated
friend
express
disney
hopeful
ine
ings
visited
opener
op@@
recall
aceh
min@@
prepares
scheme
priest
quiet
fate
merkel
breakaway
benjamin
tel
captured
include
ot@@
he@@
munich
gen.
jews
se
pole
torture
questioned
becomes
seng
liberia
reporter
broadcast
permanent
broad
mon@@
sc@@
arm
ie
ev@@
aside
antonio
profile
doubt
influence
katrina
optimistic
bitter
il@@
something
revive
peninsula
suspicion
junior
invasion
waste
policeman
disarmament
hungarian
bhutto
unprecedented
heavily
heard
facility
active
ariel
heroin
favor
aug
detainees
wind
donald
institutions
pervez
recover
drew
ball
engine
volleyball
reporters
to@@
relationship
rescued
shareholders
municipal
ge@@
editor
joins
ber@@
p.m.
hike
reconciliation
diego
islamist
stimulus
threaten
onto
juan
providing
desert
striking
units
plays
thing
chances
controversy
determine
model
chips
fidel
compete
cautious
stone
promise
triggered
worried
lot
helicopters
smoking
firefighters
hoped
gunman
chris
extremists
minor
removed
istanbul
criticizes
au
interests
nelson
bans
electronic
firing
shell
praised
organized
ve
restructuring
kingdom
slide
gone
pleads
schroeder
af@@
cruise
widespread
fox
affected
producers
marines
hospitalized
convoy
chrysler
risks
beyond
pan
brief
presented
appeals
eighth
easy
doubles
pirates
races
discussed
amount
ferry
predicted
ap@@
basque
teenager
accounting
slammed
crack
done
collision
nhl
ph@@
duty
violations
benefit
bian
billions
socialist
entertainment
concert
medicine
accepted
theater
fail
respect
proposes
bourse
mor@@
singles
ahmadinejad
osama
bali
largely
advances
vaccine
shui
extends
q@@
wimbledon
mu@@
formed
expect
networks
innings
payments
airports
te@@
causes
limits
slovakia
seats
als
files
guerrilla
registered
suggested
monitoring
eurozone
hero
ben
hosni
verdict
fled
ll
rallies
invitation
kuwaiti
sch@@
wage
-under
monitor
urban
veterans
feb
miners
typhoon
collapse
wang
threw
hitting
sworn
creating
silver
explosions
poised
actions
brothers
mal@@
jack
ant
nkorea
for@@
angolan
provided
mad
coverage
et@@
draws
mets
frank
executed
pga
handling
pyongyang
ard
camps
cow
tell
prosecution
add
orleans
riots
nominee
ak@@
ghana
shift
ina
tested
roads
revolution
ou@@
subway
ker
courts
daniel
bln
financing
condoleezza
employment
stood
sank
established
crossing
looked
restaurant
ioc
damages
invited
hosts
dick
libyan
waiting
bolivia
sal@@
reduced
teacher
dominated
vi@@
ninth
regular
enhance
warnings
suspend
delegates
ehud
computers
picked
places
scene
bought
destruction
lu@@
benedict
roger
spying
don
idea
lama
ver@@
offshore
fugitive
trophy
opera
attempts
recorded
testimony
mounting
stance
dr.
twenty
fiji
nationals
ey
olmert
soaring
kings
slobodan
fc
puerto
patrick
paying
version
means
pension
helps
dramatic
ity
yemeni
slalom
words
xvi
reject
fastest
brain
po@@
scottish
multi
par
borders
hear
kilometers
kyi
liberal
slowdown
emerged
bel@@
neighborhood
clashed
band
villages
ahmed
declaration
federer
plea
traveling
formal
impose
display
scientific
views
laid
freeze
panama
ks
me@@
bayern
hospitals
enron
n.
rating
easing
ke@@
intended
blame
oc@@
ltd.
suu
ravaged
battered
observers
phoenix
sl@@
showdown
towns
accounts
pound
longtime
rocked
id@@
boys
expanding
regulations
giuliani
walk
angels
kevin
ne
kicked
winners
ticket
phase
orthodox
plotting
demonstration
gathering
ter@@
trillion
azerbaijan
sao
fame
dictator
participate
ans
apparent
opposed
au@@
lending
continent
ho@@
minnesota
wheat
determined
singapore
grenade
ur@@
widely
utility
arroyo
produced
illness
extension
professor
gdp
toronto
brussels
eta
delhi
vast
zemin
homeless
factions
alan
slaying
inmates
et
moslem
scott
potentially
offset
aides
rescuers
moment
provinces
dream
medals
princess
sky
insurgency
entering
guns
wounds
sen
danger
complaints
restive
jintao
aim
recovering
believes
mediterranean
unveils
shortage
arts
exit
considers
warn
parade
hamid
stranded
similar
trucks
w
immigrant
ler
promoting
las
launching
deliver
kmt
string
temporary
bahrain
closely
effective
advisory
wait
montenegro
jim
lo@@
accidents
fa
ability
ny
bombers
selected
appealed
coffee
tied
promising
various
racial
especially
abuses
closure
controls
flee
successfully
henry
ul@@
upper
boosting
tibetan
wrong
landslide
emissions
clubs
ch
questioning
introduced
path
shots
tank
taylor
dalai
drama
indians
emerging
prisoner
declines
holdings
inter@@
bi@@
prompted
del@@
balance
hindu
gather
tanker
beirut
refuses
vision
rumsfeld
runner
occupied
preparations
frankfurt
supporting
woes
columbia
feet
te
assistant
av@@
wen
reiterated
blew
mi@@
fernando
kids
deployment
experience
cyclone
oklahoma
ms
-hour
donors
ko
kick
pro@@
identified
trans@@
elderly
asking
bigger
ben@@
morgan
negotiator
ballot
slam
equity
introduce
sprint
abandoned
chaos
aviv
battles
ads
ism
sue
ov
lewis
attempted
delivered
ge
word
things
tanks
tense
na
seems
bases
warplanes
andy
legislators
bars
alaska
celebrations
branch
changing
appear
citizen
flew
di
brings
previously
admits
plo
ba
subsidiary
protesting
carter
com@@
tanzanian
normal
infected
sure
ant@@
centers
trials
kg
shortly
peruvian
tampa
quarterly
doubts
bishop
creation
chi
govt
dpp
grave
dealing
ded
material
ked
infrastructure
warm
marketing
dog
kyrgyzstan
j
searching
&apos;@@
modest
always
haitian
michigan
advantage
tribute
temporarily
est@@
collection
options
shipping
ke
laundering
zaire
marched
possibly
silvio
guatemala
users
fleet
ment
establishment
adopt
ists
cards
bids
npc
appears
villagers
broadcasting
demonstrations
elite
-million
chad
bolster
ratings
voiced
score
heavyweight
ized
j.
tor@@
dawn
sino
motion
eased
inning
ka
migrants
tea
slipped
epidemic
contact
gh@@
honduras
tops
receiving
scientist
rep.
christopher
lifts
ash@@
premiership
lord
movies
films
harry
thaksin
injures
mainly
aged
elizabeth
iron
distance
ing@@
tear
kilograms
negative
ban@@
solid
ent
targeting
volume
gross
vegas
cowboys
ang
ranked
brand
materials
economies
picture
ical
sony
entire
fan
us@@
f.
dominican
malawi
wireless
effects
est
shoot
rush
ai
anatolia
employee
items
wood
perfect
nationalist
phones
targeted
solve
screen
ang@@
opportunity
stands
disputes
ca@@
drc
exile
grows
expanded
brokers
tougher
bat
included
manufacturer
combined
oldest
bargain
triple
participation
der@@
mines
climbed
lifting
denounced
highs
note
unbeaten
extending
antitrust
conservatives
murdering
separatists
skating
legislator
watched
floor
composite
fees
leak
az@@
grain
uncertainty
shock
ta
shootout
del
volcano
suspends
rouge
disabled
earned
interfax
mountains
longest
go@@
mongolia
stricken
priority
lands
relay
weighted
trail
briefly
complaint
sued
basis
cleveland
breakthrough
opinion
johannesburg
prove
globe
soared
scare
ballots
false
native
twin
crowded
individual
uruguay
contain
chosen
geneva
jointly
via
a.m.
m.
schwarzenegger
sound
intel
brian
acknowledged
transit
stressed
stakes
beaten
collided
seemed
subsidies
ya
familiar
alberto
territories
praises
chase
sw@@
pu@@
fishermen
monthly
artist
deployed
matter
code
bra@@
sa@@
upon
settlements
rand
sensitive
bear
tim
served
wedding
necessary
ambush
ons
upbeat
ham
downturn
sheikh
balkan
billionaire
den@@
ambitious
trains
ry
buys
exercises
mandate
ary
nearby
peres
animals
tri@@
listed
quits
fake
russians
burned
cal@@
scoreboard
smaller
negotiating
memory
momentum
veto
busy
species
managers
discussions
negotiate
fever
tr@@
niger
drawing
yesterday
testify
landed
charter
warner
wine
horse
mps
strain
jr.
casino
bal@@
windows
walked
slowing
astronauts
and@@
practices
mumbai
allows
protested
boats
graft
anthrax
pressed
no@@
ters
erupted
dan
tycoon
overcome
revolutionary
blames
publisher
answer
atp
count
ni@@
nets
studies
theft
reduction
vessel
pursue
dance
adb
sues
khmer
attended
stephen
rica
packed
miller
unknown
underground
quarterback
receives
census
defensive
reality
everything
lithuania
unusual
ltd
mas@@
km
jazz
roc
conviction
acts
struggled
grants
bribery
ors
violating
ba@@
bombay
gloria
ty
airliner
directors
barred
storms
successor
u.s.-@@
skorea
uzbekistan
reactor
usa
patient
stanley
revised
integration
omar
importance
armstrong
medvedev
slovenia
mer@@
locked
luis
vienna
alex
manuel
drove
retailer
pitcher
prospect
size
sichuan
scoring
robbery
rebuild
gra@@
ranks
paramilitary
ay@@
mohammed
nbc
reasons
design
inspection
releases
kar@@
calif
cbs
ator
mind
estimates
iz@@
pal@@
rookie
drawn
rubber
ner
mouth
poultry
tunnel
suggests
hebron
lineup
talking
feature
conspiracy
semifinal
celebration
attending
ride
driven
travelers
cu@@
bur@@
metal
milk
ano
pain
surrounding
rumors
trend
ap
warrant
pharmaceutical
do@@
communities
tickets
compound
moroccan
gambling
setback
wu
shook
newcastle
r.
sells
vow
flow
bundesliga
ful
youths
mat@@
ah
implementation
manufacturers
song
ot
toxic
id
survived
so@@
eg@@
ay
anna
yellow
baltic
pittsburgh
worlds
xinjiang
mystery
watching
viktor
acquisition
revenues
discrimination
grounds
master
palm
deadlock
whom
paulo
mental
prevention
filipino
journal
comprehensive
aung
um
implement
honors
meant
ten@@
extremist
downhill
repair
marijuana
jamaica
sen@@
can@@
refusing
juventus
harvard
reopen
roll
hole
bell
passing
conducted
settlers
supported
perhaps
filled
evacuation
els
struggles
producing
refinery
resumes
rico
legend
surrender
document
iowa
war@@
rick
wars
karachi
lawsuits
illinois
sister
sacked
super@@
engineering
santa
intervention
intense
jo@@
retire
assist
alone
businessmen
persons
teenage
bit
choose
battling
prompting
attract
murdered
endangered
copa
understanding
piracy
ku@@
hotels
temple
telling
angela
influential
pa@@
representing
kaohsiung
promotion
learn
magic
stepping
stronghold
managed
apartment
guarantee
phil
lived
tions
madagascar
smoke
up@@
meat
absence
indicated
recalled
organisation
wildlife
missed
wearing
nasdaq
goalkeeper
cool
basic
mafia
assad
explosive
bidding
consortium
twins
reducing
sugar
machine
io
testified
pulls
throwing
shop
burning
spreading
opponent
expelled
challenger
improvement
eritrea
universities
ai@@
pullout
innocent
resumption
oppose
fort
occupation
shore
toss
pan@@
arrival
outgoing
narrow
playoffs
focused
rocks
ramos
faster
reason
lin@@
lin
ta@@
fleeing
larger
sk@@
written
sub@@
dropping
petersburg
covered
declares
cre@@
medicare
mart
chemicals
hostile
h.
allen
estonia
fewer
campus
raided
dar@@
anyone
connecticut
saint
ray
reading
followed
hired
artillery
bernard
dark
displaced
uses
appearance
whole
gaining
device
aiming
neighbor
writers
ell
halted
exiled
fixing
sectors
arabs
faith
andrew
boom
ethics
bulls
nikkei
expresses
paper
ken
hundred
drinking
gerhard
treated
fallen
currently
ore
ion
derby
defeats
healthy
fines
declare
pushes
strengthening
reaction
ir
ise
sustained
section
ashes
vital
enters
thrown
diseases
tw@@
nominated
linking
eliminate
devastated
knew
acquitted
sexually
solar
coca
pending
cancel
spurs
encourage
int
fix
settled
wages
surging
cameroon
unidentified
lunch
nyc
particularly
warren
doubled
barrier
jihad
license
mary
climb
fi@@
solidarity
replaced
badminton
salvador
blaze
platform
sam
affect
distribution
frozen
blacks
friendship
blocks
speaking
ong
provides
conflicts
honored
ming
diplomacy
feel
back@@
tragedy
liu
tumbled
jurors
diamond
tighten
knicks
wal
attacking
recommended
sovereignty
rafael
dna
learned
publicly
greenspan
pilgrims
blocking
quest
buddhist
rounds
paraguay
barak
-member
birds
escalating
shoulder
colleagues
chamber
identity
mars
opposes
christians
zoo
ronaldo
dissidents
photo
forms
gonzalez
garden
approach
murders
announcing
ps
aggressive
bed
alternative
ones
mozambican
soft
breast
mbeki
beer
br@@
notorious
ent@@
broadway
permission
utah
res
exploration
orange
rec@@
pitch
includes
silence
ok@@
stormed
schumacher
weight
kurds
den
true
spotlight
pool
ov@@
easily
liberian
savings
fit
her@@
spiritual
alcohol
bor@@
vancouver
banning
amendment
delivery
publishing
maria
ho
singh
ven@@
achieve
existing
silva
agassi
pays
brooklyn
we@@
edwards
corn
couples
inauguration
piece
l.
booming
hariri
cope
condemn
gunfire
seekers
opportunities
affair
violated
ministerial
suggesting
felt
itar
statements
avert
-percent
arnold
ins
ani
unable
detain
withdrew
shield
khan
require
deny
incidents
torch
a.
writing
retain
pennsylvania
surveillance
suburban
hel@@
laos
pregnant
rabin
pen@@
ham@@
benazir
ports
nordic
rapid
tass
technologies
allied
kentucky
-billion
indoor
titles
submarine
guangzhou
fragile
celebrates
cholera
audience
abc
brutal
unexpected
cents
commanders
parent
amman
armenia
employers
cancels
diana
suburb
deported
trees
collapsed
col@@
punishment
ron
louisiana
iceland
wrote
jr
abducted
sadr
ash
nz
ching
counterparts
bishops
boutros
abandon
regulation
faction
stresses
cartel
patriots
shake
tree
poisoning
mil@@
tra@@
hearings
senegal
donations
damascus
standings
greatest
ha
politically
serie
nature
ize
hardline
ish
o.j.
imported
greenhouse
payment
chang
speak
comedy
attempting
stops
rodriguez
required
partial
avalanche
cells
attorneys
shared
decisions
copper
campaigns
yang
ecb
ranging
sec
devils
beckham
laurent
picks
suffer
outcome
int@@
slip
sat
duties
enclave
ripped
congressman
shed
blockade
advocates
succeed
transition
runoff
siege
tajikistan
tower
macedonian
farewell
nadal
mourning
latvia
core
colombo
volkswagen
fact
mortar
dogs
gar@@
copenhagen
tainted
victories
mohammad
respond
withdraws
musical
passage
fights
recognize
jeff
maritime
mag@@
gary
continental
thin
deeply
men@@
pressing
protecting
worse
seminar
vs.
sense
wickets
ering
lows
francs
wta
ens
competitive
anticipated
albanians
doors
archbishop
ucla
hometown
hor@@
hills
kicks
dismisses
designer
ely
condolences
upgrade
nicaragua
lightning
cardinals
stealing
sing
trapped
stewart
andre
organisers
zero
universal
catch
postal
bottom
burn
confrontation
han@@
progressive
buyers
cement
racism
eric
ward
ches
mp
chess
flames
heritage
saving
badly
shinawatra
ky
tael
drilling
covering
ibm
richter
bro@@
kuala
jiabao
val@@
fre@@
aging
acquired
residence
dennis
non@@
recalls
developments
measuring
sm@@
secrets
boosts
ju@@
shown
corps
debts
percentage
ob@@
reflecting
prestigious
factories
retailers
ros@@
rebounded
ping
destroy
dr
hijacked
uprising
prague
yahoo
guests
sailors
bloomberg
ble
rebounds
jerry
serena
deploy
pna
lumpur
monitors
uncertain
inaugural
holder
criminals
blasted
montreal
celtics
buses
virgin
advice
bs
bruins
u.k.
terminal
missions
fixed
braves
weakness
rebuilding
selection
wings
insists
inaugurated
-nation
donated
insurer
overtime
narrowly
freestyle
seem
islamabad
funded
deadliest
polling
abdul
checks
harsh
nairobi
carbon
either
library
sinking
declaring
easier
soar
arena
maoist
trans
renew
downs
ger@@
devices
plagued
incumbent
nascar
indiana
unexpectedly
all@@
ste@@
sick
textile
jason
earn
germans
sons
sectarian
divisions
male
fu@@
automakers
underway
ra
hol@@
roma
minimum
signal
inspections
assured
villa
tunisia
lashed
zhejiang
dec@@
va
persuade
imminent
impoverished
artists
kohl
influenza
features
stretch
pulling
explain
belonging
iv@@
journey
hidden
kuomintang
sometimes
tentative
!
approve
koreans
je@@
mikhail
forex
forming
lyon
ged
afghans
confirm
hui
concrete
behavior
crop
enrichment
searched
ri
ut@@
pri@@
firmer
jimmy
trinidad
refusal
investigations
envoys
bryant
guide
bon@@
ages
ery
um@@
peak
engineers
signals
dean
hi
overturned
fatally
slovak
stress
academic
cola
worry
nears
sar
millennium
fe@@
recognition
battled
seal
bernanke
crews
des@@
risen
sit
letters
pete
expo
violation
god
treat
clearing
monopoly
peng
triumph
tariffs
ankle
infection
theme
novel
venus
governors
looming
dy
han
aerospace
inner
notes
photos
f-
g-
burst
direction
consensus
automobile
ance
undergo
rolling
ec
mahathir
ce@@
citizenship
dam
baltimore
dhaka
irna
shortages
karadzic
thousand
option
write
gear
sporting
reputation
praise
deputies
wound
preparation
temperatures
tianjin
slash
article
wayne
waves
celtic
original
spirit
roy
ce
hiding
izing
kn@@
traffickers
ok
inventories
sol@@
barely
kidnapped
edges
powered
clears
mogadishu
inmate
conglomerate
dumping
xi
departure
cardinal
ass@@
damaging
contested
capture
voter
truth
fujian
edition
n.y.
consulate
withdrawn
contributions
oust
shops
ses
prodi
overs
really
urgent
virtually
images
endorsed
capacity
fill
regulatory
circuit
unanimously
bronze
honda
soil
ann@@
riding
albright
ched
cattle
skorean
iaea
imprisoned
perform
subject
clark
apart
vacation
protestant
panic
ics
cigarette
barry
married
palestine
evacuate
gi@@
congolese
rift
spoke
perry
rolls
tennessee
citigroup
expensive
hikes
desperate
salt
enemy
revenge
consumption
handle
shrine
weakened
hat
challenged
interested
sea@@
runway
reverse
holidays
containing
ups
zhang
ill@@
sparks
mer
assess
operators
ownership
hub
girlfriend
slowed
stabbed
-man
pat@@
lpga
predicts
demonstrated
knows
empire
guidelines
divorce
win@@
regulator
sponsored
skiing
submitted
stunning
harbor
sar@@
stays
priests
flooded
upheld
goodwill
mob
foods
read
significantly
bbc
pursuit
founding
intensified
edward
seasons
arctic
challenging
harassment
examine
summary
mcdonald
hampshire
grip
organizing
mean
balkans
the@@
crops
commodities
malaria
midnight
outrage
merge
messages
rays
lula
disappointing
icon
fallujah
valencia
ci@@
melbourne
privatization
defiant
fin@@
javier
mac
finances
qualify
comment
advisers
steep
berg
carl
rolled
mad@@
filing
mississippi
anne
wealthy
laboratory
tar@@
quarters
zones
sun@@
berth
barometer
qualifiers
sluggish
curfew
alabama
ken@@
bol@@
simon
vowing
mel@@
que
throw
ence
eleven
babies
sub
intends
solana
greenpeace
ferrari
churches
penalties
widow
bmw
drowned
rapidly
palin
coaches
concessions
c.
lying
replacement
sn@@
ire
page
reds
agreeing
referee
arguments
judiciary
everyone
explore
album
respiratory
wh@@
blues
parks
ip@@
serial
usd
tyson
accepts
economists
ibrahim
ace
propose
tonight
unicef
croat
ves
suharto
missouri
multinational
ff
stones
shandong
documentary
carriers
rudolph
stayed
wilson
airplane
bolivian
disarm
detainee
bombed
directly
siemens
slated
eu@@
knocked
elsewhere
dry
cppcc
guy
ist@@
economics
touch
pioneer
fiat
unveil
marseille
external
mall
caution
fla
emotional
disclosed
don@@
celebrating
lance
analyst
barrels
amsterdam
lottery
tonnes
aftermath
famed
roddick
monaco
africans
pat
older
gift
ftse
bankers
clinic
shadow
counts
larry
decides
hal@@
ou
investigated
plastic
remember
deportation
conservation
ankara
venue
robust
lions
aziz
feeling
impasse
provider
semiconductor
engaged
prisons
ji@@
atop
banker
airstrikes
herself
gl@@
contribute
wells
declining
ica
peso
corner
chan
ite
tumble
encouraging
cincinnati
shipment
dominate
inv@@
complained
plead
looms
syndrome
stockholm
visas
institution
ea@@
defeating
simple
empty
ically
ret@@
gen@@
ess
cloud
pierre
managing
competing
campaigning
ser@@
secured
weighed
flash
des
leeds
strict
mounted
oman
metro
amazon
cen@@
commodity
religion
hiring
precede
mavericks
kers
volunteers
wal@@
values
presses
escape
probes
rampage
samsung
worsening
contacts
tactics
martial
beleaguered
tion
retreat
rejecting
bloodshed
dinner
legendary
sight
critic
rican
communication
og@@
mulls
sin@@
possession
ryan
athletic
mate
ped
privacy
districts
eating
pictures
broker
charging
salary
broncos
clothing
medium
att@@
armored
richest
shootings
impeachment
restaurants
neighbouring
retaliation
reception
crossed
traveled
cas@@
resolving
ders
ast@@
wil@@
resolved
extraordinary
easter
pledging
arriving
ker@@
deepening
luiz
suffers
kyrgyz
assessment
decisive
ncaa
depression
sidelines
followers
studio
yunnan
ier
asset
fireworks
ion@@
sect
slight
nor@@
window
gingrich
haven
protocol
deposed
cubs
actors
sampras
jumps
moldova
ve@@
hire
jan@@
crowds
torrential
surface
armenian
machines
survivor
mir
sting
scrutiny
suspicious
identify
rushed
jiangsu
nissan
da@@
text
outlawed
correspondent
renowned
wildfires
petition
estrada
survive
saved
tracking
operate
hurricanes
decree
reopened
himalayan
maintained
haul
proved
crunch
jong
odds
zhu
neck
learning
mysterious
inspired
foes
burns
anything
wholesale
lethal
yangtze
-kilometer
ore@@
michelle
vol@@
painting
foster
ordering
ze@@
smashed
isolated
encouraged
canal
awaiting
popularity
ino
seeing
wealth
sidelined
voices
nicole
romney
sed
gate
sinks
osce
mohamed
eases
laureate
troubles
exporting
stick
marc
espionage
ara
unhcr
felipe
qtr
bone
kin
europeans
wider
degree
aristide
horn
clinch
dmitry
nokia
oregon
indictment
ak
stages
muhammad
hassan
eager
lufthansa
acute
mit@@
alarm
briton
hate
nu@@
extreme
equal
contractor
slips
med
swing
autonomy
featuring
legacy
murray
caucasus
denounces
sparking
teenagers
outstanding
gr@@
chicken
honduran
turkmenistan
beauty
sustainable
multiple
counting
bobby
salvage
gen
anthony
bags
finishing
bles
oakland
d.
bribes
spa
hosting
demonstrate
alpine
wreckage
sergei
performing
processing
lucrative
sitting
gene
pin@@
reaffirmed
turnout
wary
brink
critically
shimon
ao
bears
prayer
postpone
scandals
refuse
overwhelmingly
batch
magnitude
harm
ster
mena
champ
bo
breach
philip
posed
debates
framework
farms
prayers
racist
focusing
hip
metropolitan
kat@@
checkpoint
abusing
rivers
tradition
quietly
shattered
lisbon
slowly
lagos
ross
slumped
lab
hawaii
routes
tal@@
wear
sudden
flags
orlando
restraint
lithuanian
confirmation
tajik
alleging
capitol
reshuffle
severely
pa
immunity
hair
ab
punish
mac@@
ram@@
pol@@
procedures
spree
offense
lunar
disasters
l.a.
mid@@
diving
supplier
end@@
repeat
proceedings
pc
staying
santos
servants
contentious
someone
survival
scholars
exposed
advisor
ern@@
replacing
lie
icc
satisfied
homer
daimlerchrysler
maliki
engineer
nazis
garcia
type
forge
fa@@
sensex
bruce
cyclist
informed
ek
rel@@
hewitt
protected
frontier
formation
nepalese
under-
stamp
swift
skipper
defuse
goldman
await
pride
fein
glass
buffalo
liaoning
planet
substantial
burma
narcotics
stuck
preventing
bet
regain
donor
if@@
bright
ivan
candidacy
marginally
tottenham
sessions
terry
requested
detected
commit
lender
togo
ep@@
sole
postpones
ators
albert
ideas
lock
kidnapping
mus@@
belfast
surges
motorcycle
ferguson
investigator
models
cra@@
tightened
celebrity
hur@@
im
warship
generally
emerge
levy
vs
centuries
knowledge
consequences
shareholder
khartoum
governmental
studying
libertadores
obtained
ericsson
strife
educational
arson
air@@
overcame
airspace
forthcoming
bull
pr@@
statue
islanders
mur@@
extradited
principle
za
disrupted
gray
repeated
lies
ously
hainan
dairy
eagles
sir
yields
austerity
sarah
hague
sinn
coaching
category
broadcaster
regarding
ruler
objections
participants
ko@@
radar
inspector
recount
kobe
expulsion
restart
greg
shelter
establishing
switch
residential
discussing
fortune
territorial
ze
destroying
qualified
transferred
ane
cotton
occurred
clues
hi@@
wrapped
hyundai
pose
bre@@
dragged
strengthened
unite
arguing
trick
straits
trained
quite
exhibit
nightclub
mol@@
dealer
taxi
scam
partly
tale
embassies
far@@
mario
skies
brands
warsaw
lea@@
cemetery
imprisonment
publication
gymnastics
shipments
gri@@
ga
teammate
handover
britons
ale
farmer
bankrupt
gunned
tom@@
courtroom
robinson
exporters
jails
mitsubishi
loaded
maryland
deciding
hispanic
generals
pi@@
tri
guest
humanity
summoned
shelling
miguel
pandemic
warlord
bury
completes
sealed
suddenly
yukos
sharif
seizes
founded
bradley
uncovered
franco
sanchez
luxembourg
bissau
symbol
protestors
winger
kazakh
drill
wildfire
chair
cannes
-point
promoted
patent
uzbek
militiamen
pataki
seizure
suing
fallout
reg@@
discussion
medalist
mariners
spots
restored
strongest
ova
michel
lingering
eliminated
prescription
ys
liberty
-foot
spectacular
routine
nevada
stanford
extradite
off@@
maximum
renault
incentives
ramadan
roots
lung
san@@
escaped
lynch
preserve
harvest
cult
drink
talent
communists
jeou
campbell
character
reunification
loyal
passport
quarterfinal
anwar
rioting
heightened
insider
requiring
namibia
usual
select
strained
frenchman
clinched
expands
clock
structure
surprising
effectively
arbitration
walt
basra
bun@@
reward
doha
yards
atrocities
provisional
sadc
notice
atletico
younger
rejection
shutdown
gs
bas@@
smuggled
thabo
reveal
walking
disappeared
cites
landslides
criticised
martinez
ts@@
bullets
nominations
ja
sniper
eventually
roles
ki@@
fujimori
attackers
ama
cote
economist
australians
ambitions
roberto
ats
ka@@
prophet
reacted
removal
dying
depot
disrupt
sand@@
prevented
hamburg
debris
duke
nick
weightlifting
solo
mediation
discusses
pack
persian
herald
por@@
estimate
dip
belt
undermine
ah@@
bea@@
behalf
bout
mediator
boxer
cat@@
awaits
registration
consultative
highlights
cnn
bag
oau
b.
error
forecasts
rape
lights
athlete
commemorate
donate
west@@
ines
tomorrow
register
quebec
star@@
hints
timetable
mo
favored
cook
obasanjo
halts
waited
mothers
pieces
anti@@
upsets
nice
rev.
ol
mistake
migrant
ered
supposed
everton
collect
thinking
incoming
ammunition
spur
grim
sab@@
raging
mul@@
ipo
alitalia
bonuses
char@@
bolton
performances
pur@@
yu
macau
deeper
ouster
licenses
neo
copyright
pet
merrill
res@@
soars
scholar
enjoy
indices
stabilize
fruit
mongolian
kenneth
ahmad
tommy
regrets
ath@@
fueled
spate
penguins
unilateral
storage
stripped
roberts
accepting
...
catholics
supermarket
gangs
pla
biden
explodes
ain
intention
ditch
iii
shocked
transplant
squ@@
refuge
participating
volvo
victoria
feud
bul@@
freight
dominant
grass
cigarettes
intensify
slows
impressive
tightening
head@@
hosted
ran@@
mahmud
confessed
installed
youngest
che@@
plunges
poorest
adams
cameras
ola
observer
lehman
salaries
mauritania
orbit
matt
tracks
post@@
buoyed
represent
harare
indefinitely
newest
rider
tur@@
grown
warring
steven
ubs
rough
hy@@
rehabilitation
fun
grozny
madeleine
gp
criticizing
wa@@
defendants
red@@
sam@@
maintenance
lets
fence
colony
killers
else
cited
mar
hammer
spark
inacio
islamists
java
tours
cur@@
roster
ini
morales
hurdles
memorandum
dell
lat@@
performed
twelve
stabbing
sy
collected
layoffs
seeds
stole
maine
feed
sharks
ink
aw@@
indigenous
ow@@
hamilton
achieved
imposing
shakes
amateur
ajax
ceremonies
regret
mp@@
dramatically
evasion
diesel
milwaukee
deposits
ths
rebellion
holders
institutional
ind@@
exchanged
mild
fore@@
dirty
nursing
ities
predecessor
dumped
borrowing
wartime
potter
dra@@
flown
graham
silent
relatively
requirements
smooth
raul
ro
vincent
contractors
holes
sponsor
adopts
endorsement
airstrike
jumping
jungle
stra@@
ial
ryder
bowler
hun
abused
fred
smugglers
vessels
walter
bayer
wire
sur@@
expecting
ada
commentary
aires
lobbying
bench
lu
seas
ignored
reveals
gazprom
developer
owed
ber
awareness
centre
accuse
raw
spacecraft
ns
fee
retained
proof
blaming
handing
straw
cam@@
physical
adoption
dates
posting
lasting
oversight
sang
radioactive
forests
rooms
madoff
mile
cat
hanoi
guatemalan
requests
except
lobby
pardon
efficiency
franchise
tru@@
intensive
probing
lazio
macapagal
reiterates
expel
counsel
mood
concerning
trainer
pearl
intellectual
contaminated
dengue
denying
skills
interference
gal@@
ducks
lowered
retains
str@@
contribution
proliferation
ative
ars
cape
rubble
telecoms
thirty
undergoing
morris
mosul
brawl
dating
usually
anderson
lists
bipartisan
unfair
usc
monica
contingent
museveni
ti
dun@@
sciences
walker
expressing
consultations
monks
essential
engines
manage
arkansas
rod
weigh
anaheim
carmaker
literature
ited
norman
ness
gre@@
treason
tive
sized
flyers
colonial
mitchell
owing
pump
environmentalists
teammates
hedge
pinochet
peacefully
slower
ann
shape
midwest
def@@
ambassadors
tro@@
jitters
wfp
chose
pursued
intervene
safely
invites
ramallah
accelerate
dem@@
withdrawing
confederation
vulnerable
plate
ef@@
historical
yacht
minorities
probation
surprised
od@@
moody
discipline
smuggle
responding
sil@@
fold
guarantees
yi
persistent
tone
yitzhak
smart
douglas
buenos
moments
filmmaker
fo@@
expenses
presents
directed
fog
ala
khatami
dublin
dipped
discount
weakening
dale
climbs
ger
jay
shoots
pilgrimage
betting
roof
outskirts
repeatedly
connected
screening
jetliner
clay
topped
broader
permit
kandahar
ning
hand@@
wicket
kil@@
galaxy
stern
ging
dismiss
wi@@
verge
spin
lopez
buyout
earthquakes
colleges
arm@@
listing
inger
muscle
comply
brokerage
administrator
tan@@
ball@@
marred
detailed
lure
bundesbank
feels
riyadh
manslaughter
shoppers
dismissal
monument
ished
transactions
sahara
ade
mercedes
misconduct
rent
quell
telekom
christie
anglo
ive
com
ere
analysis
birmingham
americas
insisting
statistical
advancing
accords
audit
supervision
railroad
powerhouse
genetic
costly
recruiting
hsbc
lit@@
renews
stri@@
dr@@
lined
settles
astronaut
grade
davenport
ghali
down@@
recognized
ottawa
fer@@
suns
millionaire
cap
obtain
zanzibar
ls
sheriff
taiex
adults
excessive
nv
cypriots
henin
rout
ny@@
ement
harder
ranch
farming
alongside
pkk
humans
foiled
experienced
poet
songs
container
bold
describing
heights
commuter
opposing
ovic
slashed
circle
submit
militias
turin
defying
memories
metals
po
nurses
facebook
aussie
difficulties
upholds
mann
barriers
individuals
&apos;ivoire
ly@@
ised
fil@@
revival
teaching
disgraced
accession
beheaded
hail
biological
resident
vicente
oks
donation
insurgent
surrendered
advocate
craig
convince
exactly
dic@@
blake
donates
confront
advised
trader
speaks
mud
congratulates
turnover
shuts
answers
gro@@
dealt
planted
oslo
nationalists
botswana
shells
purchases
convicts
plus
nic@@
unacceptable
enhancing
mohamad
gifts
efficient
substance
classified
cav@@
issuing
completing
lone
favorites
condemnation
topple
televised
motorola
appointment
shoes
ambushed
staging
qantas
equities
ladies
hingis
packard
clothes
lan@@
gesture
arthur
defiance
trades
parking
councilor
kelly
departments
suits
highlight
bust
thompson
viewers
principal
tears
camera
queens
shan
ultra
braced
cole
gays
kabila
studios
associates
cooperative
controlling
sumatra
paintings
receiver
g.
sson
sts
researcher
stunned
commitments
eat
plenty
hanging
robin
retires
gap
tore
ious
may@@
tire
speeding
rockies
polio
genetically
igor
wa
boxes
pitching
helmut
ians
ossetia
heating
architect
mun@@
son@@
defendant
indexes
jesus
mourn
phillies
kh@@
gging
laura
hurdle
endorse
electrical
origin
ell@@
dedicated
valued
nile
determination
gor@@
recording
tic
prostitution
columns
austin
clijsters
ges
rulers
ji
desire
frustrated
slid
maintaining
ney
drunken
adam
magistrate
mix
karl
warriors
plunging
speedway
chin@@
unified
assailants
len@@
spare
condemning
valuable
turner
lakes
moral
mini
milestone
nancy
guangxi
mastermind
ily
conducting
sions
infant
moore
superstar
ga@@
reconsider
reigning
bias
reagan
braces
sk
romano
rein
tip
solomon
mechanism
balanced
stopping
iranians
spell
mighty
ung
tunisian
sentencing
rat@@
prior
gorges
mos@@
toy
water@@
weapon
authorized
sel@@
stemming
na@@
bat@@
maradona
ordinary
cher
nar@@
gun@@
concludes
cab@@
pressures
murdoch
dy@@
ine@@
latvian
rid
annually
gunbattle
irregularities
projected
cameron
sacramento
cal
tortured
matters
nicaraguan
fearing
classes
insurers
resulted
ee@@
happy
widening
divide
zhou
properties
oversee
assassinated
heated
timothy
contender
fr@@
pneumonia
sailor
survives
astros
hewlett
marie
painful
extensive
prosperity
sem@@
defenseman
acres
weighs
cautiously
trips
bou@@
corrupt
creditors
angel
competitors
dar
controllers
throws
ff@@
anc@@
financier
restrict
oecd
prop
crush
ingly
informal
skeptical
builds
yushchenko
highways
suburbs
color
signaled
congratulated
hectares
restoring
hushen
actually
ridden
municipality
u.
yield
iaaf
ents
patrols
detonated
jar@@
mali
risky
component
bing
mourners
transitional
bly
reassure
bertrand
rampant
remarkable
partially
sailing
glory
pounded
triggering
vis@@
grenades
passports
rage
italians
sha@@
todd
incursion
p.
arch
agu@@
overwhelming
ronald
devil
illa
gall@@
wisconsin
laying
autumn
favors
dre@@
nominees
crushed
enterprise
delaying
yard
sy@@
hilton
marlins
capable
gabon
deng
amr
ving
touched
stream
wei
slumping
ong@@
cracks
earns
porto
noon
blind
bri@@
shaanxi
arrivals
reversing
abruptly
estonian
toys
household
sav@@
bse
ignoring
rifle
leg@@
ratify
wish
client
underwent
shaky
mistakes
zuma
livestock
fischer
adult
dolphins
procedure
mediators
mi
bashar
designate
content
repatriation
convene
roh
heroes
bethlehem
cycle
facilitate
fra@@
argued
load
stalemate
pretax
unesco
coordinator
restoration
entrance
papers
relative
migration
unita
aiding
runners
rok
pitched
modestly
volumes
tighter
subprime
guyana
vo@@
chi@@
honorary
ultimatum
openly
surrounded
carlo
dump
pages
punished
criticize
delivering
freezing
med@@
thieves
raiders
nervous
remembered
arresting
zagreb
mentally
megawati
by@@
janeiro
acc@@
crippling
frees
marcos
kir@@
populous
suggest
whale
atlantis
ain@@
du
failures
regulate
uss
atmosphere
indy
enemies
jon
theory
erdogan
eddie
credibility
spike
mak@@
knife
besieged
gender
greeted
rings
extremism
contained
strapped
avian
radovan
i.
picking
sean
automatic
enforce
alized
overthrow
signaling
grab
counties
pel@@
civic
pun@@
skin
sul@@
sumo
simply
new@@
lashes
exclusive
escalation
tuberculosis
rocky
resuming
fda
ville
powder
executions
cap@@
kal@@
burial
firmly
ese
reopens
pen
grounded
yu@@
tender
exposure
pic@@
royals
vel@@
wizards
thriller
thick
havana
indianapolis
pursuing
proceed
ear@@
grabbed
novelist
forget
biathlon
mountainous
initiatives
testifies
archaeologists
hutu
cellular
paving
graf
denounce
trigger
abkhazia
ib@@
claude
canadians
caretaker
porn
bearing
partisan
kathmandu
literary
buildup
ric@@
rey
revolt
tightens
coordinate
lion
zurich
fat
frustration
arabian
derailed
achievements
casting
downed
creates
fel@@
om
anti-
scenes
kidney
ach@@
lam@@
nan
cd
srebrenica
dreams
horror
sorenstam
alvaro
located
specific
tin
kiev
cavaliers
completely
bronx
securing
coordinated
ee
yes
loved
pakistanis
hungry
virtual
owns
qian
lessons
-mile
unearthed
batsman
turks
reviewing
vajpayee
column
ashcroft
burden
wor@@
steam
gg@@
opium
robbers
infections
leaked
ization
hans
symbolic
divers
deteriorating
flies
rafah
dhabi
label
promotes
counter@@
meltdown
lockerbie
teens
principles
lincoln
enc@@
tang
automotive
horses
hksar
treating
olusegun
ick
hefty
symposium
wrestling
arg@@
medicines
disperse
d.c.
jewelry
henan
yoweri
hybrid
billy
injection
pesos
keen
surviving
nurse
grammy
variety
justices
nam
coordination
oracle
hawks
lenders
hen@@
composer
dancing
walls
graduate
fu
sweet
factor
weighing
petrol
ruins
che
ied
warships
maybe
crises
samuel
servicemen
u.s
exxon
algiers
rongji
cancellation
fiery
bay@@
merck
troy
lengthy
nat@@
hudson
tor
modified
globalization
sleep
interrogation
witnessed
wright
retiring
hijackers
sovereign
nov@@
portion
reformist
enlargement
settling
gong
discover
thanksgiving
diabetes
sachs
reviews
ably
releasing
aggression
moderately
hunter
contenders
graves
brad
lawrence
tre@@
seizing
wishes
francois
safeguard
aol
chest
taste
avenue
multibillion
swimmer
rankings
tomb
disciplinary
focuses
tung
black@@
happened
movements
nw
dust
rit@@
qinghai
encounter
blown
iting
closest
adjusted
steal
install
dor@@
pointed
dave
reversed
pickup
privately
felix
noted
hebei
victor
edging
pas@@
aries
saves
orioles
johnny
owen
chongqing
nablus
bremen
turnaround
facts
recommends
lindsay
impossible
anc
neighborhoods
invite
sor@@
destroys
surgeon
outspoken
liquidity
martha
admit
quotas
examination
slaughter
radiation
lieberman
outlines
utilities
clerics
spat
kuchma
pretty
extremely
specialist
clippers
comm@@
su
burg
stuttgart
mercury
shirt
example
embezzlement
ants
findings
gases
conspiring
joy
dictatorship
medics
posing
argument
mediate
slim
hitler
hunan
carnival
rer
paralyzed
tly
tiananmen
clouds
respectively
enable
climbing
barroso
nor
designated
revived
maintains
enjoyed
ivanov
negotiated
colonel
hide
colleague
consolidate
satellites
deb@@
klaus
premiere
orchestra
ess@@
resist
instability
goran
uribe
reaffirms
nuggets
unique
organize
fundamentalist
our@@
soul
removing
portland
bashir
hon@@
machinery
ory
hood
eads
degrees
technological
destination
spreads
deadlocked
brotherhood
volcanic
conf@@
retreated
.@@
fares
bonus
reviving
jonathan
poured
eng@@
misses
stea@@
richardson
woo
sail
parole
u.s.-based
hung
stampede
observe
tools
najaf
capitalization
rated
madonna
separated
ur
sights
outbreaks
drinks
flowers
jesse
willingness
toppled
comfortable
confiscated
deliveries
jorge
assurances
vit@@
experimental
embrace
bullet
jamaican
pistons
cubans
offenders
slovenian
crushing
compensate
prompt
burmese
thinks
golds
blackburn
bru@@
investing
granting
greenback
propaganda
endorses
sprinter
semis
angered
hunters
eur
uygur
socialists
disclosure
transmission
reactors
soybean
organ
obstacles
gadhafi
ality
naming
methods
sheffield
favorable
understand
craft
volunteer
columbus
bi
pt
asiad
cro@@
panda
rooney
pacers
ining
taxpayers
hearts
mid-
letting
dortmund
samples
vaclav
barbara
tribe
anhui
avoided
boyfriend
engage
eligible
compatriot
priorities
contracted
ide
nuke
pastor
mayoral
editors
fernandez
attitude
recovers
recalling
teng
ology
conversation
none
ja@@
ologist
charlotte
eduardo
recruit
committing
resolutions
sayyaf
handful
everest
dangers
&apos;neal
cartoon
snapped
sec@@
tariff
lukashenko
newt
gandhi
ebay
lockheed
opel
deepen
pave
implementing
oun@@
daimler
epic
venice
ments
marshall
sink
lieutenant
mutiny
liber@@
combating
deficits
gbagbo
indicating
defied
stein
customer
pak
hat@@
foul
ile
reno
fare
fiction
separation
confusion
euro@@
crippled
loc@@
taichung
din
luck
skip
successive
location
rattled
din@@
dressed
prolonged
lesotho
brokered
hubei
tool
workshop
oscars
sid@@
mecca
accidentally
tam@@
pul@@
amounts
ebola
-dollar
ita
rap@@
evil
lon@@
earning
derail
warfare
cohen
solutions
phelps
dividend
diagnosed
tak@@
shoe
neither
map
drunk
attracted
ernesto
illicit
comic
eman
homemade
aston
acted
fle@@
mercosur
overturn
proposing
rupiah
washed
flower
beaches
koreas
aig
mill@@
strategies
janet
lane
bling
pierce
jung
foe
celebrities
cel@@
planting
elephant
likud
stat@@
kicking
counterfeit
productivity
collective
eth@@
prosecute
finger
gcc
icrc
intent
affecting
ky@@
marco
embargo
sters
secretly
unconstitutional
thirds
ata
precious
malta
wikileaks
courthouse
scrambled
rabbi
bahamas
gallery
berger
pon@@
tide
disastrous
sky@@
resulting
law@@
improves
poses
proclaimed
isolation
caspian
francis
van@@
inspect
epa
sounds
em
exporter
shane
conclusion
bil@@
ico
slayings
oned
emir
dig
synagogue
cathedral
mitt
hurled
sion
undisclosed
zairean
kyoto
flagship
cinema
interpol
numerous
dips
laborers
wbc
flotilla
elementary
postwar
readiness
ado
elements
talked
jockey
fuels
corporations
kaczynski
vivendi
my@@
uniform
furious
shaken
channels
hughes
iro
reflect
outdoor
pra@@
pet@@
ty@@
queensland
miner
daughters
guarded
idol
justin
farc
yan
silicon
jun@@
mah@@
delivers
madison
inc@@
motivated
tips
barring
mofa
met@@
proper
lied
drag
counted
u.s.-backed
elimination
garbage
ari
margin
wreck
branches
spears
chartered
wheel
completion
perez
yn
conclude
jacob
martina
proud
ette
jolted
gam@@
sort
charlie
margaret
secular
shifts
blockbuster
warehouse
lifetime
hom@@
pleased
panthers
tornado
unarmed
bosses
lloyd
dominique
auckland
bet@@
repairs
voluntary
casualty
moi
unanimous
barrage
ager
lau@@
dress
twist
beneath
knight
upward
adjourned
siberian
vp
hyun
show@@
paint
feeding
mainstream
outlined
respects
freddie
ballistic
faltering
homeowners
eriksson
abuja
scattered
sabres
ole
singing
choosing
insulting
videos
chapter
tem@@
fri@@
pedro
violate
boca
searches
pipe
kov
hijacking
warrants
respected
lan
widened
tsvangirai
convinced
entrepreneurs
dubbed
root
rem@@
brunei
clergy
mounts
youtube
zh@@
murderer
balls
quarantine
sabotage
are@@
resource
helm
ghraib
ev
mel
sunken
indication
dock
yan@@
mills
recommend
plight
pot@@
railways
sweeps
burkina
harris
assaulting
bow
uruguayan
floyd
ently
wwii
provisions
ned
outs
abduction
nerve
tinto
childhood
mogul
frederick
operated
rhetoric
oval
marion
suspending
fitness
consolidated
township
riders
alps
ions
locker
rac@@
print
downing
gamble
parker
lease
ventures
aking
application
republics
elects
assassinate
overshadowed
hears
strokes
conceded
bucks
kirkuk
eggs
spurred
dynasty
fifteen
credentials
combination
top@@
raymond
defy
hemisphere
ena
aluminum
cartoons
responded
pers
forged
reeling
fur@@
ito
unpaid
merchant
sisters
bak@@
tayyip
keeper
judgment
ped@@
overseeing
improvements
huang
shirts
baht
ismail
unusually
hinted
crystal
kes
cleanup
walks
auschwitz
ther@@
ricky
bled
relics
professionals
-run
cent
halfway
surprisingly
forestry
prizes
angrily
safin
sultan
halting
erupts
pac@@
stiff
dol@@
havoc
garment
spl@@
comedian
lar@@
interviews
shiites
mandatory
moussaoui
assists
wan
cathay
reliance
pe
symptoms
patriarch
tenure
tel@@
yevgeny
skier
knockout
dominance
gonzales
ver
atal
patience
kan@@
primaries
wracked
crowned
calendar
predict
recep
artificial
icy
alain
backers
safer
otherwise
anxiety
convened
kadhafi
consulting
shark
som@@
leon
carries
cheer
faso
introduction
tackling
ballet
bab@@
qichen
batting
formerly
leaking
bordering
speedy
factors
k.
pay@@
implicated
panamanian
admission
ets
yudhoyono
bordeaux
sprawling
lech
mauresmo
examining
replaces
ishes
ws
achievement
tran@@
rus@@
suggestions
originally
pork
caracas
leonid
yangon
seles
brewers
unclear
unofficial
fledgling
glenn
governance
tolerance
indo
detains
sto@@
forbes
healthcare
amendments
dismantle
bucharest
tim@@
rig
keith
shifting
dan@@
hardly
internationally
curbs
drives
sabah
compl@@
furniture
norodom
ratified
universe
jazeera
blatter
suez
equivalent
widens
pensions
graduates
permits
psv
oath
chernomyrdin
unpopular
sel
acquisitions
moratorium
cooking
wade
bollywood
integrity
rob
sinai
susilo
rallying
speedskating
maiden
approaching
method
floating
pirate
passion
outfielder
ow
cabin
correct
robbed
saakashvili
diet
competitions
poles
thwart
hopefuls
swung
publicity
disappearance
ry@@
takeoff
thirteen
bones
mourns
propelled
retrial
nas@@
tering
biotechnology
rams
affirmative
ened
sympathy
debated
errors
forty
oo@@
quoting
catastrophe
t.
djokovic
ron@@
endeavour
bounce
restructure
financially
publish
kor@@
lima
conductor
assisted
eruption
weary
valentine
carefully
inciting
avoiding
ignore
falcons
trio
dealings
ceiling
ram
unemployed
engagement
ici@@
backlash
ium
anglican
strongman
sevilla
quota
blueprint
golfer
zing
unification
mut@@
flame
wind@@
cul@@
recommendations
var@@
wonder
colo
reinforce
samoa
padres
marriages
evans
sand
emb@@
sat@@
iss
reunion
matthew
specialists
marry
qatari
fao
md
sw
aya
duo
hwa
klm
desk
sofia
ella
deposit
ayatollah
filipinos
min
nearing
harper
snap
curbing
plug
masked
mexicans
-magnitude
montana
fortunes
chickens
ante
musicians
secrecy
briefed
forensic
counterterrorism
grabs
becker
scrap
zi
jane
sle@@
toughest
bihac
bridges
freighter
forecasters
anxious
lucky
benz
ona
slides
cc
developers
ferdinand
mayors
bacteria
sebastian
pfizer
zhuang
industrials
tires
chairwoman
pres@@
looted
spaniard
hanged
ich
historian
winston
stationed
readers
miracle
mari@@
vaccines
tipped
kl@@
mae
battery
swim
calderon
networking
hus@@
sum
liners
scrambling
elli
mclaren
mineral
explanation
downward
travels
rogers
arrangements
cos@@
ops
resorts
meteorological
sive
multimillion
.com
reluctant
porsche
zelaya
choices
runaway
ila
cure
franc
mic@@
expense
deemed
vic@@
turbulent
reopening
nanjing
experiment
ure
pig
lackluster
stamps
rank
repay
plummeted
v.
lev@@
ish@@
intercepted
slave
nose
rupees
copies
strengthens
riv@@
impl@@
saints
pharmaceuticals
weaken
shrugged
poison
shanxi
quartet
deliberations
pop@@
lesson
outpost
pelosi
dru@@
dakar
capped
chretien
bambang
dome
transparency
handled
jays
sponsorship
contention
hitter
whales
restricted
czechs
detective
yer
photographs
yao
requires
sergio
rev@@
dev@@
suisse
undp
addition
siberia
advocacy
admitting
bot@@
busch
emerges
universiade
enormous
falun
aegean
ricardo
commandos
nikkei-
leaning
zo
lers
finishes
giro
holed
ali@@
equality
mom
folk
operational
associate
digit
highlighted
halftime
fulham
consultant
sheep
kam@@
applied
busiest
kampala
slipping
havel
provision
chiang
mot@@
spotted
homicide
comfort
tally
gil@@
rivalry
inventory
trim
likes
tribune
tunis
mend
pill
difference
vie
strange
communique
initially
mtv
pigs
generated
buyer
croats
recruits
abdel
apply
signature
wooden
borne
profitable
viewed
hatred
cruz
danny
dismal
cats
brett
sef
chambers
weeklong
ises
raced
camp@@
disclose
fisheries
gaming
op
rubin
past@@
heathrow
brace
of@@
moussa
dou@@
exceed
andrei
represented
investigates
honoring
constructive
raged
pivotal
asi@@
bhp
barclays
monte
nawaz
nightmare
grid
oning
imposes
ira@@
mcveigh
fat@@
dame
carpet
tered
plague
hander
generations
stomach
tan
durable
embarrassing
glimpse
mansion
stre@@
stan@@
bribe
ington
form@@
relegation
lesbian
normally
belarusian
legally
botched
bowling
cer@@
baker
brewer
tier
indicators
canberra
equ@@
goalie
devoted
harlem
ralph
beautiful
timorese
tome
randy
dive
drafting
revamp
deport
shutting
libel
jennifer
offenses
blazers
hires
flurry
ites
sus@@
loose
introduces
tz
bounced
mir@@
golan
grace
nixon
copy
looting
elusive
buffett
rupert
eds
biotech
pressured
worldcom
lowers
concentration
eliminating
rene
addresses
istic
properly
jenin
aznar
concluding
ela
maldives
alism
dos
welsh
vault
christ@@
renewal
decrease
cleaning
exported
narrowed
flock
tune
enti@@
prostate
vacant
shrinking
micro@@
organizer
flawed
dom@@
cache
adopting
coins
jia
maid
convert
deportivo
footage
acceptance
spacewalk
aligned
clearly
providers
si
cautioned
operative
yale
exodus
ip
firearms
tai@@
wenger
addressing
attracting
cafe
ontario
polar
andres
broadcasts
slum
limiting
evo
fla@@
afc
liver
faithful
juniors
glance
cooperating
oic
fundamental
faulty
ack
cheap
psychological
eva
kon@@
tobago
mortgages
fourteen
roughly
meter
gul@@
stockpiles
reid
minors
rest@@
elephants
lag@@
spies
oliver
mobil
bottles
confidential
psychiatric
fertilizer
tion@@
tumbling
aff@@
bracing
reprieve
moo
diocese
banana
ida
defamation
hurting
cluster
gansu
ck@@
suppliers
reference
shelves
visitor
administered
abn
chef
squads
cheered
actively
irs
acquiring
punch
shah
chronic
eritrean
seemingly
steroid
showcase
minh
concept
dea@@
nebraska
satisfaction
minibus
rogue
settler
frequent
museums
pit
lec@@
stevens
bleak
cop@@
shevardnadze
abortions
famine
transform
chasing
fannie
dong
day@@
pile
ratification
n.j.
elle
ringgit
indicates
elian
pit@@
tag
sixteen
hashish
bizarre
dered
hum@@
bad@@
contemporary
invested
gujarat
relevant
undercover
maneuvers
net@@
tonga
wel@@
alize
particular
kos@@
duma
prompts
packages
landscape
prostitutes
contamination
azerbaijani
ilo
collins
penn
unleashed
weakens
pray
tired
chee
scandinavian
max
undermining
fire@@
pink
reliable
develops
innovation
pot
alonso
preseason
mladic
generale
bourses
chernobyl
schalke
addressed
shelters
ples
dam@@
lra
packing
ari@@
liquor
clarke
&apos;neill
cho@@
wnba
casts
follows
koizumi
revered
introducing
ecowas
towers
kumaratunga
ferrero
saudis
-strong
finalists
drafted
consolidation
lad@@
complications
benin
stu@@
baseman
prof@@
gged
buchanan
workforce
ix
swiftly
juvenile
wb
naked
employer
dismantling
revise
committees
parma
ows
add@@
emirate
cracked
chiluba
ances
rigging
steroids
wrongdoing
superior
solving
les@@
ensuring
distribute
burundian
ome
cracking
meaning
zam@@
salmon
izes
supporter
barracks
chaotic
yankee
portfolio
ket@@
trademark
petrochemical
substitute
mph
describes
sponsors
amro
regained
ved
lim@@
mosques
blitz
djibouti
helen
cheers
hun@@
robertson
bill@@
instruments
auctioned
confirming
lays
finalized
gerry
legs
basin
aaron
stressing
coyotes
musician
commanding
apartheid
privatisation
financed
improper
wat@@
pos@@
paulson
tall
strikers
ton@@
ising
sou@@
authoritarian
venues
doc@@
attacker
grief
heir
lao
routed
finale
motorists
wba
journalism
tragic
susan
land@@
bag@@
lots
blows
ear
downgraded
tra
portrait
isa
pets
walkout
legitimate
liquid
anchor
clemens
compact
sticks
she@@
lionel
middlesbrough
predicting
pin
existence
liberties
ura
phnom
cloning
theaters
mourinho
cave
mickelson
aker
adi@@
convincing
kitchen
lucent
ministries
chevron
gan
timing
akbar
kid
charities
steadily
ulster
amed
disorder
characters
mes@@
rifles
metres
bed@@
treasure
caucus
ack@@
hos@@
trash
publishers
purpose
fault
reign
applications
alter
exploring
spirits
-week
bus@@
pil@@
inevitable
renegade
dad
tory
collecting
oas
franklin
branded
tb
lahore
enthusiasm
zz@@
expedition
call@@
aver@@
ritual
equatorial
toshiba
autopsy
unmanned
fundraising
blackout
ryanair
repatriated
verizon
fifty
olympiakos
pretoria
stall
mull
patriot
sheik
julia
contempt
swaziland
amounted
khamenei
fol@@
ez
beshir
luther
lor@@
semitism
rushing
pti
regarded
renewable
uproar
offs
pornography
lara
clinics
hornets
placing
arian
packers
ris@@
egyptians
obesity
penh
investigative
array
myers
lien
competitiveness
presumed
cisco
dvd
reorganization
apple
semitic
wipe
complain
unauthorized
cop
senegalese
accusation
minds
industrialized
monarchy
enjoying
kafelnikov
oring
tripoli
heal
sliding
alzheimer
chocolate
pills
seals
suspicions
antiquities
bai@@
muster
eled
turf
britney
heats
una
societe
dayton
till
diamondbacks
turbulence
dissent
indefinite
resigning
tol@@
workplace
broadband
grand@@
trump
pairs
yed
monarch
malcolm
achieving
stock@@
allegation
ika
airplanes
rudd
phillips
succeeded
lou@@
shifted
complaining
dual
lodged
attendance
butterfly
articles
chooses
climbers
dalian
antara
commuters
fugitives
undergoes
panathinaikos
mill
oral
greatly
isation
tors
green@@
dispatched
jam@@
gloom
sven
programming
assigned
painter
eless
subdued
scaled
fulfill
episcopal
russell
nights
youngsters
alfred
sophisticated
indicate
middleweight
indonesians
lleyton
ifying
lend
linebacker
detectives
gloomy
hoo@@
spinner
cou@@
approached
nik@@
ture
objects
gy@@
sas
soc@@
elena
sounded
shortfall
leverkusen
gul
neutral
arabic
steer
pioneering
diamonds
depressed
fon@@
generate
leagues
relieved
gradually
disqualified
bos@@
lauds
herzegovina
database
whatever
rover
lusaka
tap
archdiocese
christ
poisoned
rebounding
instant
kashmiri
clan
artifacts
spectators
bir@@
revealing
aground
disappointment
spitzer
kas@@
pointing
guided
eyed
work@@
steelers
marcus
ard@@
intensifies
hangs
transfers
chandrika
remembers
asa
gala
alcatel
alleges
certainly
expires
obstacle
anticipation
watson
shutout
happen
touring
vermont
duel
aired
cruised
emmy
creator
ach
courses
defenses
cyber
tying
nashville
amend
stan
beloved
scenic
balloon
dispatch
booked
dagestan
cheating
agers
cher@@
reduces
magazines
ills
hawk
margins
mekong
extortion
lit
campaigners
guild
growers
referees
subsidy
augusto
audiences
attendants
rarely
stir
champs
landmine
crashing
escalated
newborn
novak
jolts
addis
strains
ike
lobbyist
bets
whitewater
casey
santiago
bargaining
slashing
observed
ey@@
traces
negligence
acknowledges
stretched
philips
manmohan
archipelago
teresa
thorpe
ij@@
admiral
smokers
innocence
czar
handball
punjab
supplying
rages
hijack
ologists
borussia
dur@@
tent
afford
length
credible
inadequate
ultimate
summons
blowing
households
bermuda
kinmen
finalize
binding
inst@@
mont
proves
patch
ez@@
secretariat
keys
antarctic
upgraded
serves
aerial
identification
eradicate
rot@@
lovers
andean
webber
obligations
squeeze
fun@@
briefing
casinos
cy@@
reflects
skepticism
sup@@
displayed
modernize
repeal
spector
misery
inland
contests
transformed
vin@@
-pound
bitterly
provoked
heilongjiang
highlighting
cheng
integrated
negotiation
fidelity
dismissing
indoors
hua
cont@@
lun@@
wiped
estranged
imm@@
flexibility
infl@@
hostilities
ath
ecuadorian
truckers
sleeping
assume
squash
multilateral
will@@
turkmen
warne
circumstances
iled
stimulate
memphis
kirk
mergers
guaranteed
diversity
wrist
logging
fueling
billed
lighting
geological
consideration
magnate
igh@@
helsinki
disrupting
teach
tian
xiamen
maj@@
wolfowitz
generic
painted
mudslides
banco
brewing
comoros
default
ridge
arch@@
creative
foil
collide
maurice
portsmouth
gol@@
af
waving
pec@@
jeffrey
bogota
gubernatorial
impending
telescope
lowering
bang@@
swee@@
influx
wood@@
bert
wielding
xiaoping
ately
grouping
abolish
tures
delegate
dwindling
populated
oprah
slavery
mercantile
comesa
knock
divisive
junk
examined
ibf
ishing
rocker
saga
dominates
rowing
flows
kibaki
describe
grocery
rafik
represents
doomed
bahraini
oni
guardian
secondary
clearance
manhunt
kenny
stricter
sacks
shipped
iconic
nod
homered
ek@@
organs
pavel
ase
invitational
felony
boards
scorer
zia
exam
distributing
kenyans
distributed
pradesh
filling
haitians
aggressively
deliberately
starring
subscribers
but@@
saarc
hull
warmup
bolstered
encourages
toddler
lur@@
ail
explorer
kel@@
makeshift
intensifying
dent
dav@@
deploying
pap@@
smoothly
aki
breakdown
medicaid
logistics
feuding
secession
sack
ency
sher@@
outcry
holbrooke
pricing
fta
lobbyists
aboriginal
neil
flowing
greet
purchasing
daewoo
tabloid
swimmers
haas
shaking
complicated
ugly
pocket
sevens
intimidation
sli@@
expels
exc@@
missionary
cliff
let@@
enhanced
stormy
ced
khodorkovsky
dire
fms
oriented
conventional
vaccination
amtrak
hop
accelerated
rebuke
wallabies
dissolved
brush
recruitment
greens
coma
liaison
cheering
adventure
duncan
itation
wed
eagle
engulfed
homers
io@@
delicate
colorful
costas
confronted
outline
tribesmen
hazardous
demolition
ris
notre
argue
voyage
drastic
acy
latter
lap
drills
sey
convictions
attracts
navigation
lt.
undefeated
pleas
imperial
oilers
concacaf
tata
ck
detail
reminder
fina
trends
swings
leaks
depth
mulling
jilin
rely
scramble
random
moldovan
denouncing
wy@@
curtain
gau@@
telecommunication
germain
professors
wives
rid@@
predominantly
saf@@
bow@@
timber
sana
object
anonymous
ading
backup
memo
righ@@
mccartney
detect
circus
spends
sively
collaboration
speeches
mourned
zarqawi
rossi
ransom
flu@@
rob@@
clinical
elbow
associations
techniques
namibian
gin@@
rematch
shrink
atic
gibson
manufactured
rod@@
symphony
fisher
cambridge
improperly
smallest
freedoms
equipped
wallace
sterling
expos
chronicle
procurement
smile
castle
cut@@
dle
taekwondo
duck
chains
compaq
hackers
requirement
thwarted
censorship
solved
aided
twa
audio
cooling
countdown
eni
catastrophic
holland
freshman
generating
procession
chanting
backdrop
anew
mao
disruption
totaling
glasgow
enjoys
prone
bristol
geithner
pav@@
rove
har
nike
shi@@
ids
episode
priced
starter
rafsanjani
yorkers
bron@@
antarctica
trace
tin@@
catching
earliest
diverted
pregnancy
canadiens
wcup
forgotten
refineries
cousin
benfica
ababa
lover
uniforms
ultimately
checking
aring
accompanied
pianist
situations
gerald
aro
sufficient
eded
ther
jo
dragging
awa
papua
interrupted
departed
lewinsky
treasurer
plots
podium
destined
ethical
sted
ghanaian
ais
taxation
touted
paralympic
builders
lacks
ening
surprises
massacres
designers
bicycle
fro@@
discharged
bread
archives
forging
gold@@
bnp
knocking
premature
kraft
kurdistan
compliance
entrepreneur
provocative
ima
ref@@
worshippers
kodak
robot
hydro
inf@@
button
justine
midst
labels
brilliant
seniors
rasmussen
ame
patriotic
hil@@
raft
polanski
ruble
conflicting
accidental
abandoning
promoter
cricketers
royce
ami
sex@@
catcher
weld
sau@@
ational
versus
dil@@
ansa
symbol@@
checkpoints
roche
extinction
reynolds
format
cops
winding
farmland
fading
inches
zidane
iling
kaz@@
wet
doubling
nec@@
shi
treasures
clinches
mobil@@
willie
shine
deter
goodbye
evaluation
disappointed
ep
anders
isaf
paraguayan
jamie
jeopardy
expression
tourney
banner
reed
sensation
seaside
ea
vi
perot
uk@@
nigerians
catches
sak@@
exiles
devastation
romantic
desperately
laboratories
interstate
spec@@
cri@@
blackwater
mci
amy
infamous
cs
ake
johansson
bottle
ified
reputed
ans@@
fe
types
flagging
renovation
sickened
installations
concerts
parked
quitting
anbar
monsoon
sharemarket
cart
clubhouse
paula
fahd
breeding
brushed
hay@@
lo
pumping
combine
ast
patrolling
hai
disruptions
heartland
ni
pass@@
tainan
rita
implemented
worthy
ud
tallest
rou@@
barbados
ft
whitman
courage
nuri
coll@@
kit@@
ony
ahern
worsen
darkness
outlets
tit@@
cann@@
saab
idaho
internationals
cast@@
reversal
frame
schoolchildren
aware
substantially
dug
kis@@
attached
pain@@
occasion
bonn
aj@@
entitled
dist@@
reinstated
myung
insist
bike
king@@
toured
treatments
long@@
parmalat
starbucks
pablo
ero
wolf
pipelines
pitches
nicholas
spilled
bullish
keane
fac@@
bands
downgrade
disposal
juppe
jaffna
multi@@
sung
absent
moslems
suriname
oy@@
polo
santander
purchased
respective
ax
shut@@
physics
ablaze
mails
countryside
demolished
dly
villepin
nobody
pleading
werder
tossed
amp@@
throne
peugeot
punitive
headlines
ecstasy
locations
listen
ades
consultation
bug
henman
deepened
rounded
postponement
sulawesi
observation
uc@@
premium
realize
big@@
blu@@
az
columnist
newark
opposite
repression
hottest
trailer
tic@@
credited
components
decreased
praising
aled
sits
bud@@
ordeal
rental
sicily
coke
printing
sanctuary
blunt
sihanouk
height
kilometres
bypass
profitability
employed
play@@
snow@@
refrain
aqsa
py@@
kin@@
menem
reclaim
editorial
bible
scoreless
stirs
fiber
breakfast
personally
eventual
kins
darren
ech
hoax
tuition
breeders
alizing
exceeded
scope
stated
revelations
succession
sacred
tumor
gotten
volatility
acid
forever
side@@
attraction
suggestion
eco
fied
lavrov
eindhoven
strom
cream
throat
parcel
+
aga
trek
harmony
bargains
ene
redskins
readies
mov@@
guidance
nestle
marching
dinosaur
monitored
earnhardt
lavish
sunderland
bank@@
heels
concentrate
stadiums
oos
colts
mr.
belief
shaw
tribes
shipyard
dig@@
monster
smash
coroner
radicals
unseeded
classical
elvis
sagging
adequate
tbilisi
ose
background
acclaimed
gir@@
bats
captive
dae
meg@@
ays
judo
evolution
hashimoto
dioxide
pour
appoint
reunited
astronomers
roared
kronor
physician
correction
thomson
kinshasa
ora
populist
jiangxi
observatory
doug
offerings
const@@
deer
dit@@
lif@@
arrangement
zi@@
innovative
unspecified
relax
corpses
sergeant
guizhou
overcoming
nes
hea@@
how@@
misleading
cho
midway
corinthians
tube
yassin
ati
low@@
wigan
gibraltar
hou@@
safrica
inviting
nan@@
luggage
transaction
reductions
moya
personality
romance
hepatitis
ethanol
cy
spencer
ik@@
rejoin
apping
eduard
pp@@
xi@@
explode
assaults
adelaide
jammu
fundamentalists
than@@
soybeans
ramirez
speakers
campaigner
andersen
metropolis
pfp
ys@@
loud
birthplace
encies
vikings
mas
matched
connections
strauss
stave
meningitis
installation
steelmaker
a.@@
convict
villarreal
hammered
viacom
pros@@
infringement
affiliate
iverson
bak
maize
guo
tomas
tournaments
outraged
capsized
bowing
gustav
complains
tidal
thanked
revision
blackhawks
bern@@
snatched
pulitzer
locals
countrywide
rao
rode
substances
peacekeeper
salvadoran
loyalists
speed@@
rooted
canyon
digging
inch
ison
vodafone
thrashers
proving
assaulted
oon
builder
molestation
sebastien
rugged
va@@
funny
attends
topic
nam@@
seller
mwai
ria
twitter
conn
slick
jeremy
flexible
pageant
slogans
u.n.-@@
karen
kostunica
amb@@
sley
hear@@
sig@@
protracted
derek
flaws
q.
circulation
homage
ert
sore
ost@@
touchdown
flamengo
whit@@
reinforcements
brigades
debating
u-
pupils
licensing
natal
didier
mess
assumed
arranged
heavyweights
plutonium
clarify
eurostat
featured
oma
reply
mock
monk
lou
shaquille
commits
slumps
spared
manned
math
gur@@
winless
salaam
prosecuted
nec
grandson
topping
justify
cha
assure
protectionism
skiers
ett
lem@@
cs@@
cyclists
approving
mou
pping
canary
concorde
chadian
pt@@
scre@@
produces
fiorentina
competitor
freezes
absolute
not@@
odd
tumbles
ax@@
shar@@
alarming
joke
lightweight
artistic
breathing
trichet
experiments
ras
hell
-minute
gaz@@
ful@@
butler
bite
springs
tape
float
appropriate
confederations
brisk
importing
cad@@
dia
eli@@
sonia
ei
eries
whaling
grandmother
liner
jackie
nyse
hormone
thatcher
doh
classroom
overwhelmed
dakota
billiton
school@@
peoples
row@@
racketeering
thank
purposes
candy
att
drone
auctions
rides
midterm
outfit
pattern
yearly
gon@@
assures
marches
quar@@
wed@@
ales
borg
pouring
rad@@
temperature
leonard
drifted
sorry
bang
beverage
mitterrand
uneasy
welterweight
rein@@
nalbandian
fi
recommendation
checked
bruno
mistakenly
jse
limbo
kuerten
exploitation
ams
fronts
habitat
racially
bolstering
lap@@
kai
ares
vieira
canceling
brisbane
pea@@
permanently
alist
mention
marino
moammar
nationally
saleh
mont@@
nouri
zo@@
setbacks
bolt
stuff
davydenko
concession
touts
jackets
embarked
meddling
gauge
comparison
hernandez
smo@@
ass
halliburton
hafez
infectious
mobutu
breakup
rainfall
chun
parliamentarians
ashore
okinawa
websites
sacking
pal
distant
syndicate
communism
bailey
outlaw
murphy
imam
badawi
stuart
jor@@
aps
kilos
itz@@
battlefield
daytona
greeks
fury
lebed
hurts
taught
nkorean
manner
doubtful
night@@
predictions
rup@@
attributed
dh@@
hardware
part@@
run@@
converted
yong
emi
administrators
dominating
hubble
slashes
ecological
rogge
sacrifice
gru@@
bare
clout
nabbed
dressing
nonprofit
cannabis
evaluate
kamal
flare
selective
fran@@
ander
etti
clampdown
qwest
enact
eh@@
chart
manning
bel
roc@@
reuters
mang@@
annika
lisa
rebuffed
gripped
winfrey
hit@@
unveiling
chang@@
hindus
authors
widen
chy
noticed
lining
chechens
zimbabweans
jumbo
thierry
&apos;an
harmful
mit
fractured
renewing
crossings
zer
touches
port@@
defects
pause
wbo
combatants
fairly
ponting
tus@@
oxford
nominate
implications
medication
hes@@
brick
waging
appearing
tracy
mickey
iles
bowlers
undecided
practical
reservoir
welcoming
caucuses
hot@@
bulk
manufacture
justified
diverse
interfering
distributor
stalls
arap
furor
accelerating
tuna
fossil
bodyguard
metric
vanished
gears
switched
denial
define
songwriter
transformation
mauritanian
zed
reclusive
syn@@
violates
starr
asbestos
hill@@
tame
ements
coa
certificates
containers
beverly
jer@@
plac@@
mls
dancer
anywhere
ove
reelection
viral
cheaper
pirated
clemency
statewide
playwright
capturing
eb@@
simmering
enberg
acquittal
vin
baggage
lhasa
productive
animated
screens
n.c.
feelings
aden
egg
delaware
berry
shrank
totally
ils
contributing
coin
webb
fy
interfere
tendulkar
visible
akh@@
gli@@
finalist
ig
ellen
libby
vas@@
kurd
foot@@
rotterdam
approaches
jos@@
ss
embryonic
canterbury
regularly
fried
ards
pistol
enting
reservations
cosmetics
lifeline
affects
thus
watches
walesa
perjury
hamstring
shooter
parallel
traditionally
tal
drum
flashpoint
guru
sotheby
nun
rim
oz@@
ningxia
capping
primakov
sible
protections
ables
possessing
shedding
doses
thigh
clinching
harrison
feyenoord
thrilling
attractive
cooper
coveted
prospective
compulsory
dlr
sunny
dependence
kgb
spray
hp
ivanisevic
bangguo
tents
sman
inject
kasparov
fcc
brigh@@
teeth
fargo
locally
charlton
app@@
stark
tracked
shu@@
hop@@
palermo
ug@@
climber
mortars
revoked
initiated
ue
gi
depleted
constant
kurt
shields
jonas
ignited
acknowledging
dismantled
shortened
alarmed
opinions
narrows
rudy
bin@@
north@@
probed
tankers
elders
persecution
destinations
blacklist
alike
relentless
languages
trawler
undermined
wash
ote
sticking
dal@@
cholesterol
facto
preparatory
veterinary
overturns
cockpit
inspiration
wen@@
evacuations
buffer
borough
studied
stun
fest
swat
entirely
intact
dragon
ruth
modernization
icelandic
laser
titans
hotly
submarines
snowfall
underwater
burton
technique
refining
ghost
legality
vigil
guang@@
subversion
torched
kent
docked
ngos
hardest
choppy
warlords
anda
reas@@
totaled
advertisements
salim
downer
broadcasters
coli
barnes
vw
relaxed
fraudulent
urgently
organic
philippe
keepers
labeled
cot@@
consult
wolves
soup
tting
basement
confronting
alcoa
damon
delegations
hardenne
forth
iser
ston
breath
rainy
tibetans
wellington
heinz
elder
sheet
speculative
broadly
prudential
idb
ffy
robbie
reviewed
&apos;brien
feds
airborne
homosexuality
-game
disagreement
centennial
steffi
bodyguards
snowstorm
wea@@
overdue
recipients
descended
tes
helms
matchup
jiaxuan
sie
holmes
enduring
undersea
factional
andreas
tig@@
petra
chargers
fundraiser
memoir
punishing
shouting
mindanao
lg
gran@@
freeway
airliners
jankovic
bengal
spoken
lawless
surrenders
wo@@
freeing
pandas
tun@@
pullback
spokesperson
censure
groundbreaking
milf
liability
playboy
tumultuous
excellent
mum
freely
fis@@
palmer
steering
ernie
qualification
dissolve
embroiled
canucks
leicester
detaining
loyalty
bee
basket
emphasis
kickbacks
clu@@
govern
bra
displays
imper@@
eyeing
upgrading
ligh@@
thr@@
projections
anthem
plaza
faults
petraeus
shores
erik
petrobras
rotation
standstill
fir@@
trafficker
ifor
ua
lyn@@
raiser
ail@@
cru@@
adrian
acquires
sad
questionable
novartis
domination
vill@@
hint
haider
worsened
specter
exempt
excerpts
gabriel
mig@@
condoms
brady
cows
outsourcing
liberals
tripled
eller
antly
imagine
montgomery
photographer
woodward
plains
hasina
restricting
battleground
rahman
infants
poly@@
lov@@
humor
mallorca
beg@@
lacking
ous@@
prolific
hak@@
oes
incomes
everywhere
budgets
participated
transparent
home@@
loom
olive
jin
pad
congressmen
key@@
wrangling
chorus
tang@@
toledo
stal@@
decor@@
inched
swap
seahawks
flared
ute
aquino
filming
ato
festivities
capitals
dusty
defenders
jeep
engaging
expressway
rammed
alleviate
ili
scarred
preferred
eli
fantasy
escalate
halloween
buck@@
gorbachev
heart@@
pp
faa
sac@@
addiction
vegetables
dini
bryan
shel@@
whis@@
espn
con
rum@@
lebron
deepens
lords
guitarist
mammoth
drugmaker
wondering
relieve
indicator
jol@@
iberia
sewage
definition
thoughts
cir@@
belmont
multimedia
vegetable
nickel
osaka
boot
ick@@
defused
noise
stumps
grizzlies
publishes
gers
medley
considerable
disarming
angel@@
trafford
mechanical
mt.
footballer
seasonally
lauded
severed
cow@@
ozone
lanqing
had@@
intend
wise
contracting
mired
mercy
embark
depart
montgomerie
anton
chemistry
appearances
revamped
micro
colon
cyberspace
supervisory
pudong
mere
gateway
northridge
defect
continuous
dl@@
organised
torturing
commando
guillermo
hijacker
burnt
immune
pockets
smithsonian
allawi
reactions
engineered
matt@@
aka
ivo
leather
illnesses
corsica
cristiano
xu
drowning
exposition
glitch
kinds
peacemaking
bullion
bie
hag@@
wore
auditors
exploit
publications
buzz
sim@@
headline
cruises
stearns
worn
presenting
roller
signatures
thais
nude
protester
springboard
economically
meal
silk
mia
bio@@
harold
vioxx
davos
homosexual
kun@@
waits
premiums
healing
resistant
affordable
haze
maoists
elbaradei
snub
motor@@
pur
faded
pardons
boundary
aqu@@
cis
lesser
armenians
inquest
writes
muqtada
evacuees
mau@@
slapped
bidders
onslaught
pessimistic
rub@@
oh
timberwolves
dc
vojislav
blessing
extent
chairs
predators
uphold
qingdao
kahn
blackberry
dementieva
iation
reforming
wai@@
rewards
mostar
cables
bells
pardoned
ousting
swollen
user
reinstate
mwanawasa
ele
whistle
rioters
feast
referred
brutality
tat@@
motherland
memorabilia
beatles
newcomer
hostility
shocking
minerals
charm
registering
ook
wahid
ruined
south@@
ress
ring@@
registers
nag@@
nino
gamb@@
ores
vying
assam
supplied
brave
ferr@@
fs
brazilians
denis
sad@@
ren
jpmorgan
invade
commons
nippon
marxist
secretive
asif
zes
liquefied
holiest
whites
payroll
sum@@
yl
mice
vick
broaden
ratifies
kuznetsova
wilkinson
itions
presided
wisdom
duc@@
kirchner
averting
designs
escort
ern
stefan
philharmonic
bulletin
sections
soeharto
bhutan
slot
assassin
tenth
mist@@
mouse
frenzy
assembled
wanting
rattles
postseason
firefight
iri
nintendo
rosa
vanuatu
eurotunnel
mrs.
greene
garage
edmonton
exp@@
tle
erc@@
proven
fertility
bandits
mgm
erie
commun@@
arrange
cuomo
outer
remnants
cloned
shy
lax
jackpot
commemorating
wrecked
nader
balloting
needy
expired
boo@@
injunction
strasbourg
abacha
clamp
ero@@
ronaldinho
oceania
structural
allocated
connect
bombardment
skidded
transporting
selloff
chop@@
humiliating
hiroshima
mates
plan@@
outing
fal@@
shelled
derivatives
moea
qing
ello
lodge
heist
jittery
reserved
bowed
jam
cologne
olds
itis
swedes
cleaner
cc@@
pontiff
blazes
neu@@
tables
ater
disc
hunted
dant
eclipse
unfairly
kan
hob@@
blizzard
baja
somewhat
karbala
stirred
cpi
colors
dupont
salman
charts
philanthropist
bloodiest
fab@@
hashemi
das
plotted
marcelo
sample
tag@@
alo@@
drastically
buck
eid
cesar
amazon.com
snatch
protective
wan@@
ei@@
heed
debuts
domingo
hart
seasonal
trent
mason
brigade
fielder
liechtenstein
nephew
pitchers
intentions
baron
sporadic
genes
embezzling
oping
sailed
wagner
rol@@
ille
prov@@
earl
cell@@
monrovia
stunt
skeleton
affl@@
&apos;italia
vinci
remake
corridor
guarding
flyweight
sing@@
eable
ngo
strive
bullpen
waugh
gue
catherine
ners
bows
guinness
faculty
spaniards
ovich
mes
conrad
representation
wuhan
concerted
antigua
loeb
eto
shillings
plantation
netted
dutchman
nextel
statehood
mea@@
ecuadorean
aa
dering
interactive
swede
commissioned
collector
tapped
andrea
jelena
react
kets
rep@@
trailing
naz@@
ides
solemn
aspects
strongholds
afraid
appealing
det@@
polluted
gn@@
tornadoes
liga
honest
exec
von
disgruntled
northrop
exotic
karabakh
matching
sideline
stro@@
holyfield
franz
sour
lindh
theatre
rie
wembley
rhode
goaltender
realized
circles
jana
kr@@
rom@@
otto
coordinating
emission
exist
bes@@
versions
eighteen
bast@@
recognizes
spr@@
gearing
nerves
llc
harvey
difficulty
collar
physicist
hbo
onlytest
alejandro
titanic
collapsing
injure
dodge
bode
expose
brooks
hend@@
cass@@
institutes
band@@
generous
sham@@
amir
kri@@
stic
hampered
descent
challengers
prized
klinsmann
terrible
confession
taxpayer
smashing
techn@@
revoke
demo
ortega
phenomenon
authorize
bertie
breached
underscoring
masks
panels
integrate
tail@@
birdie
suzuki
altitude
hangzhou
donovan
dash
tentatively
experiences
kur@@
boarding
-yard
studded
bilbao
policymakers
stirring
telefonica
gunships
kingpin
stoppage
sellers
polit@@
browns
infighting
skate
flor@@
aggregate
lig@@
carnage
augusta
proceeds
thi@@
wid@@
shines
vandals
skater
chu
lars
sculpture
picasso
orphans
soy
construct
emperor
nowhere
champagne
departing
kiss
stuffed
daring
albany
buddha
hispanics
py
airwaves
disagreements
uphill
vent
kostelic
preferential
abraham
kip@@
ible
blanc
connecting
benitez
amelie
joel
thunderstorms
bis@@
horizon
wi
involve
pizza
fo
erupt
tasks
foreclosure
shakeup
streamline
graeme
aftershocks
mauritius
rushdie
surpassed
biased
bogus
programme
hopkins
moro
sustain
plum@@
purported
featherweight
selectors
moamer
liberalization
ik
defined
averted
plain
manny
brid@@
tales
seventeen
zacarias
zardari
nik
shrinks
excess
fortified
cornerback
sears
depend
ravine
kinkel
function
italia
insufficient
ser
portrayed
wit@@
gunfight
overcrowded
rain@@
stray
tees
goal@@
bic@@
jospin
louise
privatize
peaks
thief
ries
potent
jet@@
acks
fig@@
jefferson
paolo
rence
asserted
crocodile
stabilizing
beefed
malawian
academics
contradic@@
minded
cadbury
blistering
outright
invests
ravens
brit@@
linda
acceptable
sco
mark@@
annette
unannounced
endured
crazy
kate
marriott
evangelical
surgeons
coastline
kagame
ambulance
upsurge
surveys
bennett
homecoming
activated
ef
chuck
jur@@
repeating
unsafe
joschka
shak@@
costing
heineken
clandestine
ciller
cry
eting
hideout
rutgers
swissair
rockefeller
repatriate
avenge
merchants
mvp
hall@@
centrist
recounts
ket
jumper
jemaah
good@@
patents
morale
equestrian
allianz
awarding
dirt
casablanca
hercegovina
neared
disarray
cocoa
ramon
depicting
romanians
dampened
upstate
firmed
cin@@
kom@@
usher
grains
showers
marat
arlington
peer
removes
tunnels
burger
short@@
intellectuals
rigged
simul@@
ility
rows
domin@@
semin@@
plummet
bidder
verbal
audi
founders
convenes
remainder
martyrs
primarily
richards
daunting
sc
gambia
hopman
aur@@
voluntarily
gardens
chu@@
renaissance
viewing
lindsey
peterson
sanitation
calgary
abidjan
boycotted
enacted
upgrades
initi@@
riley
airlift
wall@@
ration
smuggler
ju
ejected
sepp
pitt
greetings
bombardier
reconnaissance
elaborate
cubic
depl@@
uncle
somalis
nominating
bass
penny
borrow
wolfgang
meals
molesting
notion
tyco
timely
jolie
zy
symbols
normal@@
crumbling
resurgence
zedillo
gustavo
ku
riviera
sol
presiding
messi
shin
hem@@
shipbuilding
blagojevich
book@@
recognizing
cheese
occupying
xia
nortel
groin
regard
fade
chinext
misdemeanor
anita
feng
architecture
shaping
crosses
captivity
hic@@
citroen
pounding
outage
ister
indications
zen@@
direc@@
fedex
ousts
ank@@
fatalities
execute
performers
sneak
convenience
got@@
persist
islamiyah
ined
relating
chengdu
dp
akes
bio
invaded
delphi
golfers
chers
shakespeare
dose
fishery
sho@@
icahn
partnerships
christianity
xerox
ocalan
tanjug
anton@@
deserted
iya
specialty
subpoena
josh
energ@@
revises
novels
julio
mistaken
itu@@
ign@@
excluded
changchun
subsidiaries
ratio
birdies
buckingham
trac@@
editions
secures
scot@@
teamsters
zu@@
intercontinental
frequently
comrades
authorizing
test@@
garry
kumar
luge
ul
embryos
boarded
pepsico
lay@@
travellers
contains
knowing
tea@@
itz
dispar@@
eradication
pepper
pacts
advisors
heath
oil@@
abusive
locate
ente
retaliate
buc@@
perth
sunshine
icing
touching
piling
void
ails
bau@@
gras@@
defining
remark
embraced
floodwaters
tractor
shun
fearful
beck
item
irrigation
speeds
hajj
zhaoxing
snag
reckless
bellsouth
wards
emen
listening
convoys
malone
ces
newcomers
expectation
&apos;connor
kim@@
fend
horrific
separately
gradual
chil@@
sed@@
ruud
gunshot
sprained
boots
jokes
exemption
quran
swearing
wesley
blanket
franc@@
daly
whereabouts
sunk
wrapping
scri@@
naacp
yearlong
sixty
thorny
jericho
europa
gar
lac@@
merchandise
columbine
dancers
covers
ner@@
intern@@
eri
enriched
kwazulu
sedan
truly
atter
cutbacks
stumbled
notably
ual
categories
breaching
unnecessary
prosperous
radi@@
altered
sanders
amended
skilled
rios
posters
hartford
transatlantic
rat
waged
chased
countrymen
batteries
shawn
texans
conc@@
poorly
folks
gorge
spirited
chat
plenary
firefighter
sandra
victorious
lagging
adjust
treasuries
demonstrating
recruited
ich@@
haw@@
inflicted
depends
wachovia
apped
johan
delighted
hamper
digested
viable
triathlon
crusade
sanction
lacklustre
ices
thorough
mortality
ratko
brewery
roland
enko
wrongly
reliever
piano
collections
discounts
reunite
piled
.j.
scolari
chilly
larsson
bride
abl@@
dah@@
bastion
shortstop
nom@@
opted
khalifa
blaz@@
congratulations
coral
wilderness
tenor
precautions
dynamic
typical
jaya
zaragoza
kel
pyramid
experiencing
cite
juice
curtis
lasted
compatriots
emergencies
avoids
iss@@
belarussian
arsene
aded
figured
enforcing
oxygen
caroline
latino
inspire
monastery
defies
nazarbayev
triggers
forgery
dilemma
princeton
expertise
lawn
drown
owes
rotating
equalizer
orbiting
hk@@
jerome
basf
rescues
charred
wheelchair
hospitalised
eland
scathing
bruised
cake
raytheon
uz@@
airing
ellis
xia@@
operatives
prayed
criteria
pad@@
triumphant
veil
fortis
mping
publicist
cane
retirees
legitimacy
maverick
cannon
allan
bedroom
huckabee
swind@@
oms
dish
kem@@
lucas
fair@@
guitar
fitch
fumes
durban
scrapped
carey
apologized
ochoa
masterminding
ballack
textiles
lifestyle
unconditional
discontent
dynamo
softball
zheng
surfaced
aine
biting
tightly
rab@@
sword
ox
reef
continents
log@@
homosexuals
demise
talabani
presentation
emer@@
departs
briefs
bren@@
underscored
saharan
peers
conditional
turing
fisherman
khaleda
ariz
kay@@
euthanasia
qinglin
lens
addicts
ftse-
operates
nominates
please
companion
assessing
probable
vuitton
tudjman
exams
landmines
svetlana
yman
sukarnoputri
emig@@
arly
alinghi
mc
recess
disturbing
wrestler
recipe
urgency
nursultan
fingers
worrying
conventions
resignations
chuan
reservation
congestion
rethink
davies
garrison
mercenaries
kouchner
rell
mobilize
starvation
woody
smiling
southampton
relationships
oc
lott
chung
gunbattles
qualifies
loyalist
bub@@
ials
rusedski
sosa
bertelsmann
b-
span
calf
skull
structures
capabilities
read@@
julian
criticises
relocate
establishes
procter
grieving
uncertainties
qin
tutu
lumber
cds
affiliated
adolf
majors
stuns
blank
hooligans
medallist
batt@@
itt
betancourt
anta
deliberate
mechanics
stringent
shocks
oe
blackmail
papandreou
hsieh
knocks
indirect
archaeological
parcells
californians
transferring
regardless
sburg
hard@@
ponders
measured
curtail
cas
iner
elevated
kroner
nova
palmeiras
ship@@
xiang
hin@@
tutsi
replay
gerard
qui@@
exceeding
mudslide
legalize
livni
effectiveness
brakes
eau
cali
testifying
deplores
tain@@
ames
graduation
ric
eline
mode
ques
aliens
carol
robberies
obvious
arraigned
eliot
rafiq
itated
oph@@
scuffle
gallons
blan@@
oted
bucs
everybody
len
paradise
upscale
safina
frantic
assurance
alternatives
springboks
fication
benefited
kidd
cyber@@
mirage
sikh
ories
roadblocks
simultaneous
guys
plastics
monkeys
responsibilities
hid
fathers
formidable
lull
footing
somewhere
stinging
loves
lob@@
ley@@
towering
paribas
fanned
wol@@
physicians
schemes
armies
grap@@
angelo
reinforced
roman@@
identifying
vil@@
grueling
winnie
worship
rash
arc@@
prestige
prot@@
burgeoning
pits
spite
jud@@
petro@@
vicious
fou@@
bumper
jun
eh
cruel
mod@@
kigali
devaluation
gomez
gov@@
gros@@
rear
florence
earmarked
iy@@
owens
concedes
playstation
beheading
stabilization
coruna
excitement
rightist
toulouse
rc
nasty
hayden
advertisement
singers
instructed
vigilance
harrington
eff@@
inclusion
viagra
missionaries
preacher
exhausted
bre
crimin@@
inda
poetry
jeb
pessimism
fet@@
nak@@
occur
topics
emotions
moqtada
chissano
borneo
paramount
luc@@
adidas
izetbegovic
dismay
brazen
ination
pows
plateau
outposts
destabilize
dividing
bubble
toilet
somber
useful
tombs
ears
kol@@
flocked
bent
permitted
sorrow
hoop
bengals
philippoussis
warrior
oud
bihari
reggie
executes
inging
deaf
hoya
ignite
vendors
prefecture
samaranch
routs
hul@@
dic
cron@@
environmentally
cos
cio
ingushetia
meh@@
hai@@
supersonics
stockpile
residency
technicians
bud
unsure
slew
spiraling
maluku
zhao
automobiles
siew
ros
logo
wie
plat@@
alexandria
scout
samper
hamad
oilfield
unlike
keting
monthlong
noisy
mond
quakes
hearst
alessandro
deck
dampen
und@@
zoran
merely
careful
salmonella
preventive
tu
paramilitaries
freeman
microsystems
sunnis
jaguar
eda
commissions
poaching
mobilized
thriving
billing
lak@@
creek
sco@@
supermarkets
paralympics
lah
jessica
manual
likelihood
ete
mayer
pure
marketplace
sided
mccarthy
obstruction
zapatero
roosevelt
sty@@
cau@@
script
torres
sion@@
gunners
inflationary
dine
commercials
ush@@
profound
confined
occupy
stabil@@
vigorous
deserves
hydroelectric
alexei
mazda
skopje
rocketed
inspected
jeopardize
timeline
vocal
hir@@
talented
calcul@@
togolese
printed
rebellious
poppy
pressuring
impressed
clad
shadowy
grenada
gilbert
err@@
sumitomo
underlined
correa
fia
asashoryu
gerrard
saturn
lightly
tail
cries
hardliners
gener@@
collectors
scouts
windfall
discovering
vonn
defected
shenyang
coasts
appetite
scrap@@
measles
flares
sharm
ias
sammy
consent
bulldozers
graphic
pains
repeats
misuse
cancun
lennon
underlying
ify
gy
aventis
raf@@
fdi
abb
unilever
exciting
brent
pac
abandons
cage
exclusion
nes@@
charitable
trevor
dormitory
adventurer
gel@@
smar@@
ves@@
tsang
chopper
sequel
respec@@
kunming
slice
commemoration
qiao
crane
coaster
blackouts
breaststroke
rulings
icable
gle
edgar
shab@@
eurostar
firestone
fullback
diva
thaw
ultranationalist
bon
kursk
smallpox
admissions
alization
prints
bae
toe
directing
nl
axe
tissue
ave
mismanagement
liang
with@@
tamils
path@@
scal@@
hap@@
hacker
resettlement
statues
undocumented
gio
excited
poster
aek
reflected
kwasniewski
iness
makeover
montoya
og
lilly
eter
xed
cz@@
tac@@
cp@@
snu@@
pir@@
leonean
icated
psych@@
robbing
lamp@@
mirror
hicks
malaysians
step@@
derails
renounce
munitions
jordanians
asx
rene@@
toughen
kw@@
jailing
nab
accountability
feasibility
decorated
necessarily
geared
nail
obtaining
makeup
yokohama
jas@@
bore
sheds
sanofi
vet@@
outback
raikkonen
care@@
disciplined
atory
gao
peshawar
iphone
venezuelans
leukemia
cer
ferrer
gil
angelina
proposition
fossett
henri
compiled
abrupt
minsk
danube
kemp
auditor
dro@@
blix
headway
heaven
ips
soaked
cameraman
eck
perpetrators
careers
incentive
mittal
dax
heal@@
fashioned
mans
intensity
eviction
pak@@
abbott
juror
affirmed
sway
subjects
jail@@
poisonous
beat@@
mastercard
nielsen
seafood
consistent
set@@
leap
dems
resurgent
blo@@
denktash
glaxosmithkline
guar@@
carroll
conjoined
preview
advise
disneyland
irresponsible
applying
joan
phil@@
ethnically
shrimp
real@@
harshly
platinum
rafter
montenegrin
peasants
toppling
rehab
maier
spur@@
rumor
colon@@
repe@@
foreclosures
ye
daylight
examiner
exceeds
gas@@
kuna
titan
destructive
supermodel
summers
-kilogram
boy@@
enabling
absolutely
wic@@
yak@@
crawford
significance
fiercely
uncover
rats
drain
carla
buff@@
mming
acknowledge
groundwork
approximately
stalling
ania
trounced
dri@@
animation
sai@@
adriatic
tributes
privat@@
ock
halls
hacked
pumped
rested
tee
culmin@@
gypsies
hutchison
kia
luanda
berkeley
lag
beers
dignitaries
sooner
bosnians
banda
pol
lorenzo
lacked
ponder
elin
stalking
fur
crescent
prefer
naira
battalion
suicides
asthma
umpire
labs
memorable
afl
myspace
djindjic
heaviest
baylor
snapping
chill
hampton
hawaiian
defunct
dim
sheng
oner
preservation
verify
strictly
slopes
vaughan
defector
counters
inde@@
comcast
power@@
yun
muted
shining
vintage
sonics
abe
dashed
coc@@
kung
je
pepsi
whitney
filmmakers
ester
edmund
splits
romario
thunder
glacier
div@@
downplays
reasonable
hydropower
ligament
hovered
royalties
ox@@
sist@@
blazing
santana
takers
budapest
marsh
subpoenas
storming
relaunch
baath
adam@@
globally
revelers
lis@@
labeling
emu
shaped
forcibly
grumman
flamboyant
mou@@
wis@@
debacle
song@@
ideal
brun@@
eng
theo
pag@@
fitting
noble
outburst
dragons
macy
vetoed
wag@@
npt
gruesome
splitting
isolate
gramm
converged
aca
bac@@
nichols
belonged
shop@@
junichiro
michelin
genoa
vigilant
cdc
bull@@
valentino
escu
linger
wrap
coleman
festive
cska
thu@@
anga
yas@@
unwanted
slaughtered
adrift
disrupts
courier
vaul@@
functions
org@@
endanger
judging
councils
pedophile
busted
lately
endangering
termed
perspective
positively
god@@
brass
thor@@
buick
juarez
teddy
dow@@
ains
portal
mistrial
idi@@
mcdonnell
southernmost
downgrades
habit
inform@@
ition
chun@@
lett
deregulation
ivanovic
contrary
planners
notified
hugh
nguyen
banners
klitschko
nation@@
rashid
elton
sanctioned
cancellations
tify
noting
alliances
psychiatrist
reminded
expl@@
nav@@
gems
wob@@
kozyrev
revives
francesco
any@@
certified
vand@@
ggy
flush
realistic
smog
wrongful
soong
pill@@
screen@@
ician
urumqi
retaining
semi@@
sands
interbank
reins
gues
computing
teamed
ruin
ade@@
iz
metrostars
floated
litigation
aba
cec@@
maneuver
abst@@
kra@@
robber
exposing
lohan
endorsing
mosquito
jolt
has@@
worsens
cha@@
defrauding
churchill
specialized
ware
hook
campaigned
bec@@
nut
cardoso
polygamist
mped
waning
ds@@
telephoned
bathroom
lloyds
layer
atta
mosley
riches
hy
sensational
reassured
pg
troubling
bran@@
julius
padilla
educ@@
contador
calcutta
ista
magnetic
upheaval
snooker
escalates
asserting
publicized
severance
detection
billboard
misled
belong
tot@@
torre
exception
conversion
patricia
tured
busan
gaz
shipwreck
advises
disability
fruits
ation@@
fasting
sla@@
glasses
boro
edo
spielberg
greenland
juergen
geoff
layoff
underdog
destroyer
collaborating
apartments
packaging
diver@@
kaka
unstable
-seat
retaliatory
preserved
putt
icate
stint
vari@@
grisly
frontline
processor
triangular
congratulate
provoking
yun@@
spills
principe
behari
unresolved
moderates
mick
muralitharan
fences
disk
medieval
meteorology
dams
accomplished
ith
extra@@
blue@@
cowboy
nagorno
inaugurate
outages
archeologists
waco
lng
zen
rever@@
salute
eagerly
tow@@
hyper@@
vieques
condolence
jen@@
caps
tsunamis
thrashed
bologna
mormon
karim
pesticide
leasing
fid@@
vicario
dimit@@
epo
kph
ui
uni@@
rers
barricades
dense
capability
val
chilling
telkom
soften
obscure
habits
icbc
councillor
aeronautics
hardcourt
oz
striving
pie
sob@@
nie
jurisdiction
east@@
onic
pristina
pr
edison
cigar
blogger
recycling
illustr@@
fest@@
ullrich
trimmed
tful
monkey
classrooms
amazing
element
polluting
transmitted
sometime
deton@@
dana
pants
coun@@
informant
indictments
quarantined
paedophile
spouses
determining
ury
concede
froze
phony
savage
sullivan
observ@@
osis
ya@@
manipulation
regulating
png
essing
just@@
interviewed
anatoly
spon@@
zer@@
reader
kab@@
tren@@
offences
instrument
dayer
shorter
deports
videotape
ska
revol@@
patten
swoop
switching
qb
pumps
aleksander
aer@@
daniels
well@@
lene
nutrition
simultaneously
update
avi@@
acropolis
kly
simitis
virtu@@
needing
fivb
salomon
barge
tab@@
risked
drifting
genuine
assails
coffin
yves
commerzbank
morrison
conce@@
domain
colombians
havens
zeng
miliband
commentator
dogged
pier
pascal
staunch
liable
objective
pling
roadblock
salv@@
hsiung
defl@@
mobs
vest@@
storied
sirens
yanks
mueller
unseat
las@@
ivorian
moss
chee@@
christine
hotline
recommending
telephones
expire
guides
vince
more@@
narasimha
counseling
road@@
ands
stoke
news@@
sf
installing
recordings
elev@@
embarrassed
diyala
ancy
crow@@
shire
porter
yonhap
ardi
corning
provocation
roundup
washing
certification
spe@@
regulated
bob@@
sandy
cartels
mush@@
tadic
nistelrooy
plu@@
nathan
doomsday
chairmanship
lesbians
rescheduled
revital@@
longstanding
human@@
rupee
tug
ecuadoran
herbert
bangladeshis
fascist
fatality
thre@@
consul
comparing
conver@@
handgun
dee
esses
rifts
equal@@
resisting
satisfactory
goers
fast@@
menu
pron@@
docks
ljubicic
explains
sick@@
cost@@
themes
conversations
decries
undertake
kilometer
discre@@
bit@@
troupe
gem
ste
litvinenko
ots
mud@@
inaugurates
ruiz
anj@@
scenario
interpre@@
immun@@
jaap
licence
app
racer
bickering
mega
tar
deterioration
unhappy
c-
sbc
rewarded
shadows
discourage
ffs
countering
taoyuan
wealthiest
divides
staffers
authorization
monsanto
ortiz
beit
deserved
ord
eo
fatigue
rite
michel@@
excluding
softer
dul@@
strawberry
kun
inquiries
favre
ori@@
unted
voicing
dependent
receipts
whipped
scholarship
cos.
arising
stoning
umpires
overdose
kost@@
swath
communal
rainbow
salam
thrust
jay@@
camilla
piazza
consolidating
bruising
kazakstan
lecture
emptive
accuser
salem
aer
stalinist
speculators
fencing
ranariddh
separating
lic@@
guinean
stee@@
offseason
spider
meyer
rs
staggering
infiltration
katie
space@@
newman
superjumbo
hailing
scor@@
ice@@
cantona
acquits
submits
pinch
see@@
ago@@
ecevit
grateful
chanted
henrik
dpr
bancorp
strives
nuns
sz@@
goalless
foley
secessionist
pper
goodyear
superintendent
sert
melamine
mass@@
byron
eem
boc
therapy
plotters
ut
differ
adultery
fanfare
ideological
electr@@
fruitful
oo
contraction
bath@@
kov@@
fis
broad@@
telstra
ayed
spiral
syracuse
relocation
nagano
zel@@
erase
repaired
cardiff
dled
henderson
utes
yong@@
assisting
practicing
cnooc
exclude
sotomayor
sicilian
regains
accommodate
mal
distress
massa
backstroke
attaches
yar
diver
chin
absentia
shin@@
fleming
resem@@
amusement
supervisors
gripping
transplants
oming
falsely
auto@@
slugger
iter
silver@@
hacking
yo
sadness
beslan
medi@@
och
batsmen
westerners
chet
kidnappers
insecurity
aus@@
thouse
hussain
leveled
enforced
hampering
tha
oko
sara
electing
rin
remanded
gat@@
whip
lean
credits
safeguards
pest
dignity
plea@@
sin
appreciation
vigorously
tina
lowe
gretzky
hanson
hq
glen
kmart
evacuating
sodomy
selects
nacional
relying
auxerre
terrain
starving
maher
nit@@
rea@@
pbs
pipes
cov@@
sprayed
vacuum
disagree
xavier
malls
sia
fan@@
swe@@
theodore
downplayed
bers
haifa
grou@@
tirana
emaker
rivera
kerkorian
deepest
royalty
vista
mkapa
cultivation
tled
sperm
refu@@
ailment
akers
curious
maputo
surf
mum@@
soci@@
vera
lyonnais
thur@@
gan@@
chec@@
schedules
slovakian
salvation
tymoshenko
fluminense
reaffirm
mers
purge
parkinson
josef
directorate
wolfsburg
kang
kee@@
alu@@
contend
leonardo
grande
chat@@
cit@@
armor
creditor
unilaterally
clerides
sweat
mombasa
assuming
prohibited
cricketer
inventor
opt
libraries
shame
loads
minimize
fath@@
banquet
zulu
spar@@
merit
troopers
aspirations
itor
modern@@
aling
idle
huddled
cour@@
eastman
doesn
spy@@
eling
patrolled
arcelor
lemieux
rb@@
ply
notch
educated
spo@@
mattel
gutted
hikers
unlawful
lai
scaling
weed
actual
grandfather
spinning
allocate
tongue
allay
nasser
esa
loos@@
attractions
cus@@
successes
header
aftershock
sheets
covert
tribunals
passionate
emile
footballers
sani
eavesdropping
tearing
shattering
poorer
impression
praying
alling
luke
humble
outlining
supremacist
adjustment
dining
pered
confused
eas
campuses
withhold
kwan
contrast
ventura
richmond
lonely
spectrum
tman
spilling
nestor
discs
p.v.
waterfront
breaches
relegated
provoke
portable
massacred
intru@@
dat@@
ono
landis
sev@@
titled
dest
vetoes
workout
erosion
abdurrahman
inn@@
invented
accurate
physically
rav@@
roses
sport@@
revel@@
lured
lira
bites
jalal
satisfy
proton
plummeting
goma
protein
despair
chal@@
stur@@
qomolangma
&apos;aretz
anheuser
interesting
ps@@
instructions
accountable
anand
fades
legends
spar
horta
consular
coffers
helpful
leaflets
demirel
optical
oped
statesman
cab
unruly
defective
bb@@
gypsy
chur@@
motorcycles
ye@@
yielded
umbrella
inconclusive
monte@@
prostitute
wines
tearful
stripes
rauf
ruihuan
nicosia
fulfilling
infantry
cautions
neglect
wasted
seychelles
tijuana
constructed
julie
jour@@
yl@@
jammed
illo
mussa
venerable
akayev
clement
accordance
raped
rang
quiz
slaves
hn
keegan
discord
alised
fron@@
retake
eon
chronology
vir@@
coat
tactic
espanyol
revolution@@
ceremonial
buddy
genius
branson
surpass
searchers
valid
stealth
iko
aborted
say@@
ust
ingredients
kournikova
hang@@
sociedad
methane
eastward
apology
boycotting
eful
bash
gibbs
acs
tarnished
leton
fabric@@
shav@@
bridgestone
conciliatory
sigh@@
oblig@@
limelight
airs
treaties
kova
singled
sequ@@
bremer
execs
diary
tcu
forbidden
ashley
unionists
gregory
divert
clar@@
supervisor
circular
dge
leisure
openness
hiking
eminent
revitalize
shaun
commemorative
pes@@
rifkind
zzle
enthusiastic
chast@@
brad@@
regaining
nationality
desp@@
mcgwire
dived
marsh@@
desmond
urs@@
butt
gyanendra
brake
exceptional
functioning
morakot
wonders
abo
rodman
tyler
simpl@@
nowitzki
racket
guam
ush
comet
art@@
moshe
irian
suv
paradorn
ipr
bernie
masses
rant
beds
farm@@
abhisit
ede
quantity
spelling
thrash
berths
ganguly
ord@@
herve
offender
counterfeiting
barings
uci
stalin
midtown
defectors
lotus
odyssey
answered
soros
uri
asians
stride
reinv@@
expelling
policing
bot
joaquim
ety
contra@@
xing
mos
hmong
ight
domenech
sher
assignment
outlying
kett
ingrid
adver@@
schiavo
resounding
leo
darling
sake
horns
sundance
slogan
genome
dolphin
clean@@
edly
statute
beam
suc@@
ait
jak@@
watergate
vijay
greets
suitcase
nineteen
younis
nash
borrowers
zinedine
vitamin
enrollment
imag@@
elegant
derailment
ption
anim@@
acking
hydrogen
discovers
balancing
bleeding
earnest
spice
lire
lander
surgical
ured
protects
fusion
exits
scru@@
pub
langer
kid@@
eldest
caterpillar
comptroller
terminals
gren@@
oun
rip
beside
hydro@@
entity
nc
ank
frigid
fills
jing@@
cultures
proxy
frigate
pere@@
injected
icians
helmand
olympiad
zhuhai
pins
elling
intern
bildt
selecting
turn@@
gal
contingency
lennox
whirlwind
kindergarten
carnegie
diaz
cool@@
wheels
rot
andrews
slamming
ifies
drogba
mailed
foundations
hitachi
anxiously
high@@
wyoming
cruelty
qi
stoked
foray
presse
-acre
vejjajiva
summits
jec@@
explaining
ink@@
rwandans
ives
soothe
s.@@
leaf
ases
emphasized
cleansing
reverses
n.h.
privileges
bustling
rejuven@@
gogh
compelling
withdrawals
yanukovych
ambition
iously
contending
resisted
basescu
landfall
scan
thumb
rovers
postponing
translator
raucous
hinder
penetr@@
ique
dane
withheld
alizes
savimbi
kidnap
lanc@@
harbin
claudio
archer
corn@@
dot
hazard
disabilities
yus@@
navig@@
nantes
scheffer
centr@@
vouchers
lava
decreasing
attendant
academ@@
abdelaziz
willy
ime
oso
akhtar
nikolay
pond
curry
squeezed
chunk
erected
parish
fli@@
sopranos
bouteflika
ltte
griffey
sag@@
hong@@
stumbling
tend
firebrand
bono
irwin
escorted
civ@@
cant@@
bere@@
foreigner
feat
switches
joy@@
adriano
swell
certificate
freetown
leste
catalonia
coinc@@
loser
mound
elliott
belts
hobart
ana@@
goo@@
persists
vuelta
patt@@
bu
sidney
mass.
lang@@
chivas
endless
unlimited
coliseum
embarrassment
ci
undercut
vasco
pele
corpse
stretches
jacksonville
servant
pavilion
daschle
hed
aborigines
och@@
pale
harassed
overlooking
dream@@
ili@@
westwood
bureaucracy
list@@
detailing
sten@@
scourge
elias
gunpoint
paterson
remembrance
malik
grips
shallow
shrugs
ilia
frustrating
fying
gallon
gem@@
appropri@@
catering
kad@@
eral
disco
dokic
child@@
hype
clooney
reconcile
mail@@
traditions
ication
elly
insults
ilan
diplom@@
photograph
turtles
resting
herman
licensed
raping
que@@
dissolution
inked
floors
dict@@
fogh
jubilant
tual
backyard
loomed
installment
ige
smear
ming@@
intervened
anytime
identities
bobsled
mask
levi
henrique
joaquin
transforming
indict
rhodes
itting
bust@@
eugene
deplored
privilege
warheads
surround
sr@@
assemble
asem
ftc
wetlands
conn@@
hideouts
tsu
shannon
bits
oaxaca
graffiti
ferreira
diallo
rips
tolerate
breathe
ringing
kyle
hawkish
slate
displaying
cham@@
you@@
vid@@
correspondents
alled
dominica
petty
patriotism
hamburger
tyr@@
geon
num@@
stubborn
gill@@
allegiance
wallaby
lingus
barney
stretching
stor@@
everyday
seminary
regatta
repayment
ethiopians
retrieved
controller
pavarotti
cosmonauts
sufferers
bavaria
cristina
underage
melting
auburn
mom@@
climax
statoil
avalanches
expenditure
yn@@
colored
iller
schering
screaming
betis
petrova
carson
irrit@@
myst@@
muddy
scared
smell
productions
dler
expan@@
touchdowns
asi
cocktail
pau@@
repl@@
carmakers
shearer
lankans
salinas
lucia
cob@@
warmer
greeting
boxers
reservists
definitive
jiechi
midwestern
happens
upturn
dylan
getty
fl
instructor
ius
tackles
hsinchu
iano
grupo
ould
clint
abramoff
letterman
apes
leftists
iced
fielding
rests
rodney
concussion
frightened
mcgrath
routinely
buoyant
confederate
baton
gangster
deflation
tseng
protestants
tempered
chao
lowly
highlands
tenders
rebuffs
consuming
recipient
manpower
ema
flam@@
murky
bounces
barrichello
blankets
mulled
confinement
bulent
cing
gospel
reunions
erratic
ib
undersecretary
betty
sci
ukrainians
kj@@
bounty
influenced
austrians
safrican
chap@@
gloves
nia
recorder
scu@@
hiatus
uaw
picket
sampdoria
stung
hazards
riddled
preserving
zem@@
gus@@
lon
kland
spot@@
lille
outlet
wendy
oul
perceived
understood
educators
consultants
subpoenaed
tracts
yam@@
point@@
endesa
reli@@
bach
pine
neys
synchronized
console
architects
formul@@
miers
tling
thy
trustees
vis
sese
dt
aluminium
liv@@
refueling
jeans
anyway
adv@@
indeed
archrival
supervise
gutierrez
fracture
bunker
gum
afa
antibiotics
sta
sign@@
prolong
pillar
archery
frances
knives
moun@@
boundaries
obstructing
ruc@@
yel@@
importers
rbi
normalize
frag@@
conducts
moguls
r.@@
tc
populations
bangalore
tricks
marshal
seizures
paceman
seko
dag@@
rud@@
luigi
meaningful
ood
lot@@
jeter
coria
flir@@
disbanded
choking
inflows
zan@@
merging
ech@@
standby
progres@@
guiding
tos@@
demjanjuk
infineon
possibilities
joey
disguised
centenary
withholding
trum@@
mantle
venables
bailed
sham
lik@@
author@@
talents
candles
starved
cepd
rix
herbal
iff
pcs
roll@@
raz@@
zy@@
punching
retrieve
wonderful
fletcher
wool
strangled
burying
precedent
closures
ues
undergone
deduc@@
tening
maori
osa
belize
boycotts
bursts
hr@@
systematic
sharpton
neglected
charismatic
poker
sachin
gathers
plaintiffs
radcliffe
readied
robson
alien
nicklaus
forsberg
speci@@
tou@@
nin@@
regretted
kaunda
logan
fray
luca
societies
signalled
scales
triangle
accra
bari
liquid@@
forgiveness
selig
belongs
klein
rapper
beneficial
restricts
prohibit
immunization
overpowered
dai
giovanni
citibank
exact
farrakhan
rudolf
rainstorms
corzine
dong@@
ugandans
masterpiece
musab
shan@@
unaware
omani
wald
fenway
funerals
gritty
pel
witch
playmaker
ean@@
repurchase
gale
sof@@
reshuffled
cheer@@
vik
iron@@
ruptured
hair@@
ernest
prea@@
cartoonist
locks
retransmits
expatriates
naomi
crum@@
shen@@
tes@@
mcl@@
packs
aar
explicit
cum@@
sealing
asser@@
directive
enrich
shouted
apparel
try@@
cun@@
ight@@
accessible
razed
fulfilled
propel
starters
planner
conspired
skirmish
essentially
deploys
mart@@
strategist
gym
sochi
aris
finest
petitions
rap
recipes
baptist
potato
khaled
baa
wada
nottingham
ses@@
aks
rewrite
eans
ernst
placement
eac
bering
guilt
mahdi
distinguished
notebook
oh@@
malibu
soderling
spawned
ipped
temples
swallows
acqu@@
conservationists
minus
ingers
feld
chak@@
staten
eden
subcommittee
adverse
secretaries
greenwich
globes
aw
unsettled
stric@@
grams
emergence
springsteen
choi
jams
destabil@@
startling
dirk
miserable
defusing
commonly
fujitsu
malnutrition
swear
kas
touch@@
algerians
ble@@
earth@@
bogey
hynix
waf@@
abide
wizard
erased
lacrosse
raffarin
franch@@
birdied
kening
schneider
joerg
shen
robinho
laugh
waive
urine
tenet
thumbs
peg
mckin@@
rounder
boasts
hamlet
mobilization
aspiring
profiling
ifc
indicts
house@@
shoulders
gad@@
advantages
spir@@
nab@@
turk@@
ibn
dling
schwab
gla@@
merc@@
aldo
ordinaries
ien
tham
som
plates
cone
traian
captives
snar@@
merged
termin@@
blasting
mnd
unfit
steinbrenner
fossils
identifies
glad
dece@@
dom
marrow
persuading
monuments
oversaw
finnair
parades
assailed
sped
biblical
cba
rescuing
gig@@
basel
ferocious
friction
wav@@
equally
typically
jens
balloons
lineman
stored
ryutaro
diminished
lessly
menace
vers
beans
moon@@
peril
overhauling
muluzi
angu@@
erman
confronts
filmed
loosen
diversion
nel
sitcom
yorker
scar@@
minneapolis
conscience
clause
strides
clerk
vandalism
sheltering
booth
turtle
rebuilt
browser
restraining
triumphs
historians
absentee
bongo
motive
rebuked
celsius
nighttime
insult
arians
portfolios
wool@@
violently
quint@@
euronext
crosby
hr
vargas
zvonareva
tioning
ramp
aussies
faisal
examines
classics
uneven
philosophy
arn@@
booster
bt
main@@
gambian
col.
tles
phuket
chipmaker
accountant
newport
hammers
headache
-lcb-
jewel
invading
fit@@
chim@@
fei
tit
complicate
definitely
exploding
bullying
lang
tremors
trojans
indi@@
dangerously
olivier
berkshire
iver@@
ray@@
ological
oy
conferences
erg@@
thin@@
promptly
assumes
exhumed
paced
rmb
acked
normalization
markedly
four@@
alli@@
tansu
danes
prediction
polar@@
esh
tzipi
shrouded
ingredient
codes
mullah
nis
windy
chan@@
rattle
swan
stered
nonstop
astro@@
veiled
damp@@
salzburg
motorcade
drcongo
agon@@
bihar
bjorn
issa
jade
purple
oting
academia
combining
mentor
yuri
warplane
ascen@@
sedition
spra@@
sidewalk
municipalities
foreman
underworld
louisville
oceans
aven@@
segment
alls
claus
zoellick
-for-
vaughn
appointing
redeployment
precaution
usage
agence
nuremberg
theories
tex
alstom
battering
lukoil
walsh
grabbing
honeymoon
elf
trusted
neg@@
veered
grammys
scholarships
soprano
benefiting
hannover
bachelet
advertisers
suitable
inks
computerized
logistical
gymnast
imp@@
saad
haunt
tendon
messier
alerts
karl@@
alberta
preakness
best@@
unpredictable
ocks
piles
beliefs
applauded
clim@@
paerson
mahinda
oversees
guerrero
inform
gillette
inspects
barg@@
fractious
rabies
intercep@@
emblem
vul@@
krajina
uninsured
olympian
georgians
classmates
lam
seismologists
anth@@
amaz@@
lynn
cr@@
mai
rabbis
friendlies
deliberating
kou@@
snubbed
comfortably
zag@@
ruben
nuts
rangoon
promotional
cans
rug@@
glafcos
cla
marty
unease
disorders
aces
ange
sens@@
dispel
oke
bunch
nest@@
shor@@
landmarks
unsolicited
carol@@
mam@@
leaderboard
distor@@
overlooked
pinned
chen@@
hermann
hiddink
echo
baku
nafta
caf
ballpark
firings
roar
educator
eves
evol@@
soyuz
yog@@
nagoya
supervised
tives
cups
alice
plowed
fixture
supplement
clocked
shuff@@
unep
comb@@
corners
rationing
militancy
orchestrated
responds
six@@
cue
motorist
mccann
reassures
apiece
dra
shov@@
leon@@
liberalize
j.@@
cornerstone
infecting
fated
sten
uring
lends
liquidation
booking
respite
slept
directions
spi@@
emotion
excuse
ashton
allege
explores
batons
kav@@
ever@@
unexploded
koran
ewing
impres@@
harming
quash
surfing
slums
verdicts
tasked
wildcat
premiers
psg
bantamweight
tas@@
overhead
kcna
foresees
bes
parity
branding
graphics
dead@@
cayman
reunify
marquez
origins
texaco
iph@@
unsuccessful
surely
exploiting
guill@@
penghu
fau@@
lorry
breed
notable
slap
pf
enrique
dorf
pesticides
arthritis
psa
turk
yachting
synagogues
diane
hurry
captors
overheating
delight
blackstone
vat
srinagar
slope
heisman
scrapping
conserv@@
magistrates
.m.
wildly
interpreter
kuwaitis
vanguard
j.p.
pard
trauma
fairness
cafes
gangsters
cbc
barkley
entr@@
dividends
wn
entertainer
npa
dazzling
madagascan
diversify
sculptor
fus@@
spinal
conqu@@
gui@@
beth
ower
threshold
drift
aidid
alerted
assembl@@
chronic@@
argentines
petrochina
okays
countless
exxonmobil
hunts
snake
mentioned
inducted
herd
juli@@
haditha
sanaa
shower
pi
gam
waiver
luciano
revising
gatherings
byrd
usoc
grilled
homegrown
commissioners
nings
mandelson
trin@@
civilization
dear
chittagong
elevator
sla
profession
mayo
gremio
steered
wash@@
knesset
tum
chiayi
performer
viruses
cereal
ramadi
staples
ador@@
blunder
concealed
motogp
flaw
ejec@@
uighur
upside
daytime
circulated
bomb@@
pharmacy
rich@@
lind@@
alise
etta
portraits
eur@@
unify
haotian
rough@@
griffin
sh
indycar
inflated
arats
cambodians
toni
carrefour
fuelled
magnus
entries
sch
udinese
qurei
nina
yulia
stun@@
discharge
clear@@
ciudad
suleyman
forefront
budgetary
contagious
db
pleasant
scientology
dolly
condit@@
eding
lockout
lashing
samp@@
legion
specifically
luc
bradford
platforms
autism
lauren
authorizes
trainers
pist@@
irregular
hillside
pearson
anelka
leys
trails
motorway
khalid
tractors
perished
suspense
stoking
alamos
koval@@
murderers
enig@@
unconscious
uma
roaring
demolish
wwf
break@@
divorced
mon
iea
sever
anic
ecomog
retreats
restarting
piraeus
cannons
negligent
afloat
hank
painkiller
intercept
pursues
jungles
arusha
tikrit
jimenez
edinburgh
tus
tripartite
ptions
jacket
dixon
pled
jeddah
monterrey
overturning
zan
earmarks
grassroots
terrified
reacting
freak
okes
televisions
swelling
phrase
onom@@
lash
utmost
brighter
hovers
plo@@
curling
cna
marshals
jaguars
finalizing
slowest
commemorated
orderly
cb@@
info
ament
ula
sympath@@
max@@
rightwing
refutes
astrazeneca
festivals
drug@@
pc@@
forecasting
pleasure
pies
nish
tones
surpassing
circu@@
ordinance
insight
een
savvy
rehearsal
condom
vac@@
ahl
slander
disclosing
abor@@
mei
lum@@
brushing
johns
mcrae
crater
ced@@
minivan
medalists
tampering
kar
disturbed
dental
improbable
tamiflu
kit
goosen
pric@@
discoveries
df
parliaments
ights
fabio
ud@@
arsonists
gust@@
restriction
ravalomanana
franjo
airman
literally
preparedness
panicked
anymore
pumas
krajicek
til@@
stru@@
steph@@
cull
spoiled
subjected
-d
jupiter
religions
queu@@
pires
prevail
gusmao
surcharge
burglary
interrogations
quito
wong
danone
gotti
crete
answering
dishes
petronas
arcelormittal
commended
caring
mack@@
enraged
medina
wanderers
inappropriate
exchanging
aying
rust
telegraph
archive
reluctance
stopover
reprisals
shuttered
ishment
shoaib
hanna
hualien
inflow
ict
penultimate
amidst
n.@@
hke
bath
reprimanded
stag@@
wak@@
mistress
wagon
flintoff
fowler
demilitarized
spun
oled
coors
considerably
outsider
cindy
substantive
diarrhea
disgu@@
digest
glove
summon
axed
premises
favoring
dumps
jon@@
brill@@
leslie
deteriorated
wer@@
transnational
meles
accomplice
springbok
oot
activate
sadd@@
waterway
payrolls
drummer
sant@@
shek
repairing
mistreatment
scooter
complicity
sta@@
flesh
ahold
encountered
swore
psychologist
laf@@
destiny
syrians
sweltering
dull
downfall
gent
carl@@
poachers
pap
flyhalf
sexy
replica
wished
traced
grill
nai@@
ringleader
complex@@
jie
arranging
grilling
petr
dum@@
obstruc@@
shunned
zhong@@
marcel
pulp
bujumbura
indecent
bloom
eligibility
episodes
artery
ular
splash
padd@@
vocational
kiwis
streamed
milton
importation
paralysed
seventy
roofs
downbeat
traveler
laments
evicted
egyptair
buyback
nim@@
cardiac
inhabitants
drums
subways
edf
fen@@
ough@@
wat
murderous
lighter
lamberto
pedestrian
deserve
ios
superb
jamal
terminate
skaters
shea
-km
coast@@
dog@@
sinopec
sunset
nest
kissinger
kite
cervical
soured
intelligent
nauru
inqu@@
proc@@
princip@@
cashed
optic
fits
countryman
notched
renamed
newton
custom
tapping
haj@@
escaping
drawings
inaction
preval
entourage
strips
blocs
lahoud
vale
islav
incursions
schilling
rookies
forwards
eder
losers
carved
precision
responses
imb@@
beau@@
oro
cep@@
hann@@
amounting
yielding
patterns
hey@@
stumble
burke
tat
rbis
kidnappings
onboard
obl@@
endowment
rods
newsweek
corresponding
commemorates
airasia
nur@@
centered
exists
kered
reilly
shepherd
mailing
disband
bazaar
constituencies
travis
boon
taj
outdated
uc
excav@@
flanker
ived
heirs
lamy
assuring
electri@@
ota
reformers
tangled
nun@@
embraces
dvds
objec@@
ashi
bugs
gras
contacted
jack@@
strang@@
inspires
cod
confessions
terror@@
westinghouse
georgetown
fortress
spearhead
edwin
translation
continuation
stand@@
clai@@
knees
forgive
u.s.-mexico
verification
niyazov
oak@@
whist@@
fed@@
prius
autos
inferno
paused
flour
intentionally
touting
glamour
grasp
believers
robredo
kiefer
ailed
filings
harassing
alito
whistleblower
inas
seismic
stom@@
presley
deeds
marilyn
attitudes
vets
thes@@
smiles
wild@@
clerical
faul@@
interrogated
butter
stranding
michele
supremo
must@@
snowboard
assert
murayama
sor
argentinian
zenawi
generator
dreamworks
dwind@@
famer
underscores
proceeding
lar
screened
congratulatory
employ
eted
stop@@
narcotic
quan
overcomes
diagnosis
persson
syed
bakiyev
unharmed
khal@@
shelf
affirms
ramsey
refuted
prelude
jiri
stellar
airmen
positioned
moe
flagged
mustafa
gebrselassie
vaccinations
abs
conferred
traction
axel
heralded
environmentalist
imaging
dues
irving
humiliation
erson
wick
alternate
tos
avatar
restitution
rachel
outweighed
gazans
constant@@
crewmen
horrors
honeywell
deficiency
paths
shrugging
jacobs
assange
eelam
weakest
brow@@
stranger
bean
backlog
spectacle
headaches
hatch
modi@@
cry@@
unscheduled
leno
viol@@
generali
johnnie
feminist
reformists
pitting
exten@@
etienne
zealanders
scrambles
salvaged
ignores
chairmen
pow@@
eps
odi
aggravated
pacquiao
razor
alija
bulgarians
arrears
conocophillips
pro-
adri@@
oriental
cec
mation
ght
qi@@
ladi@@
tance
prevents
fiancee
lent
norwegians
solely
estoril
fitzgerald
sorts
seated
fairy
edberg
retreating
ineffective
aquatic
amanda
nr@@
zur@@
nos@@
fahrenheit
chas@@
evict
spam
snip@@
payton
adi
rebates
philosopher
fretted
entertaining
ominous
heatwave
corrections
taxis
round@@
temper
bikes
allocation
gitmo
ounded
galatasaray
mariano
obscene
antwerp
vibrant
laced
gab@@
corsican
insistence
perception
mysteries
absorb
cruci@@
abb@@
breakers
prefers
wam
slu@@
renminbi
bom@@
sant
h.@@
laun@@
simmons
shrines
succeeding
hav@@
disengagement
springer
distressed
lopsided
terminally
bookstore
cord
unc@@
methodist
huber
massed
hathaway
get@@
promoters
dea
revamping
zah@@
bouncing
outsiders
moses
nou@@
ibal
tains
footsteps
achilles
giv@@
evander
detentions
sharpen@@
schoolgirls
-story
moo@@
reve@@
poc@@
carlsberg
supersonic
vulnerability
siblings
clarification
tashkent
manifesto
town@@
attering
dundee
burn@@
duval
mba
injections
.c.
refund
otti
malian
arist@@
eis@@
ouse
argues
qorei
assailant
abdul@@
clip
involves
batter
donating
pms
opts
soap
organising
cremated
tau@@
mobster
liters
conceding
refer
centres
startup
ranger
boun@@
disarmed
correc@@
rail@@
kickoff
sis
casual
edouard
courtney
joao
unleash
powering
axa
centerpiece
criticisms
laotian
vodka
fijian
shack@@
valu@@
harboring
judged
federations
ulate
hungarians
indebted
chant
reformer
supplements
airfield
crimean
blasphemy
kie
wu@@
nationalize
convertible
buries
parachute
encing
rained
dynamics
swinging
skins
motel
station@@
deprived
malpractice
upwards
prairie
bowled
patterson
rey@@
popul@@
olga
snowy
icons
balladur
finley
sails
gie
iest
jetliners
halved
providence
evalu@@
depend@@
abul
oak
dwight
gabonese
inability
tonne
styles
twisted
teaming
za@@
enter@@
reelected
underwear
eroded
hau
tablets
tele@@
canon
itas
abducting
manages
implants
frenzied
thani
bandit
reefs
prosecuting
askar
rehabilitate
brandon
ried
guer@@
analyze
updated
deterrent
skid
tical
worm
finns
borrowed
reshuffles
capitalize
aliyev
identical
pastrana
guadalajara
galileo
shotgun
relation
ces@@
afar
belly
ones@@
nomo
-round
ara@@
atur@@
descendants
understands
seismological
bessonette
assassinations
sabena
fenerbahce
repsol
sounding
foothold
drafts
pulse
oasis
kle@@
objection
grappling
incredible
softening
perfectly
cycl@@
dynamite
mich
spinoff
swirling
cruzeiro
hantuchova
amgen
ronnie
fist
raw@@
itted
kovic
roo@@
exert
ultra@@
malaga
gut
arming
peanut
specially
embracing
overrun
impeach
attribu@@
lia
soliciting
recreation
brand@@
beach@@
aping
sergey
aggrav@@
unionist
bhutanese
wrath
stripping
logged
rational
autocratic
mathieu
healthier
antique
gronholm
barber
aspir@@
igor@@
jing
closings
coached
knot
b.c.
tussle
retarded
thinner
inhabited
fuji
pronounced
ough
rh@@
mt@@
alia
educate
federally
feder@@
surfers
jagr
curator
slavonia
rah
jav@@
acquain@@
danced
blowout
soes
reproductive
franks
malfunction
mm@@
tional
spac@@
fiasco
sizzling
skilling
payout
hov@@
azeri
paddy
zealander
acious
messaging
composed
punk
spied
cede
glow
jake
necessity
scary
defection
exhibitions
chaired
chefs
expatriate
deliber@@
harmed
reeves
reyes
ott
discredit
activ@@
baseless
yomiuri
lah@@
outrageous
abbey
elec@@
block@@
wling
niche
brains
overtake
clintons
wired
ate@@
woolmer
communion
erekat
naples
spewing
gentle
boulevard
dubious
swamp
oda
bribing
warms
landers
neutr@@
ead
embarks
gascoigne
spells
eway
peter@@
flash@@
flex@@
tucson
contesting
samarra
orphanage
schnyder
pri
sag
infring@@
pris@@
andes
objectives
unwilling
hem
kiwi
councilman
prey
durham
zar@@
brook
jov@@
machinists
beard
reinforcing
methamphetamine
toy@@
assassins
aeroflot
drags
flavor
novosti
catalan
cand@@
safari
gigantic
richie
liqu@@
ishan
frontrunner
cub
cablevision
thetic
amends
johnston
encounters
glut
skipping
coo@@
assistants
volcan@@
lukas
aves
adoptions
river@@
axis
personalities
persuaded
ripe
mig-
colonies
alcoholic
rebukes
deferred
trunk
textbooks
wrest@@
weddings
ialism
guessing
mcenroe
rom
scrip@@
adze
beatings
auc@@
rattling
famously
repu@@
lehmann
memoirs
mousavi
sity
trapping
alpha
gravely
contestants
airlifted
reflection
shelved
essly
vernon
collaborate
swazi
promotions
grades
mofaz
fringe
ctk
visual
hastert
altogether
heiress
laughs
trustee
redemption
marital
navratilova
curse
hindering
combatting
hebrew
ander@@
keating
vague
homest@@
processors
bek
relinquish
kicker
arantxa
clashing
sponsoring
starred
angers
mat
adhere
erbakan
enlisted
depths
olo
rebate
vor@@
nassau
pped
unsolved
quo
eastwood
boerse
thrashing
hasty
furn@@
grat@@
compassion
gunning
remittances
minimal
sto
advising
icans
tively
disc@@
dot@@
evangelist
wozniacki
sizable
consciousness
watchers
isles
jonny
irvin
initiate
wondered
maltese
program@@
tariq
crossroads
chai
hid@@
lamar
batters
doom
assing
narrowing
periods
icking
dashing
contraband
log
dravid
luo
barbaric
sainz
glob@@
purse
reap
brodeur
atom
safeguarding
exaggerated
ideology
dj@@
brushes
generators
gennady
garments
omed
courtesy
miz@@
hypo
malacca
looters
uli@@
cac
stephane
bowls
warmly
airbase
patron
jos
o.
biofuels
cled
yar@@
germ
pig@@
eca
nationalization
reparations
applause
epicenter
constituency
lags
barbs
aquarium
motorbike
entities
ences
najib
everglades
headscarf
patri@@
lukewarm
spiked
koz@@
vag@@
underlining
mind@@
manship
fasc@@
store@@
marwan
cosby
mem@@
iditarod
whenever
constituent
salutes
ect
biologist
jew
distrac@@
projection
obey
inbev
emphasizes
forceful
dioxin
amer
perks
stimul@@
mesa
takeovers
creatures
gestures
irl
osity
alists
appliances
maddux
reorganize
yourself
footwear
agn@@
prohibiting
garner
intimate
erner
depic@@
infiltrate
abolition
twickenham
marble
crying
bent@@
mona
ented
conclusions
lid
subsidized
bahadur
convening
paved
privatized
recorders
advert@@
jfk
sim
berezovsky
vandalized
xx@@
unravel
eiffel
medellin
hut@@
pick@@
donna
ido
ling@@
enlarged
sci@@
births
nabisco
nud@@
windies
cere@@
aul@@
pared
weber
jacqu@@
pore
leafs
cellphone
kaiserslautern
cash@@
videotaped
subsequent
-page
von@@
alarms
distributors
alexandre
bam@@
jag@@
massimo
steadied
refiner
circum@@
botafogo
lvmh
hertha
masse
invalid
youthful
recre@@
inos
transported
ft@@
bakili
tricky
mik@@
atics
chuk
illes
slumdog
paints
peddling
geophysics
rhythm
doub@@
confrontations
migratory
rowdy
enh@@
mons
karaoke
emma
imelda
westchester
onetime
conserve
unfinished
executing
dial
maskhadov
spraying
aum
overtures
darwin
evade
nate
tepid
exposes
ald
ahtisaari
watch@@
expulsions
delinqu@@
equals
abduct
screenwriter
mayweather
irina
infosys
ggs
ide@@
remedy
isaac
confucius
echoes
watchdogs
illed
relocated
conscious
beatle
churned
fayed
sour@@
mus
illu@@
wig@@
openers
ponzi
confiscate
offsetting
seamen
handlers
registry
portray
matsu
areva
suite
scarves
uti
abolished
routing
staple
itors
natur@@
clearer
flop
natalie
bearish
congregation
dissatisfaction
undated
loophole
adul@@
fox@@
dresden
crept
willis
somaliland
.a.
hao
purdue
lame
conspirator
farther
rejo@@
bauer
zairian
haal
dm
clive
idf
glamorous
ferries
hal
texan
flick
ind
noel
aikman
dudayev
brew
literacy
emp@@
explained
tucked
aire
militiaman
assessed
isle
oto
occasional
waved
skin@@
pens@@
pornographic
woo@@
aic
cultiv@@
bystanders
lus@@
densely
genic
refined
discriminatory
wim
rosy
zhirinovsky
scorecard
palme
regimes
enel
practiced
jetblue
procur@@
hurd
mossad
aly@@
sleepy
mccall
bjorkman
natal@@
seeker
tuzla
helmet
marchers
assertion
aren@@
davidson
tusk
puzzle
tvs
conquer
ego
sfield
cao
fin
accomplices
leases
cheats
tremor
sprewell
breakthroughs
clouded
inal
chel@@
orient
criticising
succeeds
eer
stal
server
pes
financials
blockaded
dunn
magical
frist
rocking
steals
flip
punched
inspiring
clue
overshadow
grachev
norton
isi
bora
stupid
respon@@
brooke
suffoc@@
enburg
oli
magnitude-
dominik
scorching
frac@@
ffed
ledger
deadlines
championed
sakhalin
biofuel
aters
lyrics
darryl
afro
patty
vacancy
matsushita
luring
beacon
enqvist
apa
historically
download
infusion
picturesque
treasurys
razak
hardship
closet
cheated
boulder
rella
adequately
bombarded
gheit
overloaded
appliance
shrug
santo
cooler
anderlecht
kes@@
lamb@@
suzhou
sty
uan
firemen
strings
persist@@
canoe
dau@@
hossein
gossip
coupled
beset
rip@@
spitting
assu@@
khar@@
sums
choir
seinfeld
kaliningrad
arenas
bailouts
heroine
bloodbath
thermal
adm@@
lip
garden@@
breezed
midland
rusty
defer
lamented
edy
petacchi
liftoff
biology
door@@
genre
heather
oi
tallahassee
impassioned
cinemas
shaft
sprinters
habit@@
pharmac@@
rousing
fetus
jaime
scarce
unabomber
sian
ebadi
inn
bilingual
sic@@
harmon@@
dresdner
tuneup
unlicensed
jump@@
oleg
vall@@
swamped
ster@@
fixes
truck@@
harrowing
stagnant
armitage
gucci
writings
upstart
cornell
sic
precautionary
cardi@@
lis
iri@@
kens
clo@@
upro@@
boomers
lim
fundamentals
euphoria
inspecting
loving
kwacha
dreamliner
explorers
white@@
endurance
astra
emily
reinsurance
converge
lcd
stifle
asteroid
inkatha
lips
beng@@
swim@@
jim@@
kickback
butcher
practically
toes
ches@@
nukes
lill@@
jubilee
automatically
inroads
suppression
stumbles
portrayal
intrigue
igu@@
mausoleum
aut@@
knowingly
leapt
saeb
consumed
yosemite
adua
eminem
fred@@
coping
ceram@@
grey
totalling
objected
yev
cling
comor@@
wholes@@
mcc@@
announcements
mack
laz@@
pflp
wavering
habi@@
trims
rehnquist
kurmanbek
bos
eroding
restrictive
fancy
iyad
wes@@
moroccans
input
exclusively
schwar@@
multiyear
crushes
suppl@@
vili
socialism
prodigy
glitches
lip@@
trove
iring
skill
biologists
rodrigo
readings
absurd
beefs
fill@@
scares
revelation
falters
elie
whe@@
smes
impetus
jurgen
hooker
hastily
loading
detonate
castroneves
exploratory
corey
polluters
believing
quicker
coincide
baldwin
rand@@
drenched
lawlessness
bjo@@
squabbling
wrong@@
isl@@
orientation
postelection
tram@@
hatt@@
digs
gaulle
hes
combative
garang
cht
person@@
lifelong
blog
incidence
houllier
mint
quantities
deforestation
advancement
zig@@
synthetic
renovate
hale
elu@@
eat@@
asha
iding
derrick
portions
bred
cabrera
hinting
biscayne
hansen
gren
bavarian
annul@@
accustomed
pep@@
flat@@
impress
chemist
electorate
muttiah
guaranteeing
pip@@
apolog@@
ruthless
performs
deut@@
remarkably
courting
spaw@@
kau@@
antibiotic
hack
osasuna
deepwater
atoll
hog
vo
uous
cunningham
trickle
tax@@
laureates
decried
rosen@@
myth
ew
haile
prevailing
intifada
macarthur
kh
huang@@
bjp
swelled
veterin@@
eye@@
maz@@
symington
cripple
anism
isol@@
staff@@
inj@@
jude
garuda
cpn
sans
&apos;donnell
dl
grounding
tyre
circumcision
fai@@
playground
lively
medications
bamboo
macro
inclusive
hackett
trophies
encephalitis
acer
alicia
bumpy
hongkong
anybody
contemplating
rel
hats
schuster
scant
espan@@
diff@@
batman
liked
dutroux
husbands
coron@@
hof@@
rivaldo
dest@@
embryo
deceased
crest
withstand
armando
tasmania
braved
basilica
relli
weightlifter
citrus
echoed
camel
disgrace
crow
rowling
thrift
oaks
&apos;o
scanners
depri@@
glit@@
sutton
beckett
berisha
saparmurat
cea@@
crammed
fightback
kadima
ovar
cele@@
affluent
peacem@@
liangyu
defaul@@
torpedo
feisty
lexus
woos
fash@@
lanes
bor
parti@@
chevrolet
pelted
falter
democracies
however
tnt
extinct
faked
subtle
suarez
tevez
urs
ayala
parach@@
sculptures
basically
rier
gadgets
construc@@
kre@@
ounding
emakers
soekarnoputri
wir@@
kai@@
emmanuel
heck@@
vic
flattened
brutally
visions
jinping
protectionist
antiques
spratly
alien@@
multiparty
klerk
icious
dade
lod@@
sharpest
sas@@
addy
ample
saud
functional
benetton
diar@@
evacuates
sludge
langu@@
goat
penn@@
mozart
umaru
cruising
getafe
restores
tesco
fay@@
hubert
cock@@
kirch
thrilled
unfounded
sparkling
oven
villaraigosa
suff@@
steeplechase
discounted
scuffled
itive
ottoman
indu@@
woke
perilous
rai
toast
schmidt
demarcation
oria
ature
fic@@
boyd
jockeys
mikheil
modify
sv
gnassingbe
gu
descen@@
annulled
unocal
kot@@
crusader
nonproliferation
keen@@
divine
chairperson
orn
paz
reggae
usda
bellamy
stein@@
jin@@
vacations
zz
requesting
clarence
reless
dope
conde
wasting
infiltrated
delu@@
naturalization
chih
freshmen
processed
thering
itutes
scuttle
sti@@
ost
phillip
commemorations
angop
scania
reassuring
gdf
mck@@
logs
bskyb
intestinal
marin
tucker
emphasize
waziristan
tad@@
interpretation
tland
frost
web@@
horst
pam@@
acrob@@
pools
rwe
icide
jenny
pebble
shwe
referendums
frail
kallis
restrain
oft
alma
undertaken
asts
mess@@
dives
rations
firestorm
gaudio
noriega
inscri@@
s.c.
cordial
uttar
sever@@
garnett
thrill
stade
atti
haq
laughing
cyanide
ebrd
cadres
ovation
governor@@
atlas
newmont
zayed
trooper
ire@@
exhor@@
risking
barbie
hare
bhd
iliescu
hilltop
stimulant
easyjet
kah@@
consultancy
target@@
clam@@
eing
strangling
kewell
ancestral
manipulating
mcclellan
happening
prominence
chevrontexaco
treacherous
induc@@
papadopoulos
sah@@
yucatan
gaddafi
beware
absor@@
bour@@
sigh
midfield
expropri@@
kashmiris
inval@@
hurling
robben
pom@@
tito
timed
resettle
sprinted
ras@@
riverside
remembering
gasp
ple
rss
coe
precip@@
magnificent
lobbies
yousuf
accompanying
searing
rockers
auction@@
biker
cadets
amish
enlist
ceful
mayhem
spurring
architectural
fain@@
piero
granddaughter
mexic@@
judith
tav@@
sustaining
micha@@
bakar
filipina
gatt
violators
monopol@@
quadruple
deterior@@
ital@@
pep
pou@@
dodger
boa
kathleen
angering
ting@@
stabilise
swears
coulthard
handles
rabbani
cranes
schiavone
negroponte
ral
eties
concentr@@
tro
holdout
tics
beckenbauer
spark@@
avo@@
greco
youzhny
daley
notices
serviceman
airforce
vogts
satyam
abol@@
overweight
demol@@
rennes
hitch
disadvantaged
kop@@
dept
versatile
deporting
surrendering
belongings
eliminates
pragmatic
overture
awkward
automated
laps
adjacent
backward
xiaobo
retailing
fabled
reinstatement
rock@@
iva
rubles
anos
aster
ification
waivers
reluctantly
extract
richer
jaw@@
elled
foam
cr
tunes
blanketed
hwan
gilts
deal@@
cuisine
technician
shoddy
choked
pettitte
observing
hm
comp@@
equip
vendor
olson
gasquet
dartmouth
travolta
illegitimate
albums
tia
salesman
couture
restarted
bry@@
ancestors
kyodo
villeneuve
breeze
valery
decent
unfolding
contends
converting
solic@@
mottaki
paso
wreath
dai@@
artwork
prescri@@
wick@@
thefts
wishing
karpov
abolishing
ploy
braw@@
debut@@
rowland
buddhists
bratislava
oao
motives
turers
preaching
lain
privileged
somehow
fluctuated
paisley
gonzalo
shiv@@
dem
neville
salad
hart@@
ralf
benson
scratch
designing
ugged
description
instig@@
roadmap
gilchrist
outw@@
vaccinated
who@@
teller
dispen@@
extravaganza
week@@
gephardt
firebomb
myskina
wend@@
fetched
consulted
ours
stiff@@
coptic
positioning
astana
referring
dinosaurs
registrations
andhra
motiv@@
assembling
apec
muscles
therap@@
triples
totti
fokker
hershey
asher
upsetting
figu@@
enabled
portraying
gabri@@
static
daw@@
kohl@@
infielder
quer@@
nicotine
midair
heroic
joachim
spokesmen
mountaineers
aud@@
hut
chore@@
hsu
chides
emanuel
giuli@@
endure
bonnie
shaq
doz@@
gent@@
ani@@
battle@@
gymnasts
fingerprints
tolls
panchen
yi@@
hayes
penalized
wrestlers
copter
chlorine
np
larijani
skirmishes
caves
uso
siph@@
buccaneers
teen@@
chow
insiders
duchess
dawson
glittering
tino
rainstorm
schoolgirl
fliers
planets
ntt
preference
fabricated
u.s.-british
resilient
stone@@
unifil
applicants
abilities
kirsten
ifi@@
chest@@
bernama
tt
flourish
gh
extort
cci
superman
bananas
lund
claes
brumbies
fragments
snakes
nast@@
harb@@
villager
graph@@
disclosures
deportations
klan
constructing
coles
compounds
boat@@
une
arsenic
maurit@@
comets
alities
bankruptcies
rying
sled
squabble
acceleration
beck@@
involuntary
dossier
scoured
skips
acies
fuzhou
aberdeen
adventures
ounces
streaming
chien
imclone
conte
implant
newfoundland
rol
aveng@@
alfonso
guilders
belgians
caledonia
eighty
morality
ator@@
procedural
jalabert
slug
intriguing
markus
annie
caf@@
seville
baghdatis
rails
vastly
vans
wom@@
waived
intolerance
haneya
gos
copes
hardy
feinstein
imbalance
jubil@@
lingu@@
kidman
handset
hasek
clou@@
collegiate
plummets
stoned
tomatoes
obese
dir@@
ritz
ceos
decry
shuffle
obligation
azores
ambon
mira@@
overcrowding
charley
booker
tong
telev@@
tumors
hiked
newborns
prehistoric
hurst
appointments
host@@
magna
bioterrorism
joyce
mediated
reson@@
panther
collects
ori
compos@@
hasan
sickness
giorgio
tassos
hein@@
saeed
sparta
hospice
squibb
arma
yilmaz
solitary
shore@@
honolulu
won@@
cli@@
collides
succum@@
life@@
tulkarem
assa
nomura
repercussions
slur
harriet
jac@@
fertil@@
atively
dolls
emerson
poll@@
abi
aig@@
core@@
saw@@
decom@@
circulating
costume
imposition
islam@@
gatlin
airb@@
board@@
hast@@
noticias
alexandra
marvin
nervously
sketch
terrorized
ums
wl
rais@@
zman
nabil
motorcycling
whipping
weizman
eyewitnesses
interrup@@
sures
lie@@
ingo
pedestrians
predic@@
limitations
mixing
industrie
sit@@
shun@@
disagreed
blend
sif@@
eurovision
tooth
lambert
cepti@@
cheat
mediating
cadillac
antidepres@@
lindros
ferenc
specul@@
terri
impacts
norfolk
sput@@
reinsurer
icker
pedophilia
biodiversity
hostel
lausanne
lorena
envelope
outreach
priceless
itating
chic
eccentric
spoil
exhibits
chases
glaxo
saigon
shyi
treats
jewels
manson
visibility
aslan
sary
anticipating
lenin
swipe
deval
windsor
botha
suffolk
rebuff
xenophob@@
musicals
revisions
barricaded
blin@@
facilit@@
wef
internacional
aton
boom@@
confesses
wheel@@
allocates
frankie
passover
dissen@@
wears
bemo@@
shim@@
interrogators
amin
besiktas
pow
quirky
quarterbacks
rubens
primera
conditioning
accountants
jal@@
gratitude
shalom
dedication
reliev@@
favor@@
gaps
charette
qualcomm
copy@@
yellowstone
drag@@
barreled
uzu
schi@@
unjustified
deser@@
arb@@
helens
uni
hobbled
ventured
imo
auditing
farce
kissing
ailments
reebok
reshape
flores
aming
snipers
unrelated
ider
relaxing
materi@@
u.n.-backed
moreno
figo
chment
hancock
maple
styled
iman
geopolitical
pietersen
stam
reck@@
itf
gg
agan
yunlin
anarchy
confer
after@@
curs@@
refunds
vege@@
jum@@
inhal@@
accuracy
ningbo
bottled
reza
ml@@
sheehan
v-
manouchehr
oxfam
sonar
nfc
mend@@
snowboarding
syl@@
preside
swarmed
printer
chalked
fem@@
sang@@
rant@@
lutheran
honey
chiapas
bakery
flees
rine
judaism
twilight
disburs@@
pollock
fluid
karel
dresses
delgado
toral
locking
mishandling
delic@@
alleviation
buddhism
terra
ood@@
chanda
yle
enactment
envis@@
absorbed
inundated
stating
jama@@
wynn
renovated
clocks
assi@@
sedans
oul@@
ark
sharia
dario
runways
wee@@
kind@@
breaker
pratt
characterized
doll
oked
mg
benigno
reverber@@
kha
frills
cherished
heightening
tna
redit@@
chapel
enthusiasts
ripping
theatrical
textbook
termination
classmate
hercules
character@@
skyscraper
unaccounted
combs
norsk
dalen
crossfire
unheralded
sgt.
jenkins
sightseeing
freddy
orchestrating
isse
adven@@
b.j.
rumbled
smashes
ecology
comman@@
implanted
harness
-plus
fix@@
tam
dispose
courageous
motions
torching
standardi@@
thrower
epidemics
herb
kall@@
awi
binyamin
partisanship
snared
walk@@
karamanlis
canc@@
falklands
inherited
bbing
anu
quinn
override
dinara
balcony
contributes
unhurt
caes@@
parliamentarian
wilma
toilets
coventry
checkup
hanover
palaces
usain
tareq
carriage
flo@@
prototype
yemenis
tremendous
maxwell
thered
uncomfortable
elysee
acion
inher@@
chis@@
nikolai
marrying
resol@@
brom
gridlock
incurred
genentech
ske@@
alumni
pamela
devote
prasad
someday
flocking
essness
offensives
nosed@@
hipp@@
tl
ife
tsb
alley
ecfa
pummeled
anz
carlton
hakuho
plaguing
swans
invitations
anja
presid@@
giambi
cosmetic
lom@@
platini
bungled
plantations
ponte
calamity
crusaders
bellwether
sinica
nanny
petroleos
expiry
&apos;sullivan
parched
mending
draped
employing
sier
ipc
amat@@
eberharter
stabilized
clinging
commuted
ario
sehwag
corretja
qualifications
alfredo
gill
bartoli
pres
leeson
supposedly
excellence
swamp@@
abel
&apos;oreal
ape
frederic
tori
vu@@
nolan
legalizing
tout
afptv
pondering
mara
audits
billboards
aruba
bing@@
unfortunate
contents
ballesteros
tabled
free@@
bear@@
anan
cookies
basics
funk
hust@@
kerr
stepanek
disturbances
sler
christina
tall@@
cfo
drifts
jes@@
frey
precise
crowe
squir@@
confisc@@
grievances
lucio
zyuganov
retali@@
nard
subst@@
conchita
roaming
ombudsman
violinist
illumin@@
manag@@
scottsdale
vieri
roiled
ean
wolfensohn
amd
mash@@
accessories
neutrality
waterboarding
jeanne
axes
abdallah
arias
steinmeier
enriching
ranchers
ith@@
hamm
skids
maj.
arc
halve
lomu
hampers
j.d.
teargas
quashed
condit
tow
louvre
allerg@@
ogs
legg
importer
receding
payoff
alaskan
azi
meat@@
ored
palau
serted
floats
weaver
anno@@
matsui
mercenary
hugely
frei
semester
booms
herat
audi@@
vian
flatt@@
mdc
itude
monoxide
citadel
cruc@@
foremost
unsealed
bruton
defiantly
dried
cam
descend
paren@@
ariane
stairs
evangel@@
nudge
commandments
discarded
vy
squatters
santer
paves
archaeologist
seaman
evident
wiping
coal@@
tele
hygiene
couch
dorothy
prosecutions
servers
weir
anchored
vn
rowers
orchest@@
hectic
atty
brendan
gag@@
brothel
cafeteria
moh@@
rigs
vaccinate
goddess
activism
ymp@@
docking
racked
corridors
lanzhou
tending
firefighting
formulate
terminated
exchequer
biel@@
fanning
rung
tactical
alous
endorsements
compens@@
erring
shaul
suppress
recurrence
handheld
skyrocketing
london@@
guevara
abductions
combatant
smen
resurrec@@
injecting
invisible
katherine
attach
habibie
karimov
rangel
suvs
intraday
torricelli
lippi
scams
boasted
taitra
faldo
nex
peek
shevchenko
-euro
lei
telecast
stardom
grosjean
ensured
spurned
clone
chennai
martinique
sermon
paratroopers
cancers
eisner
localities
bledsoe
martin@@
exploited
takanohana
perugia
qual@@
lamb
logic
daiwa
hind@@
kend@@
dles
molested
tomba
enced
pollutants
dunhill
swarm
suspensions
paris@@
jennings
swooped
underscore
swo@@
nl@@
wandering
unnamed
tee@@
notoriously
kay
fea@@
tenants
kse
snubs
expiration
mathematics
paraded
xie
nadia
cott
constitutionality
convey
stained
zic
cushion
hyde
stit@@
flourishing
suz@@
spikes
centimeters
slo@@
simplify
grady
handguns
belichick
dedic@@
petr@@
separatism
weaponry
stav@@
crist
memos
restrained
allrounder
prud@@
formosa
communicate
buyouts
supremacy
resentment
catalog
lester
jugg@@
fluctu@@
intersection
shortcomings
explored
normandy
desecration
godfather
molotov
rass
autom@@
occasionally
commencement
rioted
straining
invention
baxter
intermediate
hoe
kimi
embraer
owe
bain@@
rushes
vest
asco
.-based
anes@@
lier
algae
clarkson
poli
collaborator
match@@
atm
ia@@
piz@@
spoon
launchers
ageing
stump
norms
baggio
nasrallah
ballooning
ications
check@@
democratically
koo
choke
everett
martian
carp
eger
pingtung
miroslav
annu@@
retri@@
salvo
voc@@
lil@@
shipbuilder
wushu
jirga
entrenched
himalayas
e.@@
depending
tracing
concealing
aband@@
sclerosis
nigel
tai
traine@@
firebombs
submerged
cf
ll@@
thereafter
bush@@
thoroughbred
unmarried
anny
onia
butt@@
thessaloniki
tial
cordon
purportedly
breather
braz@@
booths
patrons
accounted
shaukat
granite
welch
blanco
now@@
integrating
tation
tigh@@
arid
zawah@@
underlines
availability
corus
chertoff
backpacker
thyssenkrupp
christophe
chinatown
replacements
needles
iza
put@@
skis
jost@@
slush
fowl
peasant
dhl
ambigu@@
idi
helmets
md@@
ichi
marvel
mahal
persisted
jian@@
nascent
snowstorms
hollinger
duisenberg
edia
fresh@@
taser
swisscom
haul@@
parreira
predictable
yugosla@@
sworth
baikonur
ifp
mosquitoes
did@@
ounced
wmd
olivetti
doc
blossom@@
accompany
illy
ouncing
bach@@
mukasey
grav@@
dwellers
sweetened
u.s.-china
burdened
thood
bend
grove
staffer
ocrat
bearer
unborn
ooth@@
aran
mandated
rower
desertification
bloggers
kash@@
zzi
needle
gim@@
maternity
aunt
scheduling
legalized
macedonians
orial
rented
mardi
groom
scorers
gorazde
chem@@
-second
obsession
biennial
waterways
anastasia
incitement
regards
rainer
glorious
micros@@
flawless
bausch
bharti
inflammatory
clutch
ushered
abiola
passions
nickname
rera
intimidate
pioneers
gillard
payne
particles
repressive
dw@@
wit
scorsese
tural
vnd
hasten
hass@@
citic
calif.
unbeatable
bis
fam@@
vivid
inching
maternal
capita
union@@
inaccurate
doubted
magn@@
dreamed
daylong
scand@@
leniency
doctorate
mcgrady
raceway
faking
sui
bov@@
franchises
chia
ascent
fraser
ticking
ees
kingston
culinary
milutinovic
vineyard
adjustments
ignacio
ballroom
aspen
legislatures
standout
informer
dupl@@
surve@@
mauled
rosneft
kalimantan
harmonious
bell@@
dough@@
boc@@
competent
anians
aqaba
dinars
caller
icks
relic
schol@@
valujet
hardliner
costumes
tox@@
gsm
stifling
stylish
idal
hormones
posh
pu
boot@@
romp
prob@@
clara
arraignment
sharper
unicom
yah
cover@@
quet
eternal
administrations
fluctuation
staking
tsmc
fema
verse
incin@@
erode
erec@@
anian
predecessors
rents
scots
roth
pomp
azul
jian
seth
kasyanov
woodstock
issuance
jayasuriya
imagined
dialysis
censors
walid
yates
yor@@
gamblers
ibrahimovic
brazzaville
mast
preconditions
suleiman
flowed
staffing
anto
zedong
scotia
sportswear
util@@
nationalism
comprising
fly@@
zinc
allah
debuted
adversaries
vettel
disqualification
unfur@@
celta
spanning
emphasizing
farooq
tangible
thornton
doldrums
beth@@
javelin
schuettler
potro
refinancing
extinguished
&apos;leary
tate
oper@@
vain
projec@@
aret
banknotes
benign
hed@@
brokerages
mundo
u.s.-dollar
rounding
dissolves
surrounds
iti
imran
damien
paralysis
trimble
igniting
minim@@
uel@@
diversified
realities
paralyzing
raiding
dispersed
colossal
ih
amadou
ellers
dian
fetch
barbar@@
ois
rhythmic
andretti
kaiser
robots
allowance
rainforest
hiker
reformed
bicycles
taitung
lud@@
belle
weds
mehdi
madness
fertile
yusuf
reclaimed
outdoors
pall
webster
stab
lenovo
nett
rumored
wallets
harsher
totals
prematurely
cocktails
snowboar@@
koehler
scripts
perf@@
anca
iang
overran
enza
rajasthan
klux
lomb
colliery
sv@@
feu@@
islet
cock
nativity
los@@
usair
shade
offici@@
jacob@@
chalabi
wiesenthal
flipped
comex
presbyterian
junction
iger
proclaiming
bulldogs
chievo
tsai
calvin
body@@
reiterating
leverage
readying
memor@@
desktop
reen
crowns
hauled
niece
listings
learns
kowski
wre@@
roy@@
enz@@
bye
kath@@
wyeth
aetna
sandstorm
evading
pear@@
exacerb@@
references
distances
crafted
carri@@
advocating
-foot-
dramas
surveyed
laptop
antoine
fb
drop@@
demon@@
sanyo
turbines
cruiser
curt
daniela
-pointer
monty
mall@@
lobbied
simil@@
acan
upholding
conducive
listened
libyans
bekele
gag
wrangle
blockades
sympathetic
faulted
aly
dimmed
finn
bricks
imperson@@
&apos;amato
his@@
sincere
lop
revokes
randolph
euph@@
werner
haunted
kanu
demo@@
commute
elope
renegotiate
truman
fitr
demoted
owning
connell
bogged
mutilated
misused
pus@@
sings
deion
mim@@
huaihe
reacts
sound@@
thers
manipulated
adulyadej
gunshots
fraught
torrent
awami
ought
gareth
harley
alec
genital
lm
analy@@
ires
geh@@
bloodied
morgue
recep@@
lockdown
hwang
ault
frightening
shir@@
landfill
lp
hemorrhage
bhumibol
afri@@
trendy
bpd
maids
worth@@
deceptive
beneficiaries
hector
dixie
was@@
jeff@@
ntv
greats
progressing
smith@@
wept
need@@
adaptation
alex@@
saba
randall
rangebound
indic@@
atore
tempers
nonsense
norm
aliev
herzog
kus
meth@@
novotna
shad@@
shorten
sophomore
succumbed
gos@@
dormant
citi
stin
duc
wholly
esse
spartak
drubbing
gaston
ivy
griffith
nemesis
complicating
rosie
varied
paras@@
affiliates
analyzing
accumulated
deter@@
ures
iers
yuk@@
wharf
polynesia
carg@@
anglicans
waste@@
greed
monarchs
emotionally
zou
occidental
olo@@
blades
glu@@
postage
td
savior
tycoons
draw@@
berg@@
eil@@
prejudice
goats
enclaves
mamadou
summ@@
strangers
allison
farah
time@@
khor@@
jal
policy@@
ishers
prevailed
zhou@@
dictionary
immense
unconventional
williamson
cle@@
ipod
byr@@
softbank
deployments
jarrett
decker
sud
mccl@@
microchip
deluge
vladivostok
composition
mast@@
kick@@
steril@@
abdoulaye
bal
incomplete
kilometre
olympians
neal
nearest
creators
moribund
thoroughly
millionaires
seton
plotter
dealerships
relied
sali
bourne
hmos
dueling
unwelcome
dissatisfied
ano@@
waratahs
incompetence
disappear
bjt
kpmg
mccul@@
furyk
zee
evic
iv
fuad
cade
denials
englishman
varieties
resses
peters
ved@@
hurdler
yos@@
trous@@
congresswoman
dispatching
hoffman
stamford
somebody
loo@@
denominated
reimburs@@
sapa
ribbon
snack
asserts
gianfranco
distinctive
halle
entice
erasing
chimpan@@
navarro
flan@@
nell
bittersweet
eed
demining
eulog@@
pasadena
infested
penal
flair
ravaging
powerless
mistreated
joh@@
improvised
coughlin
roars
toddlers
provisionally
preferences
radically
downloads
colt
kunduz
ests
tories
adm.
mujahedeen
glo@@
inated
clogged
gifted
ained
photography
pare
sheen
outplayed
spiralling
dor
busting
roe
winehouse
rajapakse
schengen
resur@@
vacated
impounded
apul@@
razz@@
endeavor
bruni
bucking
powerhouses
clay@@
clips
bah@@
arity
adapt
mutilation
owski
vazquez
yat
contestant
wiret@@
romero
defin@@
necmettin
fingerprint
pediat@@
astic
imagination
deterred
changhua
oats
altar
jaw
scream
blindness
beta
lengths
dion
kramer
evaluating
ree
fabregas
andre@@
dodd
alek@@
vientiane
metro@@
stoltenberg
intr@@
rho@@
outlaws
raf
cross@@
rogen
constellation
flung
oceanic
alt
firecrackers
rants
georg@@
cementing
immoral
pilgrim
barents
advocated
spectator
coffins
photographers
forcefully
castillo
ardino
sketches
housewives
posco
scouting
iber@@
binge
freshwater
kuan
larsen
expedite
.r.
virulent
undertaking
evolving
teliasonera
mb@@
parental
agnelli
diouf
writedowns
conglomerates
osman
sharjah
electrolux
pitino
bacon
undo
recede
mascot
shanahan
conner
luka
mcgreevey
indurain
ghetto
confidant
handicap
insanity
yew
judgement
opes
tossing
zzy
pillars
glowing
-ton
usaid
subaru
fayyad
weaknesses
skeptics
rists
pauline
biography
multipl@@
devised
giuseppe
geograph@@
lessen
moder@@
rusted
industrialist
pless
estones
optim@@
cig@@
sd
wiel@@
comed@@
overshadows
mex
endemic
sne@@
tomato
guerillas
dres@@
bochum
ounds
tallies
sutherland
rahul
camping
cookbook
mandarin
impaired
adjourns
john@@
tae
jeopardizing
gravity
schoolboy
doo
aggres@@
hee
amassed
mca
ranil
tiffany
echoing
alvarez
amending
levee
rochester
humiliated
mechanic
assessments
leopard
ricin
raza
bees
katsav
blessed
yorkshire
tiebreaking
specializing
punches
popular@@
isna
reservoirs
tta
gilberto
extor@@
fare@@
blower
mehmet
bla
sinatra
story@@
prologue
wastes
pretrial
slack
pim@@
midweek
gang@@
contributors
politici@@
jermaine
montesinos
rack
sacrifices
mordechai
montserrat
tuareg
elo@@
demilitar@@
institu@@
subsidize
firepower
lingers
irvine
unleashing
rex
stich
unctad
trek@@
narrower
ezer
sym@@
fide
alight
hoddle
ux
deco@@
soda
pley
portillo
hospitality
cca
beverages
insolvency
intimidating
nujoma
esman
cran@@
makinen
telegram
hue
packer
semiconductors
kellogg
illiteracy
kill@@
shaath
intu@@
enroll
nord@@
friedman
tik@@
remind
tuous
pyramids
bump
einstein
qassam
parishioners
lapses
dreaded
samak
howell
ichel
ulu
secular@@
betrayal
valdez
instantly
liz
expectancy
canv@@
catal@@
suicidal
upswing
edes
tab
kap@@
cogn@@
sha
updf
reads
towed
thrive
agony
pena
puppet
hra@@
rebirth
invoked
nantou
xbox
martti
valladolid
recreational
marginal
distanced
mlb
robes
igan
stad
ign
subindex
bureaucrats
toler@@
kru@@
madeira
frequency
ngu@@
abe@@
master@@
sainsbury
vc
pemex
latinos
scuffles
scann@@
impartial
annexed
navies
yon@@
rebel@@
paul@@
widows
shrou@@
ishi@@
tandem
charleston
bernardo
zon
existed
precarious
encir@@
resists
zambians
examinations
berries
occurs
appreciate
housed
guido
organise
lofty
carr
iso
hitchcock
imbalances
liz@@
vampire
guilin
sega
levees
bakassi
segolene
fuelling
chem
defrauded
blon@@
faiths
amos
crimea
bam
atically
cris@@
clea@@
rig@@
nyerere
asph@@
gourmet
globalisation
wtc
ruby
astonishing
numbered
doorstep
desecrated
unprofor
maharashtra
wrenching
unanswered
martyr
aeros@@
keynote
coastguard
emil
council@@
ided
schreiber
bernhard
hovering
cooperatives
triumphed
reprisal
vengeance
ardo
j.k.
xanana
melee
pulpit
parall@@
dominion
cutoff
contradicting
busts
exhibitors
erupting
salazar
ually
redesigned
jaroslaw
potatoes
georges
fiesta
garros
pasta
gentl@@
kfc
deere
akis
detectors
tubes
spewed
kagan
debit
instruc@@
compare
skinheads
bruc@@
brown@@
hibern@@
supportive
admon@@
hon
turbine
seren@@
dians
crafts
nbs
fantastic
hutus
detecting
cn@@
arthroscopic
icals
nagging
manuscript
rov
kilogram
brightest
tis@@
monde
mant@@
solid@@
carn@@
ici
idriss
fas@@
cosmonaut
lion@@
scala
spaces
hagg@@
boj
giggs
dismayed
grun@@
chili
odom
cousins
outlasted
uighurs
silly
cahill
distracted
depreciation
chie
brunt
lop@@
dietary
marqu@@
quette
defaults
legionnaires
bahn
insee
buyoya
accommodation
skipped
minivans
ghosts
cloudy
rigorous
fications
sprink@@
gama
plunder
mcgraw
worrisome
substandard
exhu@@
spacewalking
citation
dod@@
handsets
frogs
tui
rous@@
pileup
independiente
koch
phased
clocking
decrees
atorial
molson
heighten
contempl@@
sage
rehear@@
ply@@
glitzy
extradites
cali@@
pitted
yachts
raich
spd
recoup
grow@@
internally
trap
hide@@
foils
ridiculous
fraction
u.s.-russian
oop
prop@@
americ@@
scans
icky
xy
summar@@
liberians
strategists
excavation
tations
licences
constantly
barbecue
repo
bard
punishments
melvin
infiltrators
budge
yang@@
cashing
omo
nanning
mammals
redistricting
sequence
categorically
destabilizing
tendered
bladder
meager
bottling
ranges
vass@@
strewn
oney
horse@@
moratinos
eck@@
impropri@@
quan@@
zanu
isu
accelerates
verdasco
fairs
aerials
pennant
landings
pens
luncheon
washes
hor
babe
hanshin
fax
mrt
nostalgia
hardened
temp@@
ipp@@
damning
mileage
trezeguet
tedly
bloom@@
sourav
curriculum
onian
rif@@
-inch
sauce
musashimaru
nsc
lex
scha@@
stad@@
thronged
doctrine
discriminated
sett
warehouses
locomotive
holloway
prevails
backer
impotence
centrifuges
lush
soweto
compromised
dys@@
unlea@@
wickremesinghe
syndicated
bowles
geologists
engulfing
solicit
gro
weeping
gundy
mountainside
kanye
tietmeyer
socialite
klose
cisneros
falungong
nered
shoc@@
prays
icism
oppression
esi
ernmost
microelectronics
mutually
barren
demos
andorra
consistently
-hole
biz@@
outpouring
plough
cooked
tif@@
preced@@
bolivar
copying
terrell
monroe
fav@@
butch
context
thwarting
divor@@
retiree
snyder
mof
ml
sap@@
constitu@@
roommate
toms
unjust
haunts
inzamam
uke
taha
fountain
mururoa
stamping
conservancy
asleep
devise
crist@@
rituals
xstrata
infra@@
para
preliminaries
reeve
deby
rivalries
westminster
chs
organ@@
occu@@
victorian
compuserve
pentium
ration@@
fledged
mobsters
sees@@
dented
ayo
hoisted
reich
trespassing
likened
thorn
apologize
contam@@
cooper@@
mcn@@
cac@@
paw@@
toluca
vital@@
pelling
shantytown
nna
kayak
panasonic
seagram
compromises
gmac
nationalized
olympique
barton
kal
veg@@
rendition
parry
pacif@@
financ@@
encro@@
share@@
proce@@
alistair
silvan
haunting
deception
hesitant
volley
getaway
kok
mesut
trimming
heng
encyclopedia
athy
mixture
reaffirming
thirst
ayman
tex@@
beyonce
nld
bella
coni
outfield
hmo
persu@@
arrow
nese
harg@@
bullock
newsroom
busters
chandler
sharpen
rampaging
wer
haz@@
pros
bonanza
overboard
janica
ineligible
ecting
olsen
reliability
designation
valverde
zeal@@
goetschl
tahoe
ection
johannes
bureaucratic
compe@@
mdgs
torino
matthews
issu@@
steamy
anova
boyle
taker
rhino
embar@@
maneuvering
frog
alcan
cherry
wc@@
mirza
wreaked
stash
jaber
pacemaker
crus@@
pend@@
mugg@@
plaque
thro@@
crac@@
blud@@
stol@@
grum@@
resilience
arteries
fabric
s-
bluntly
besides
maccabi
softened
knox
marath@@
swer@@
hoon
velez
mcclaren
administ@@
fresno
ens@@
cp
defections
juncker
leprosy
atini
handler
rebu@@
thaw@@
depos@@
retro@@
staked
decommission@@
books@@
liar
correctly
mcdowell
miranda
pentathlon
rib
crosstown
raked
defines
ranieri
tangle
lut@@
practitioners
beefing
meteorologists
estudiantes
sensing
degra@@
lipped
scars
shara
yach@@
anfield
maze
wrest
klu@@
boone
ix@@
u.@@
chandra
pharmacies
proportion
isers
confusing
nsw
budding
ells
ittf
kner
monumental
linux
saun@@
swirled
adjusting
openings
sudirman
yous@@
supercomputer
defaming
misgivings
dili
siding
ransacked
sionist
arguably
coetzer
heavier
robotic
freezer
oves
emphatic
fonda
cooled
inco
sleeper
bald
innov@@
isher
bene@@
quel
melinda
quincy
redevelopment
depicted
loot
tip@@
justification
lov
wc
translate
fiercest
sober
ahi
patacas
essence
burglar
refriger@@
film@@
fredrik
saratoga
marries
mcg@@
rash@@
median
mistrust
arnaud
trampled
lantern
graders
wig
cbn
riga
anp
lb
nabs
meguid
terri@@
ignant
deco
lana
spooked
meaningless
sional
carruth
a-
brist@@
ental
ilya
lobbed
abundant
publicize
vehemently
humane
leekpai
hayward
hara
moc@@
ivica
rainier
mented
other@@
slaughterhouse
fman
mfn
dove
worded
cosmodrome
calmly
overly
inations
breath@@
isabel
exhaustion
altercation
blea@@
bacterial
email
marek
amphibious
aby@@
ikea
rept@@
hideki
empowerment
dus@@
cameroonian
chery
dealership
rust@@
gain@@
fitted
zet@@
masterpieces
beltran
zzo
mountaineer
pristine
cisse
femin@@
prep
mb
embarking
moenchengladbach
agricole
showcasing
industrialists
downplay
od
awash
dn
accreditation
safeway
sandinista
marlon
persona
signalling
auspices
haired
unb
bric@@
incar@@
ripken
yah@@
chic@@
ground@@
metall
barn
groundless
atypical
stashed
pyrenees
unrealistic
recurring
scent
pubs
mello
egan
soo
recht
eln
paternity
hud@@
cried
nicholson
hyderabad
spoils
feathers
unprepared
organizes
barca
sloppy
flatly
algarve
lipton
custom@@
noose
californian
u.s.-sponsored
-rcb-
disturbance
davi@@
boardroom
interrogate
u.n.-sponsored
plushenko
predawn
hew
weiss
hardships
dwar@@
leng@@
resear@@
sr
hey
loaned
msf
sweat@@
cough
hammering
lookout
berdych
esmat
consulates
decathlon
barbarians
fars
heidi
staring
nicknamed
youngster
clans
nex@@
floun@@
brig@@
phoned
clarin
stephanie
regroup
relinqu@@
erro
contributor
prescribed
flemish
hitters
racers
permitting
teries
shooters
chag@@
kitty
impeached
scooped
tings
libr@@
bastille
mitting
shipyards
fang
prescriptions
keller
newfound
listless
ylon
mechanisms
mullen
mie
beast
doris
aye
illustrated
evgeni
cleaned
mobilizing
kman
ahmet
opting
kelley
arrogant
fay
asturias
benchmarks
hemingway
ahn
statistic
weird
awak@@
anarchists
stymied
dut@@
leipzig
yakult
sweeney
olin
moms
iority
abnormal
ishman
rife
depar@@
constitute
ancic
rolf
conceived
prohibition
aviator
reschedule
edt
kpn
-bln
proudly
rubbish
harvests
stake@@
yeh
colliding
perils
cb
teles@@
competed
inexperienced
golkar
foun@@
exuber@@
kro@@
arti@@
artest
dredge
masterminded
piers
aug@@
sabbath
longhorns
relays
transcript
gayle
amer@@
b.@@
discus
emomali
malvo
saddened
mature
perennial
sb
complacency
consolation
elman
ingham
kies
jinan
decider
trounces
newsprint
gangland
teachings
eluded
normalcy
noah
guus
aru
shirin
ae@@
mannesmann
ainen
villiers
louima
squadron
ven
solzhenitsyn
snags
cedric
exhaust
arbitrary
envel@@
errant
grot@@
profiles
pots
bul
livelihood
shameful
gently
wiring
unraveling
cooke
hamed
bohai
downpors
comparisons
halifax
rescind
bies
ott@@
kiz@@
boe
aining
irb
terrifying
smelter
estershire
hourly
nursery
madame
phantom
stowaways
radek
samba
refl@@
falcon
sceptical
eration
rerun
wreak
tasmanian
droughts
namesake
fraternity
allo
sonny
meditation
catalunya
crisp
uf
prewar
machete
realizing
diagno@@
doohan
chants
crossover
wooing
weathered
combed
wann@@
eurs
grappled
allowances
nods
avery
marvel@@
ambo
appl@@
orang@@
undisputed
doherty
norris
debilitating
dover
precinct
prudent
matic
dipping
dusk
tness
ango
eradicating
ptic
capitalism
pennetta
siena
trick@@
faint
spelled
withstood
gps
desperation
lax@@
splinter
commit@@
occup@@
gia
anguish
foxborough
sailboat
encouragement
beet@@
intox@@
politkovskaya
whopping
falsifying
dizzying
taped
curbed
tirade
tanzanians
currents
sighted
basso
siamese
transcripts
marbury
tner
hated
federated
nd@@
goeran
antit@@
discloses
oles
commentators
margar@@
interpreted
genetics
restructured
illing
chip@@
reminds
csc
myth@@
boast
paraly@@
racy
weekends
voucher
warily
inheritance
rooftops
oka
receivers
horrible
andreotti
zac
jill
ih@@
icts
liege
glitter
reaped
mccar@@
sasha
awakening
headscarves
mummy
footsie
craigslist
hauling
tre
jou@@
unblock
unrestricted
scarf
x-
wayward
fil
pippen
solomons
valve
nypd
fret
caravan
hoff
slov@@
bravo
pier@@
lings
leszek
withering
carmen
simon@@
loopholes
amor@@
etary
traumatic
krav@@
disappearing
preston
canas
knights
biom@@
shoplifting
icj
achi@@
chief@@
brigadier
seabed
koo@@
wrought
nur
spaceship
goth@@
trailers
chemotherapy
chick
tenn
avi
koirala
diversi@@
intervenes
frustr@@
gregg
abm
origin@@
chunghwa
marian
mach@@
incest
realtors
begging
shuttlers
downloading
uber
wheeling
hinges
camden
homel@@
acrimonious
sparring
lsu
catar@@
chela
fleet@@
buffaloes
vians
cavs
erns
cessation
tzu
sandwich
kisangani
souvenir
cruiserweight
tapes
uncovers
peiyan
plucked
emilio
sticky
perio@@
quentin
esso
graduated
p.@@
compatible
health@@
distinction
kevorkian
comatose
lasts
newlands
wrecks
norwich
trawlers
acp
softens
korda
srichaphan
vests
kut@@
guidant
dazz@@
devotees
gilles
shah@@
icates
taur@@
ophiles
containment
prod
ince
ioner
sainthood
irreversible
assertions
bros.
harmless
segregation
occupants
forrest
motivation
coats
foothills
excise
fish@@
drones
heartbeat
buffeted
dreaming
vet
thugs
esmen
spanned
leghari
shorts
pietro
ecclestone
cl
weah
raj
pyng
ako
springfield
photo@@
beh@@
dorm
glaciers
aragones
brescia
cemex
occasions
corporal
heel
melzer
hijackings
gene@@
alsthom
eyebrows
ventil@@
notification
kingsmead
anticipate
atalanta
incur@@
charming
doubleheader
calculated
gagne
breathed
map@@
qualities
bai
hsi@@
enia
indra
collaborators
lampard
gavin
vos
displeasure
versace
declassified
stalwart
premi@@
gazette
kashima
scrum
christoph
coch@@
hero@@
greener
tackled
darkened
watershed
bondholders
neuros@@
bolsters
plagiarism
slovene
spearheaded
exhibited
booed
insulted
tuplets
judy
verhofstadt
haji
decisively
boring
stair@@
facial
abound
twente
reais
bn
papal
mushrooms
aux@@
ituri
inconsistent
texts
bap@@
denise
jewellery
nightly
jenson
enquiry
esome
jeopardized
cramped
photographed
craw@@
osprey
lungs
ligaments
reinstates
dugout
keyes
lusa
baluchistan
dissolving
warmed
bbva
hinge
wipro
surfer
rancher
schizophrenia
trilogy
broadening
gilani
zimm@@
serra
yash@@
taka
bobcats
telenor
retz
injustice
squared
kato
shing
accor@@
ruff@@
tsonga
slots
bloated
racetrack
moynihan
roiling
grinding
adol@@
rawlings
posada
velayati
consolidates
recapture
hound
dassault
innovations
merits
namely
pensioners
food@@
retroviral
vens
pepperdine
trusts
rampaged
fictional
perpe@@
ymen
messy
cradle
parting
gorilla
rites
comparable
aked
steaua
detector
anthropolog@@
annul
satur@@
yamaha
barbed
exagger@@
jp
spouse
compass
sens.
bitterness
magnet
obe@@
taxing
fool@@
rabbit
teetering
mold
albion
swallowed
pistols
mutharika
unab@@
reservist
ater@@
dunga
bris@@
seibu
erotic
marcello
modernizing
rope
herb@@
claw
reels
jonbenet
cass
rendered
pelled
bulldozer
trucking
bertha
mellon
tant@@
frazier
metz
sistani
bosch
streams
hernan
swam
financiers
itous
landless
facelift
burhanuddin
joblessness
ont
bagged
costello
stroll
levine
usion
mocking
krishna
tatt@@
freeport
whim@@
firecracker
independents
actic
rts
cooks
him@@
swells
discipl@@
izations
tun
anemia
neurolog@@
scorched
sybase
relies
akashi
inhumane
offence
br
sensors
farina
biscu@@
brain@@
system@@
warranted
fabian
bians
cles
convenient
incompetent
bourdais
fairfax
rockwell
samantha
tatiana
trounce
gillespie
orchid
denomination
blunders
stly
vacancies
rebecca
erez
interfaith
boao
parad@@
unites
rabat
fukuoka
suitor
chann@@
here@@
sympathizers
distraught
hou
contraceptive
ashed
unloaded
brecht
mancini
deflect
nano
astor
gram@@
inga
stiffer
resurrect
profession@@
tao
cairns
tick
limo
aj
hallmark
shady
adherence
ermann
verona
barthez
offshoot
donaldson
cools
ricans
hawking
cowardly
freeh
cancerous
graveyard
authorised
fractures
skirt
rhinos
foc@@
perpetr@@
obrador
reconstruct
rade
waldner
stocking
slutskaya
gardner
magu@@
dear@@
radic@@
hina
interviewing
tract
bergman
geography
bility
pump@@
freshly
marina
thames
total@@
confiscation
tough@@
accen@@
deborah
hemorrhagic
happiness
compares
abdu@@
surgeries
bromwich
contended
saatchi
reau
beatrix
skakel
candid
strayed
bafana
viability
fomenting
jen
hanks
qure@@
clot
vacate
omega
bolshoi
flaming
ebbers
ghe
berto
predator
audacious
haikou
gowda
incite
celest@@
frontieres
renamo
camped
acura
chateau
ae
design@@
nullif@@
wd
galli@@
gui
dia@@
dialog
polisario
moeller
dang@@
swor@@
davidian
galvan@@
aria
templeton
integr@@
carpenter
servic@@
conceal
comfor@@
mitch
broward
frenchmen
iom
collusion
dodging
chong
scion
premieres
.-@@
fortnight
prowess
envisioned
hashim
twists
burbank
gis@@
measu@@
smiled
popping
garrett
puma
salon
gomes
ordination
indos@@
rugova
paok
onics
oates
common@@
caa
christo@@
keelung
lore
fall@@
falsified
frattini
nieminen
glimmer
sindh
clergyman
governed
awful
princes
handic@@
unconfirmed
magdalena
ashing
handcuffed
scratched
elic
appellate
faltered
valentin
stoc@@
earners
eley
bingu
anish
topless
carlyle
miniseries
behead
taboo
fini
zabel
veils
gay@@
minefield
woodgate
caste
brothels
banja
loc
biop@@
harshest
melo@@
videot@@
haniyeh
moderation
tongan
compris@@
gaze
reminiscent
insur@@
luxurious
awoke
accumul@@
deve
arbitrator
exclu@@
kawasaki
sherman
tram
nier
minnows
speculated
sylv@@
padraig
ocean@@
dedicate
atiya
auditorium
winter@@
hka
skype
ibero
impressionist
honesty
putter
robbins
sass@@
dialogues
sliced
lambasted
truc@@
gc
misusing
strands
metal@@
banharn
distrust
buthelezi
carving
kris@@
skyline
uy@@
way@@
aching
kitts
whitaker
romeo
dv@@
hca
claw@@
yaw@@
tulsa
shih
porcelain
puzzled
presumptive
mcchrystal
kits
prada
valerie
menop@@
scen@@
bluechips
quizzed
provocations
odinga
rocca
intermedi@@
peking
sami
reigns
shenhua
harden@@
whirlpool
tile
lil
newsday
cu
soggy
wii
loren
cairn
hoff@@
philosoph@@
brasilia
commends
biograph@@
insul@@
glor@@
hrbaty
compensated
philipp
ody
nixes
gee
woodbridge
invaders
vacationing
yaz@@
plank
dentist
pricey
thunderstorm
scuba
proportions
poem
tragedies
uniting
alib@@
clamation
jel@@
tantal@@
jaafari
ccb
fathered
xu@@
module
barnier
impunity
afterward
emc
throng
kari
marketers
icity
seismology
plavsic
missteps
utilization
genzyme
marlboro
arianespace
bookmakers
itv
insure
railroads
forgo
prodded
tucket
baquba
decidedly
restless
ematic
mystics
disbelief
guggenheim
pers@@
ignites
culling
ramped
federico
ral@@
tse
humbled
dais@@
pinpoint
premeditated
beli@@
iong
monfils
-shot
coconut
sheer
amura
satire
mutineers
gris@@
capt.
katyusha
canon@@
bbed
overruns
tirreno
peoplesoft
microphone
infin@@
boucher
mani@@
tari
chenko
revaluation
pantani
candlelight
renovations
misunderstanding
nails
chester
squarely
ior
diminishing
left@@
tni
multinationals
grin@@
logjam
jab@@
nikov
aft
punishes
dding
&apos;etat
arta
bowyer
kospi
dos@@
conquered
tastes
surcharges
regents
shirley
alco
henri@@
radio@@
critique
adriatico
decreases
coup@@
lowell
tler
barrett
wet@@
parlor
subordin@@
segreg@@
processes
sophie
pamplona
uptick
caviar
indul@@
tattered
gators
massu
handcuffs
uprooted
cred@@
zeroual
euros@@
firsthand
surin@@
abubakar
millan
istat
laugh@@
lev
churning
turbo@@
scanning
shred@@
defici@@
xian
fernandes
pertamina
royalist
bettini
bhopal
wetland
isinbayeva
eel
tarian
hooked
unfamiliar
thum@@
limped
arise
guardiola
harbors
margin@@
equitable
physicists
scep@@
carnahan
insulin
amoco
bachelor
bates
kinson
zine
soe
oners
clos@@
booby
altering
converts
negotiates
mavs
refrigerator
zell
sabri
nadu
sleek
abusers
raila
payouts
ilin
estone
mmer
colbert
desi
heptathlon
chman
anas
regiment
muse
burlington
stacked
normalizing
inflict
smartphone
marketed
clawed
esp@@
sabre
warhol
frayed
cowen
carve
appointe@@
overwhelm
dium
menendez
strolled
atrocity
payoffs
summer@@
mean@@
gabba
airshow
phot@@
seve
confess
hya
weigh@@
mussina
orphan
pattaya
unchecked
epi@@
bod@@
cric@@
sabotaging
unwit@@
jimmie
leaned
dier
woodland
listeners
hud
distraction
centur@@
tap@@
archa
mater
vedrine
jianchao
balco
impatient
botan@@
willem
evan
citicorp
u.s.-allied
muammar
circul@@
chunichi
famil@@
nearer
exemptions
tigris
charted
nock
aeronautic
breweries
horiz@@
mai@@
fractionally
camacho
sugar@@
bulbs
discriminating
yanukovich
emmys
rou
distill@@
spill@@
hl
bashing
mee
fetches
hahn
abu@@
staunchly
surpasses
molecular
documented
ensuing
rhine
petrochemicals
fritz
cnpc
reliant
bally
lewood
refiners
dudley
huddle
hern@@
machetes
drinkers
kilogrammes
burnett
grizz@@
yt
omaha
valid@@
sincerity
seating
stephan
classi@@
gouging
forfe@@
mathematician
indecency
xon
olympia
emph@@
sir@@
arabiya
watered
bumps
ouattara
dunk
glazer
defen@@
syring@@
icit
tay@@
ioners
atable
court@@
domestically
artworks
hollow
sikor@@
conv@@
avigdor
acclaim
riz@@
aci
printers
kharazi
instructors
antiwar
hasbro
kerviel
shoring
psychology
meg
combines
orbiter
clut@@
tilt
clarifies
pue@@
kharrazi
hari
jlg
cebu
cameroun
atherton
ephed@@
gered
spinach
majlis
browne
delli
perkins
appreciated
ciampi
repatriates
clung
fixtures
concentrated
emmitt
advoc@@
announcer
girija
cyrus
panhandle
unfavorable
gaul@@
pcb
wolver@@
watts
icked
humve@@
annis
albeit
unexplained
landlocked
fuzzy
dup
tdc
racking
reprocessing
resorting
zul@@
trib@@
hypocrisy
underestimated
villain
bosque
intra
validity
partition
overhaul@@
toothpaste
rodeo
bmg
wooded
newsletter
accomplishments
microwave
diners
boiled
nurture
brando
biz
maldini
crumbled
amerit@@
disqualify
cpp
portrays
diverting
gorillas
priv@@
peace@@
quarrel
bulger
edible
manipulate
burqa
nar
cues
enthal
unf@@
tingly
screeners
insects
even@@
deta@@
guadeloupe
diminish
francophone
asafa
ographer
notches
guiana
incorrect
sabotaged
fervor
therefore
ivan@@
allig@@
machu
attr@@
poe
capsule
industrialised
controversies
dui
uli
signings
poul@@
terr@@
tuning
kindle
fraudulently
sundaravej
kingly
steelworkers
roque
pid@@
trol@@
sarasota
brittany
mankind
ipe
pathologist
hail@@
insured
gatwick
aspect
megan
bystander
bookings
contraception
tech@@
faruq
amphetamines
aisle
manama
otago
granada
levin
unload
krakow
rex@@
crawl
gambari
blun@@
buy@@
convicting
apol@@
akebono
abstract
terior
ient
pinning
reinvigorate
keqiang
ribs
baq@@
nonetheless
rush@@
souls
macquarie
showtime
chicks
distribu@@
rekindled
katerina
attache
breakout
schild
packaged
gleaming
chea@@
bravery
slaughtering
isab@@
dung
monarch@@
picchu
separates
mazar
irate
fuller
brash
leakage
intruder
pacing
lal
comics
bumped
guardi@@
culled
males
ms@@
unionized
valdes
wicketkeeper
ograph@@
fries
wrestled
xes
ache
marke@@
waigel
dgbas
ially
schumer
ighted
eiro
pern@@
blood@@
aleman
tis
betrayed
barn@@
slovaks
archeological
exorc@@
oom
hectare
wiesel
mapping
manu@@
repel
overseer
mcewen
diageo
sugiyama
enna
chewing
merry
dauphine
&apos;malley
opoulos
bouts
warcrimes
frontman
lingered
irer
mainstay
systematically
camby
lombar@@
apparatus
iba
unfolded
tuned
isting
nedved
eas@@
streamlining
labored
wicz
sabmiller
identi@@
curve
quil@@
arduous
cipollini
rehabil@@
rude
clunkers
apache
ensures
redun@@
nepad
kfor
tread
fiance
fever@@
laundry
meteor@@
samoan
gars
capitalist
chided
scrutinized
carb@@
spotlights
emboldened
backbone
admired
instruction
schwarz
griev@@
luxor
horrified
gid@@
decentr@@
banca
guo@@
filly
rox@@
thrashes
posit@@
batistuta
atten@@
usen
dushanbe
mri
luster
energetic
retief
tioned
msnbc
afforestation
vigor
amba
peanuts
rendezvous
posthumous
tooth@@
consistency
dani@@
symonds
fiba
bikin@@
cookie
jko
bb
adian
dispatches
vinny
indirectly
snapshot
commands
boos
visionary
lyle
karate
unhealthy
treble
anatolian
matti
slurs
qiyue
stagn@@
qa@@
gloucester
andaman
erect
loosening
exer@@
sell@@
jaromir
u.s.-made
ratcheted
dness
snatching
environ@@
gyurcsany
implored
clerks
counselor
minster
kirilenko
stream@@
shortlist
holm@@
capital@@
silpa
wakefield
deserter
stefano
zsa
subscriber
rakhmonov
bursting
creativity
relentlessly
unicredit
argent@@
inocul@@
subscribed
deuba
marley
ovarian
consec@@
submitting
usf
informants
vigilante
commanded
sanya
asing
ciba
paedophilia
peruvians
broadened
huskies
sse
inadvertently
e-
dianne
jabs
pedal
precisely
tey
azon
wane
abad
yoga
yk
prolonging
beethoven
souness
grandparents
edgbaston
haley
tically
cakes
clearest
seung
-ranked
fry
rep
mountaineering
gaffe
ncc
bash@@
dailies
bao
courted
cauca@@
evergreen
vary
counterfe@@
bao@@
skanska
dare
tz@@
assis
ensemble
juninho
bf
nicol@@
indignation
angst
vinokourov
enthr@@
effigy
mcnam@@
adjusts
demons
showcases
errone@@
turnpike
contem@@
billionaires
business@@
sax@@
bm@@
cozy
distinct
splashed
obar
omx
falkland
hotspur
ideals
kangaroo
rosset
knighthood
u.n
joked
lifes@@
reimburse
baltics
odor
arrows
jerzy
hernia
adjour@@
pocketed
cordero
sentiments
downsizing
accompl@@
unused
lik
mesic
intrusion
hakim
kee
blacklisted
omagh
clemson
transfusion
ellison
ning@@
jinx
ordinarily
troublesome
mountaintop
vna
ool
michal@@
crespo
forfeit
helio
valero
collisions
univer@@
kla
cadet
olly
ahua
weightlifters
pioneered
flashing
gujral
contr@@
limousine
gianni
hilary
j.c.
derided
clarity
bookstores
itun@@
aio
invinc@@
handshake
participant
wrecking
putnam
sculls
messenger
nacchio
culprits
receded
stadt
envelopes
poets
eastbourne
accommod@@
ld
fom@@
disobedience
skandia
walters
polaroid
akzo
alkmaar
bardot
prank
tablet
devastate
barefoot
adobe
dominguez
dob@@
agra
haz
handicapped
dated
rans@@
mishandled
juveniles
satisfying
jagger
orbital
ogilvy
francesca
eria
tivated
tomiichi
ioned
amod@@
tals
implicating
yachtsman
relaxes
falcon@@
baystars
angolans
unthinkable
neft
protege
deserts
-square
firebombing
tack
karol@@
isters
exploits
staf@@
prohibits
niagara
subsided
continuity
ond
itism
urt
vanity
solace
stainless
filippo
interception
airtran
func@@
managerial
ekeus
rusal
atton
caricatures
showered
lures
oth
rae
alisation
warhead
pines
psychiat@@
bedouin
distorted
whoever
viduka
mathemat@@
num
surpluses
spins
farn@@
spi
sampaio
attered
scandinavia
intentional
linde
assumption
uno
ovitz
roz
hooliganism
gdansk
thal@@
flot@@
nutritional
smoker
sieg@@
enrolled
lab@@
polite
hassel@@
decap@@
sardinia
bernd
schiphol
drowns
hana
-pointers
cosmic
vex@@
igh
invoking
hells
sap
liberate
carded
alas
vfb
erness
sloan
sparing
gte
breezes
psycho@@
placid
suited
baf@@
colosseum
grocer
intergovernmental
kos
iah
ols
aero
yelena
nt@@
levied
solheim
renato
augh@@
bergen
hua@@
severing
span@@
haute
azeglio
eness
ologically
krist@@
kline
lumin@@
palacio
eag@@
abidine
napolitano
-mln
wrestle
bathtub
biomedical
buzzing
mutombo
slav@@
duhalde
aco
jas
hardaway
patches
simone
strode
scorn
waded
highland
craze
didn
boul@@
gory
deposition
maxim
painkillers
cust@@
bowe
hindustan
entertainers
ston@@
indifference
cctv
suffocated
alamo
homework
monet
cilic
illeg@@
gib@@
grudge
poo@@
mm
smol@@
karrie
elysees
nargis
nireland
lori
demonstrates
kiel
bulous
rochus
rooftop
snowfalls
gendarm@@
beij@@
guardsmen
strugglers
joyous
barker
testy
guerrouj
atkins
menacing
protocols
u.s.-funded
zlatan
insular
s.f.
kow@@
viewer
ammonia
superbike
speople
bully
thorough@@
handsome
beings
enthusi@@
dances
telec@@
livingstone
sore@@
snacks
stry
folding
gushing
medall@@
fossilized
eckhard
wein@@
saxophonist
tillman
intercepts
bowden
fruitless
samuel@@
rump
hannah
excavated
repudi@@
rekindle
escorting
savor
frosty
rad
danilo
ele@@
alloc@@
orissa
restaurat@@
authenticity
quetta
full@@
ipping
bottlen@@
exercised
gods
till@@
masterminds
shu
aguil@@
sacrif@@
boyhood
hodgson
veen
hans@@
ambulances
tosses
raleigh
allenby
pops
phan
claire
frantically
ecos@@
metall@@
catania
fond
wasim
miramax
refurb@@
av
hra
avandia
anonymity
warden
onte
sampling
mcbride
camer@@
depositors
superiors
hagel
phosph@@
scrutinize
uconn
bougainville
elway
ypf
brook@@
guan@@
clin@@
quayle
languishing
orphaned
baff@@
asse
mouth@@
bluefin
vip
hab
taiyuan
plasma
sportsman
git@@
quadrupled
thank@@
refinance
year@@
remedies
die@@
hospitalization
addicted
unsuccessfully
eara
stown
rescheduling
inder
fies
dal
presenter
mares
stereotypes
skulls
lectures
impatience
isha
unt
remorse
taine
civil@@
conduc@@
unrelenting
purely
sidewalks
snarled
jingsheng
mutu
erment
econom@@
procuratorate
ader
condominium
holdouts
panetta
philly
murcia
nev@@
satan
khomeini
tiles
georgi
unclaimed
viswanathan
trumpe@@
ratifying
consoles
hamp@@
sufficiently
littered
avon
drum@@
tists
futile
fended
forgiven
amputated
divest
altman
yongchaiyudh
mee@@
swirl
fetuses
darkest
pixar
tutsis
primitive
carriages
ucci
conditionally
cinem@@
kyushu
sprints
aes
wawrinka
scur@@
mec@@
ambushes
avant
garde
degradation
piv@@
lough
cures
canseco
congested
puck
depots
imperiled
post-
disputing
kael
franck
surrogate
adu
utd
naturally
essa
ropes
blade
mies
leaner
bolts
moc
dm@@
unner@@
guess
lenient
unu
otis
dino
tran
conan
shrek
naji
alonzo
loch@@
adop@@
wraps
cellucci
schweppes
embezzled
rements
nz@@
hover
whampoa
residing
diaries
ushi
afflicted
videogame
generates
univers@@
quadru@@
overtook
sulu
apprehended
acknowledg@@
proclaim
drawdown
rece@@
ladder
nudged
savannah
sorting
presu@@
candle
yana
akram
defers
squandered
mott
cros@@
differing
angkor
oux
malisse
limbaugh
pas
lear
bhar@@
philanthropy
berti
encer
geidar
ense
peabody
kantor
mardy
reactivate
babbitt
wski
ingu@@
hello
wyn@@
lodging
erich
pottery
reciprocal
medicinal
redesign
manuscripts
unearth
contrasting
ruf
danielle
reinforces
pariah
espa
massage
brasil
wrang@@
insane
nad@@
realization
pccw
croatians
oway
sneaked
towel
cay@@
useless
belated
baden
posthumously
tery
hitzfeld
natwest
saa
proclaims
donkey
undermines
dinamo
escu@@
tres@@
hams
aval@@
filter
curacao
beached
jab
bitten
gmbh
honey@@
proximity
priebke
recou@@
yokozuna
begged
galleries
flav@@
sermons
tandja
macroeconomic
ravages
ridiculed
bonded
prospec@@
characteristics
schulz
aegon
comb
lux@@
sylvester
faeroe
counsel@@
ribery
qinghong
polygamy
berenson
alit
pinto
julien
greenberg
sunrise
quot@@
kimberly
astronom@@
sbury
raisers
allas
tho@@
locusts
grapple
kiri@@
vist@@
compassionate
kaa
bunkers
rit
inating
wei@@
qvist
pachuca
revisit
silicone
sudamericana
flashed
unscom
entertain@@
legalization
pesetas
domino
shri@@
oper
bios@@
janez
join@@
rick@@
mediocre
serge
mortal
brit
socks
cpl@@
nil@@
tagliabue
seeding
goose
hin
entangled
clever
senna
expenditures
clayton
erin
gett
desegreg@@
eclectic
mta
sos
faz@@
hack@@
gabor@@
rawalpindi
relocating
petit@@
montpellier
landlord
blessings
hbos
pamph@@
eaway
stormers
steers
reassess
shriver
dents
fostering
olazabal
mysteriously
stern@@
mentality
asted
mich@@
bottler
lem
soundtrack
henson
sparred
armani
snowmobil@@
framed
wires
maps
awe
ancing
congreg@@
paperwork
kerik
radios
standardized
seasoned
arsenals
crocodiles
pancreatic
tailback
translated
lex@@
tened
ively
mixes
picnic
crouch
subscription
relaxation
anni
pours
arab@@
explanations
blanks
guyanese
gough
snea@@
hab@@
stockholders
iction
aquila
bol
higgins
rejoined
gom@@
unscathed
heat@@
disorderly
ffer
nevertheless
violin
shareholding
safest
hing
compromising
resurfaced
undervalued
fluctuations
defrocked
censured
gig
isite
scrat@@
uttered
bum@@
zal@@
zinni
isolating
itan
itate
edict
burdens
them@@
eurofighter
handwritten
harvesting
kano
authentic
fact@@
mika
selena
intimidated
prc
wrink@@
brink@@
stevenson
forecaster
shelve
reprimand
preschool
trout
cheung
brus@@
redefine
contradictory
gins
trailed
dab@@
superpower
resolute
realignment
flier
ural
edgy
liest
achieves
dodi
hyp@@
loe
aat
reh@@
essed
goverment
duff
unseen
petitioned
defraud
ayor
ickers
shortfalls
ilham
mocked
collateral
overstated
enforcer
hable
vuk@@
enshr@@
aki@@
olajuwon
hrw
lokomotiv
kumble
prom
oca
fiel@@
multimillionaire
certif@@
sow
placido
dieter
millar
itable
alistic
august@@
ubiquitous
croft
rollover
wajed
retur@@
carr@@
shielding
dictate
authoritative
nk
sikhs
disable
nu
janata
basilan
discredited
aloa
penalize
skirts
datab@@
refrained
aced
schoen@@
sib@@
nationsbank
bia
evokes
ouli@@
happily
isn
fending
expressions
tahiti
eson
arde
armistice
icitly
facade
donned
newsc@@
taco
disillu@@
divis@@
sniffing
fos@@
univision
m-
vig@@
furiously
ecosystem
punctu@@
abductors
livelihoods
iora
stra
replen@@
ourt
talism
unstoppable
prosper
mayon
frigates
clings
convergence
plough@@
qiang
loy@@
admirals
discouraging
taslima
embl@@
hotbed
nationalities
apertura
ynn
huntington
heaped
silvia
erate
oslav
vanishing
poignant
braga
pheric
fuming
puzzling
ford@@
lome
kp@@
commerci@@
toxin
orangut@@
ender
sheryl
boonen
elia
revis@@
overe@@
maastricht
jeffords
ceausescu
goff
stigma
barric@@
emis@@
allergy
pretext
backpackers
bug@@
dwayne
ichiro
leaguers
stokes
oles@@
downside
alfon@@
illustrates
oration
til
confers
icting
fundamentally
wallet
azion@@
cub@@
zhu@@
constraints
anis
influences
candid@@
jamming
scour
autobiography
thurmond
-match
talladega
sely
duesseldorf
insect
maleeva
forums
cott@@
dustin
ninety
countered
dovish
lazard
plets
eers
vending
liabilities
lme
reconcil@@
liberalisation
preceding
dismembered
hoarding
deposited
fielders
surfaces
heg@@
vilnius
whel@@
turous
hoteli@@
hay
plain@@
phara@@
balochistan
underneath
barr
rosario
race@@
antiqu@@
guid@@
gymnasium
spurt
lennart
rang@@
mats
ipu
perched
coasted
sanc@@
adds
garnered
rhe@@
chalk
vladimiro
hangar
dheim
altria
kosher
undeclared
nhk
funneling
unabated
bloodless
jesuit
u.s.-iraqi
rus
fats
snatches
jeopar@@
trail@@
induction
mufti
drainage
wim@@
diy@@
pedals
saluted
updating
etimor
collaborated
wardrobe
henkel
clown
frederik
alla
assassinating
feeds
saboteurs
theod@@
farouk
motc
chevy
enlarge
catalyst
juve
exceptionally
aspirin
burgers
avoidable
rekind@@
unravel@@
spor@@
dolan
occupancy
eno
anabolic
myths
ugs
solidify
midsize
invasive
digit@@
fallon
convul@@
appropriately
zim@@
wilt
whisky
kane
filibuster
flour@@
eld
swastikas
lynx
goodluck
enly
hellenic
smoldering
assen
twisting
anticipates
infuriated
loggerheads
testosterone
scouring
orth@@
antics
bros@@
kamp@@
rembrandt
pius
ipswich
juggernaut
socio
rjr
muscular
bhd.
humor@@
ophob@@
simulated
kosovar
thrives
grey@@
stalker
edel
spadea
pondered
offsets
use@@
businesswoman
living@@
amelia
durao
hindered
induced
rothschild
shiuan
hkma
kris
stosur
mauling
kazak
furore
lotte
afee
possessed
intosh
fascination
cagliari
foreseeable
yor
sochaux
inca
ital
malaise
jus@@
flops
tallinn
warmth
troubl@@
garrigues
chard
buo@@
sly
cathy
inhalation
politburo
sven@@
khin
realty
obsolete
essay
ansar
subsid@@
lounge
menino
shuns
rum
essex
seaport
sowing
ticked
voy@@
evian
fife
disproportionate
einar
zionist
wasps
tson
gasol
latrell
linford
calla@@
parvanov
dinar
repatriating
behave
viking
duran
nay@@
intruders
steadfast
regrettable
workshops
iberdrola
retracted
harrah
stared
fried@@
loya
iler
iu
witch@@
fool
reuniting
tamarine
ferrying
teaches
prospecting
disposable
bane
holden
recuperating
shad
ljungberg
eti@@
vigo
transsexual
heimer
querrey
stut@@
balkenende
biogen
fillon
rag@@
antes
fascinating
wax
stipe
cerebral
boasting
undemocratic
fredericks
pujols
paralyze
cfa
deserters
thales
kyard
mcken@@
python
pigeons
gram
unfpa
spid@@
relev@@
biot@@
cham
h.d.
seldom
resettled
cheek
tends
hierarchy
hash@@
potash
differently
denny
lahi
pundits
directv
iree
pac-
abdominal
achille
atlant@@
dens
modeling
dismemb@@
surrey
bangui
groc@@
lili
quaid
sangakkara
derel@@
abdel@@
hugs
liffe
estates
caicos
amputee
civilizations
backfire
teeming
naut@@
fee@@
stallone
calab@@
newly@@
rudi
inting
quanyou
spores
fmd
edi@@
coff@@
solberg
hs
fk
interaction
char
ferg@@
butterflies
supertanker
jalalabad
discouraged
herdsmen
clutching
nzealand
penney
unlock
marquee
selec@@
occurring
alu
fraud@@
ljubljana
rapist
yr
ob
sukho@@
evolved
walkouts
amphetamine
retrospective
ishly
ffle
regulates
rumble
rethinking
eups
ancestor
itte
autistic
witty
dye
denuclearization
maya
connors
munch
homicides
delray
schwe@@
roda
kvaerner
jackal
zeta
spre@@
p.j.
silenced
maturity
courtyard
stature
navajo
push@@
swindling
obsessed
pupil
rels
tenuous
estos
doned
selections
ticks
gooden
dit
dementia
tanasugarn
pum@@
voron@@
inari
ullah
redouble
loz@@
arte@@
depicts
follower
meciar
octuplets
grind
scud
throngs
oute
kabbah
fortun@@
vogue
penguin
-time
couric
anatomy
limbs
nagasaki
allure
foxconn
ione
nahyan
ership
freer
rhone
frustrations
creeping
chea
coated
reu@@
handouts
knuck@@
buffs
ipl
limping
storing
pairing
ousy
erous
insky
shall
trafalgar
tifying
sideways
defences
swag@@
accomplish
mirrors
ranc@@
pis@@
jihad@@
sharp@@
mmed
tad
setup
oliveira
lange
repentant
feldt
independently
swatch
naire
lever@@
respir@@
elas
bain
gangchuan
alvin
anchors
dynegy
broadcom
bored
incts
heinous
ctbt
devalued
sizes
twain
basten
hummer
bind
breasts
etric
ocation
vel
mort@@
garth
cellar
mariah
ementary
dmitri
jamali
envisions
andering
umi
thunder@@
zach
bushfires
ovirus
idled
confec@@
articulos
detour
envy
compan@@
exped@@
jah@@
turkeys
conveyed
baritone
giscard
culprit
extramarital
silently
walkers
smoo@@
perceptions
seymour
-over
sanitary
typhoons
promulg@@
motorcyclist
halves
devotion
oils
ie@@
inexpensive
majoli
smoltz
laughter
pack@@
houghton
ellan
imer
rup
demp@@
take@@
popov
biag@@
exonerated
hoechst
tabs
banished
tranqu@@
rebut@@
leaped
agli@@
changsha
continuously
aus
workouts
divest@@
bayreuth
collectively
isai@@
fundamen@@
ayat
dimen@@
gregan
sanford
erated
observance
sal
boatpeople
chubais
recuper@@
scalfaro
militaries
uries
-metre
rasheed
onica
poems
wee
slippery
mire
landon
consignment
ct
ews
mcnabb
transl@@
hael
launcher
urai
olli
leased
notic@@
mistreating
incumbents
presidium
comedies
wandered
roam
surreal
luna
efeld
epee
arnoldo
funnel
isner
istar
fres@@
savo@@
bypassing
asis
pnc
streisand
correctional
lib@@
unrwa
iniesta
queue
desirable
tempe
arturo
bodied
assy
brokeback
discrimin@@
chiquita
gymnastic
gaping
odes@@
meteorite
incess@@
softwood
originated
dou
camdessus
gnp
hekmatyar
blanked
dubrovnik
strad@@
vigils
clamps
siniora
recruiters
duration
bagram
condol@@
aroused
reggina
misguided
inspirational
overflowing
crackdowns
fodder
technically
sauber
uga
piniella
freelance
cbi
clamped
milit@@
azzi
alising
peron
ordin@@
horton
hilly
shiny
failings
bss
meddle
eka
dix
classification
depor@@
inequality
consisting
rendra
rolandas
telemar@@
blat@@
doning
ems
trilateral
troika
boisterous
dept.
andreev
caw
buzzer
ghazi
tien
eked
landlords
caricom
persecuted
maldivian
pharmacia
tl@@
bart
bg
scoop
elisabeth
mti
scrutin@@
marker
baum
shootouts
norbert
celib@@
vigilantes
counterattack
estown
moftec
salvador@@
micron
gms
natives
redgrave
guts
cm@@
otion
efully
cottage
agonizing
dethr@@
lse
hooded
democratization
ecumenical
sherpa
tenaga
cesare
ordnance
shellfish
svindal
exempted
metho@@
sarath
wip@@
bibby
capitalized
dilapidated
dwyane
eph@@
hedges
chihuahua
osteoporosis
mania
chees@@
cwb
forlan
ingley
ipos
heartbreak
tugboat
carj@@
batasuna
nervousness
farrell
hazing
chained
gail
nathalie
focus@@
rename
shutter
commandeered
walled
unc
moose
tejan
evapor@@
hoffenheim
mauricio
cate
hochtief
wildcats
forensics
particle
accent
cnbc
matthaeus
bergh
unfol@@
mcgin@@
flora
millionth
raptors
burglars
arose
scholes
leaky
illet
journ@@
paralyzes
extraditing
paksas
brigitte
biya
mozambicans
prevalence
segments
-a
modeled
bushehr
lyric@@
atheist
meng@@
housewife
cliffhanger
fizzled
casam@@
sinclair
complying
rut@@
analyzed
docomo
greatness
itinerary
claudia
boutique
tie@@
echo@@
iji
chanel
perfume
hakkinen
aze
lafayette
pontiac
icoast
rance
priorit@@
scolded
csa
garlic
creature
connects
clemente
armey
stam@@
arth@@
otta
meister
traitor
canvas
stack
kabariti
stou@@
dike
switzer
aeg@@
norilsk
nah@@
canoeing
kamchatka
oling
dette
satirical
outclassed
hajan
polygam@@
guatemalans
tonic
scuttled
bish@@
police@@
reun@@
documentaries
pellegr@@
rollins
baked
mammal
melissa
cynical
zab@@
gardening
kint@@
kc
areth
lucy
agh
empower
disagrees
onen
defi@@
luxembur@@
dry@@
pane
forested
bounds
disks
glavine
jamena
remo
propri@@
hoc
lament
ava
harcourt
schooling
omv
pernod
myanma
eclipsed
velvet
tarantino
underdogs
sip@@
favourable
kuo
nasional
navigate
sally
uniformed
extr@@
sobering
coerc@@
ocha
sezer
burrell
dwain
border@@
gron@@
luzon
aar@@
higu@@
worms
dior
skir@@
ege
undetermined
derland
assi
pickups
sur
nzs@@
abys@@
este@@
gat
shebab
pompe@@
gannett
insights
mr
isler
watford
televisa
bruguera
trickled
sville
nicolae
jc
onset
l.@@
sniffer
ub
attain
bered
eaten
tear@@
lourdes
admirers
halfpipe
national-
implements
level@@
disen@@
arrogance
rbs
necdet
dzhokhar
turnovers
nasiriyah
ignorance
finalizes
forbidding
gustaf@@
baking
gael
conoco
onist
pois@@
experim@@
conspic@@
fashionable
quickest
aretz
matsuzaka
wyclef
ziana
ayad
ticketing
ensla@@
albar
ahly
falwell
pollard
theor@@
phere
dwell
riesch
vanderbilt
erable
stockton
scut@@
never@@
naf@@
nis@@
witter
andri
patrice
sneaking
samir
mage
solidi@@
fonseka
sby
pboc
futuristic
humidity
inflicting
rau
rousseff
geese
kley
bishkek
constituted
cot
ghos@@
question@@
lighted
latina
peaked
kne@@
galveston
hypo@@
tec
ldp
escal@@
bras
emporium
oshi
enforcers
orov
partying
apollo
arten
comair
bestowed
mainz
hyped
journals
crewman
patented
ergen
modano
impeding
sitter
trajkovski
khost
mccoy
toure
deem
reeled
dillon
lagoon
leung
thunderous
solidly
nourished
zenit
yoko
troubles@@
exasper@@
astronomer
darrell
nyunt
iris
odeon
fungus
boeh@@
jayawardene
peyton
goodman
recycled
catfish
residue
ationist
plen@@
consequence
inth
earmark
singtel
nostalgic
ntr
ected
dodged
karlovic
skyscrapers
omer
cements
whitbread
empti@@
ranged
blowers
pervasive
supercup
rave
fingerprinting
xue
demonstrator
vio
maer@@
pronged
tsman
hasidic
glen@@
leigh
fore
intra@@
lakeside
reiterate
winery
plaintiff
geologist
rend
overshot
zafarullah
shatters
drained
preserv@@
chunks
recaptured
heroics
clamor
shortest
rimin@@
virender
ust@@
thyroid
trun@@
samar@@
brasil@@
ibo
adapted
ftaa
leop@@
fireball
enhancement
pollsters
gianluca
efficiently
elt
mutinous
bjorn@@
herbs
spinners
cpo
tron
bourque
lef@@
anmen
laredo
thless
queries
boar@@
awan
celine
bouy@@
grandchildren
acc
gonz@@
preceded
onians
lazar@@
eigh
calzaghe
nast
taunts
thereby
criter@@
erno
brides
genes@@
emir@@
instance
marac@@
a.j.
shantou
testament
boating
lav@@
electrocuted
serv@@
endu@@
postbank
resh
flanders
mammo@@
lodges
beatification
locust
spares
protec@@
shaughnessy
sey@@
hep@@
renching
restated
agri@@
rench
xm
yo@@
moran
molina
lavis@@
meng
sov@@
compel
neglecting
shijiazhuang
lager@@
niem@@
fete
adelphia
unconditionally
eaux
ahara
flood@@
marta
ricard
khai
paces
ditched
pioline
contrac@@
hamian
timberlake
possessions
refers
esco@@
aichi
fulton
paes
strategically
retract
geert
renate
fastow
sports@@
trafficked
eruptions
nicol
mcal@@
click
bernstein
aman
tana
anese
overcharging
organis@@
itious
grid@@
enacting
northernmost
bros
betra@@
ebel
chron@@
basayev
synonymous
steelmakers
contagion
foreseen
quist
maur@@
jonah
dram
renov@@
orer
selves
copyrights
establishments
soriano
simplified
abramovich
oved
priest@@
thirsty
alli
icia
dju@@
horticulture
balloonist
felons
lic
erina
slater
addict
joshua
maxim@@
riy@@
popcorn
edi
rocketing
reel
mt
stage@@
bott@@
slandering
watchful
wah
laurence
donetsk
reminding
sufficiency
hrawi
nsa
hir
singaporean
tarnish
lauro
whitewash
braving
skeletons
aaa
heid@@
stoner
parano@@
enders
mahendra
downpor
nf@@
phen@@
bunia
bemba
ned@@
ufj
descri@@
kham@@
devers
barghouti
tightrope
fuss
aviva
lick
storey
alber@@
wilkins
city@@
arf
miracul@@
lecturer
zao
maestro
employs
igned
hib@@
thu
psychologically
walton
destroy@@
eira
lotto
fabien
balloonists
voodoo
downwards
mega@@
quand@@
rca
liamine
energize
colgate
andi@@
vu
sellout
arova
throb
stranglehold
republ@@
polynes@@
goss
suitors
furthering
cit
leftwing
mother@@
dislocated
reinforcement
cater
kowloon
rian
requ@@
wha
jozef
oco
theologian
mare
deems
mcdon@@
bade
hooper
tah@@
injects
bril
eliezer
tatters
mirroring
commenting
gallagher
kucera
barzani
dragonair
sputtering
chamber@@
hermes
expressways
unsc
huff@@
rw@@
judd
funneled
steele
heralding
megawatt
spectre
villanova
jeweler
dniester
insulation
hallway
jk
faure
rahlves
gainesville
hsin
outfits
rejoins
bilking
mirek
topolanek
endangers
rosemary
driscoll
seed@@
siren
cers
escor@@
driv@@
odd@@
schuessel
onlookers
ushering
specifics
quicken
zel
ceased
gaal
fabrice
scarcity
whalers
acrimony
mcgee
bergkamp
uki
infer@@
oshan
yossi
cigars
cassini
fad@@
kle
tong@@
igc
accur@@
rua
kery
garza
zhen@@
appreci@@
wr@@
escap@@
newsman
martyn
boavista
brawn
chau@@
morientes
inflamed
crack@@
lock@@
colum@@
haf
embankment
appease
swaths
mness
zom@@
advertised
colli@@
proponents
suray@@
ozeki
blizzards
overheated
entertain
ffe
cosco
sibling
laszlo
dimin@@
bret
usable
legions
alcoholism
dji@@
sanader
epilep@@
chanderpaul
feted
majestic
whir@@
canton
volunteered
hambali
wellcome
micrones@@
witt
khaleej
dredging
sleu@@
urbanization
pitfalls
ins@@
santoro
senseless
wrigley
sandstorms
metallurg@@
bta
ding@@
hogan
oneworld
renting
crocker
demolishing
rumbling
infiltrating
obscenity
iate
carmelo
kib@@
ismael
upped
autop@@
gruelling
eyadema
devi@@
chulanont
advani
cyril
extinguish
temblor
ovo
lith@@
sibility
ohno
schultz
tomb@@
distur@@
unlawfully
reigned
judg@@
trademarks
approves
cuche
stow@@
french@@
balked
coronary
prevent@@
frequented
speculate
rapes
alexis
virgin@@
awake
ushed
recogniz@@
situ@@
angle
decreed
kiriy@@
anarchist
airstrip
buoy
cloth
disabling
costner
olimpia
apoc@@
tolerated
heim
waitress
briefings
medic
socially
bothered
shades
lina
coexistence
telmex
ripple
valent@@
internation@@
gall
sustainability
hesitate
industrialization
simp@@
m.@@
viola
ganges
unauthorised
jute
kochar@@
encryption
gues@@
pn
schalken
altern@@
electors
stubbornly
goldberg
reper@@
vid
suit@@
cheltenham
cooperated
federline
valuing
steak
irabu
coppola
stipul@@
fant@@
toro
toughens
clarified
hyster@@
instein
figuring
extracted
diner
cingular
buster
kazan
puppy
milo
quasi
kluivert
acre
lieutenants
curtailed
toku@@
cardiovascular
ple@@
kramnik
dismissals
mani
gilli@@
libere
refocus
extravagant
taufik
imaginable
lasorda
fertilizers
hotspots
kikw@@
naoui
tabloids
kdp
pari
swallow
minn
scenarios
reckoning
cartilage
gies
foresee
lancaster
sanath
mailer
zzling
inventors
matri@@
perv@@
daredevil
stewar@@
schoolteacher
meticul@@
humpback
plagu@@
view@@
shakhtar
jensen
andriy
viz@@
pharaonic
sirius
ichel@@
crab
itzer
arlen
napol@@
essions
restruc@@
ariz@@
afi
tivo
through@@
underestim@@
overtakes
lansana
cemented
zhang@@
brandishing
subscri@@
sparsely
bombar@@
yala
ando
corrected
yih
anson
maf@@
arlo
tionary
typho@@
descending
erb@@
coxnet
insec@@
ppi
mony
medecins
administer
doused
penitenti@@
damp
galax@@
guil@@
alties
frigh@@
exor@@
broadest
simm@@
bloodletting
patrik
jerk
alph@@
nightclubs
bedev@@
ere@@
harald
blindfolded
militar@@
recounting
uals
dimension
wilders
grader
buddin
spoo@@
novel@@
alto
cai
utter@@
playmate
instru@@
&apos;affaires
momentous
plumes
vitali
antig@@
determin@@
ierz
recounted
cardboard
eclip@@
ks@@
plume
prag@@
residences
[...]
