<pad>
<unk>
<start>
<end>
,
.
the
in
de
a
of
si
to
and
sa
@-@
ca
la
that
is
pentru
&quot;
din
care
for
o
cu
on
este
i
this
we
un
nu
are
as
it
european
(
)
mai
be
pe
-
with
have
au
se
will
&apos;s
by
not
va
al
which
am
/
an
at
has
acest
aceasta
trebuie
sunt
ar
ce
fost
fi
eu
from
:
also
ue
would
all
but
was
s
president
ale
its
prin
important
our
their
been
should
commission
said
sau
&apos;
kosovo
must
more
member
there
they
union
states
ne
%
privind
mr
--
or
parliament
toate
you
vor
asemenea
can
new
?
europene
one
europeana
fie
europe
countries
lucru
these
daca
economic
serbia
le
report
us
;
ceea
dintre
membre
trebui
people
who
do
very
declarat
&#91;
about
&#93;
asupra
international
foarte
other
he
intr
like
state
acestea
unei
dupa
cele
need
so
euro
if
country
what
aceste
only
mod
dar
council
time
support
re@@
europa
because
presedinte
cum
acesta
mult
unui
however
exista
up
faptul
rights
between
policy
ani
comisiei
no
noi
comisia
were
cadrul
iar
timp
my
poate
special
statele
government
area
political
year
politica
such
acord
now
putea
catre
into
when
fata
astfel
out
social
acum
mare
insa
el
minister
two
cand
some
uniunea
doua
intre
times
face
agreement
doar
against
multe
public
first
dle
his
despre
dori
tara
financial
precum
work
deoarece
impotriva
urmare
uniunii
national
than
pana
those
cel
therefore
munca
bih
crisis
take
lor
ati
make
tari
ii
privire
citizens
many
parlamentul
them
well
development
years
energy
problema
k@@
macedonia
priveste
cat
market
cred
avem
croatia
parte
in@@
made
being
10
general
after
world
over
pot
ate
s@@
urma
southeast
alte
most
isi
fara
security
way
believe
human
any
g@@
last
data
vom
acestui
setimes
future
nato
inca
vedere
under
could
raport
atat
l
had
avea
measures
turkey
order
situation
romania
d@@
cea
bulgaria
think
parlamentului
unor
part
issue
tarile
group
say
cei
primul
lui
consider
during
o@@
see
acestei
loc
nivel
nevoie
importanta
today
i@@
may
right
11
1
stat
even
economica
p@@
both
de@@
consiliului
z@@
reprezinta
afirmat
albania
where
criza
same
decat
process
noastre
sector
able
law
ci
raportul
l@@
how
2009
level
members
vote
b@@
asa
masuri
just
fact
ata
possible
ul
foreign
piata
system
use
economice
still
rand
luni
ei
putem
n@@
sale
through
good
commissioner
presedintele
ensure
since
prime
c@@
ne@@
h@@
debate
un@@
chiar
t@@
while
12
party
v@@
20
trade
want
clear
ma
baza
domeniul
aplicare
end
omului
much
does
within
atunci
dna
resolution
ai
drepturile
plan
t
guvernul
proposal
here
es
protection
nou
deja
place
doresc
e
cannot
continue
procesul
2010
astazi
already
democratic
voted
votat
prezent
j@@
budget
dezvoltare
facut
high
ului
region
fiind
including
m@@
ia
potrivit
favoarea
u@@
case
turcia
action
e@@
common
help
statelor
drepturilor
celor
particular
three
strategy
trei
long
il
000
number
cooperation
putin
situatia
partea
according
treaty
an@@
avut
without
committee
presedinta
y@@
co
politice
ministrul
m
ar@@
global
consiliul
2
timpul
recent
information
anul
bine
al@@
totusi
madam
issues
legal
question
why
noua
tot
nici
before
favour
next
er
parlament
spus
directive
bosnia
serbian
en@@
authorities
probleme
change
institutions
point
clar
noastra
women
role
2008
persoane
cauza
economy
me
your
dl
peste
hope
respect
financiare
domnule
inainte
buna
aici
own
scris
problems
know
drept
tuturor
progress
cazul
comisar
numai
continua
co@@
areas
f@@
based
er@@
decision
community
set
acestor
current
ing
ele
then
2020
siguranta
problem
desi
transport
needs
belgrade
regional
externe
punct
securitate
necessary
too
told
control
moment
major
cateva
given
a@@
una
local
30
put
unul
sub
united
greece
15
cetatenilor
towards
better
acelasi
suntem
turkish
nationale
taken
cetatenii
3
w@@
particularly
fapt
d
course
fel
exemplu
multumesc
asigura
thank
perioada
internationale
el@@
final
onu
dezvoltarea
ro@@
05
arii
masura
multi
inclusiv
operation
st@@
programme
09
further
crime
impact
negotiations
publice
per
euros
mi
06
privinta
viitor
means
07
rules
fundamental
da
pristina
images
unite
mea
autoritatile
framework
acestora
presidency
example
mari
media
milioane
court
ea
r@@
growth
ti@@
tarii
free
getty
come
regulation
former
prima
orice
unele
sociale
europei
referitoare
membru
08
at@@
04
give
permite
efforts
health
among
increase
c
numele
provide
reuters
fiecare
another
meeting
03
k
war
power
incat
trecut
whether
acordul
crestere
lisbon
importante
day
police
freedom
lisabona
initiative
nostru
2007
ed
terms
again
conditions
li@@
view
ch@@
funds
include
afp
far
business
result
climate
gentlemen
ladies
afla
services
different
relations
talks
aproximativ
zi
ales
term
25
5
domnilor
regard
am@@
grecia
together
legate
agree
food
mrs
afaceri
u
implementation
toti
im@@
unde
uri
doamna
doamnelor
adopted
great
making
27
used
working
position
europeni
elections
every
acestia
as@@
legatura
real
small
writing
politicii
bank
aceea
alta
second
sectorul
resources
legislation
become
propunerea
instrument
il@@
access
pre@@
did
go
specific
montenegro
...
it@@
says
million
companies
democracy
sprijinul
let
fund
parties
faca
2011
standards
cresterea
products
project
key
following
welcome
era
8
eur
various
ministru
plus
eaza
calitate
going
ra@@
locuri
di@@
rapporteur
printre
cooperare
caz
4
certain
especially
policies
regiune
luna
money
third
children
necesare
workers
investment
research
reduce
termen
main
belgrad
week
impreuna
doilea
dreptul
zona
integration
sprijin
informatii
news
comune
opportunity
bun
cooperarea
dis@@
step
effective
done
or@@
politic
meu
posibil
serious
deal
approach
6
em@@
she
aid
spune
importance
act
months
called
avand
force
sper
stability
house
ul@@
date
border
lupta
nivelul
context
down
matter
ic
po@@
y
energie
russia
inceput
asistenta
basis
spun
education
grupului
few
eforturile
greater
call
aspect
fac
forward
ri@@
aproape
full
si@@
intrucat
greek
voi
2006
safety
find
mici
razboi
eficienta
comisie
central
accession
crearea
is@@
several
problemele
agency
comuna
viata
inseamna
legislative
eze
anului
military
currently
non
cultural
17
yet
get
opinion
industry
society
actiune
direct
justice
back
7
on@@
sistem
taking
once
nuclear
18
do@@
each
ag@@
internet
zile
responsibility
extrem
allow
bo@@
aiba
internationala
con@@
her
best
summit
vederea
single
solution
grupul
create
reform
conform
ilor
mediu
13
agenda
masurile
jobs
ari
financiar
prea
billion
large
agreements
sarb
scopul
due
strong
rule
positive
directiva
protectia
intreaga
saptamana
difficult
adevarat
p
fight
so@@
facem
officials
least
motiv
life
civil
2004
proposals
ab@@
start
situatie
anumite
behalf
16
potential
china
to@@
fully
employment
conflict
internal
essential
ma@@
ac@@
less
centre
open
ation
joint
sociala
mar@@
lume
est
prim
financiara
necesar
bune
politici
sua
diferite
office
tratatul
results
sud
declara
whole
ori
re
cent
14
private
sfarsitul
rol
sens
mn
monday
account
procedura
aderare
interne
serbiei
achieve
saying
total
significant
50
doi
rezolutie
dezbatere
interests
et@@
clearly
ask
reforms
majority
interest
guvernului
held
spre
crizei
although
se@@
improve
3@@
around
croatian
fortei
move
december
month
finally
confrunta
nostri
rusia
attention
period
crimes
present
dorim
decembrie
regions
pare
ajuta
sistemul
expected
acesteia
v
pas
groups
projects
really
miliarde
ci@@
tarilor
march
something
partidul
august
raportului
initiativa
proces
solidarity
oameni
peace
cases
herzegovina
proposed
vi@@
strategic
albanian
service
bring
management
pozitia
ic@@
19@@
ex@@
quality
fundamentale
environment
membership
assistance
june
mo@@
dumneavoastra
martie
ago
text
environmental
independent
tax
subject
barroso
lo@@
past
capital
iunie
ko@@
patru
elor
four
agricultural
climatice
status
pro@@
pune
muntenegru
violence
dlui
adevar
having
inter@@
nicio
pietei
ica
wednesday
9
anti
reason
aspecte
young
sustainable
labour
personal
until
dialogue
g
oamenii
production
miercuri
domeniu
affairs
desigur
urile
24
left
momentul
aderarea
z
led
things
risk
gas
always
en
02
ad@@
rolul
ur@@
dvs.
january
tadic
off
cadru
minutes
majoritatea
leaders
objectives
involved
rather
h
ianuarie
agreed
crucial
sofia
opposition
document
punerea
ramane
itself
needed
procedure
21
succes
esential
ofera
rs
conformitate
ap
poata
2@@
40
prezenta
continuare
cohesion
chestiune
concerns
five
institutiile
2005
principle
defence
consumers
protectie
added
company
considerare
hand
probabil
october
corruption
!
adoptat
investitii
look
acestuia
ec
conditiile
cinci
vorba
dat
partidului
octombrie
mentionat
ile
lung
parti
schengen
23
funding
ers
meet
markets
independence
macedonian
activitatea
referitor
africa
ala
rapid
propunere
remain
conference
often
locale
pl@@
imi
01
turciei
met
19
modul
lack
propuneri
trecuta
ana
partnership
viitorul
concerned
him
relatiile
produse
serie
guvern
representative
ie
oferi
necesara
lu@@
par@@
republic
november
regarding
22
competition
line
comerciale
presa
ina
punctul
sources
acordului
tuesday
presedintia
points
statement
100
independenta
posibilitatea
zagreb
noiembrie
activities
concrete
parliamentary
decizia
vo@@
challenges
vot
balkans
comun
reducerea
transparency
marti
r
external
su@@
ita
n
raspuns
visit
lumea
commitment
evident
proiectul
review
2013
toata
conditii
cerut
wish
tirana
arata
fi@@
indeed
responsible
utilizarea
schimb
population
developing
solicita
credit
28
ite
curs
others
curand
changes
organised
show
salut
bugetul
numarul
urmeaza
focus
days
locul
systems
sp@@
ated
soon
marea
es@@
programmes
26
western
pay
verbal
strategia
lipsa
hertegovina
solutie
securitatea
adoptarea
inceputul
unii
alegerile
aim
subliniez
priority
noul
ankara
numar
poverty
words
dezbaterea
proiect
ministry
concerning
per@@
nord
costs
april
programul
fr
urilor
la@@
doreste
despite
announced
administrative
istanbul
thursday
aprilie
actuala
provided
libertatea
atentia
amendments
niciun
representatives
negocierile
ec@@
obiectivele
rate
increased
available
package
victims
primit
th@@
plans
atentie
afirma
joi
concern
cetateni
ashton
natural
post
seen
femeilor
economiei
south
individual
republica
form
bulgarian
culture
luat
response
july
ciuda
objective
b
opinia
pl
discutiile
abordare
vedea
anuntat
regulamentul
tratatului
organisation
go@@
randul
eficient
ant
promote
acordat
votul
regiunea
prevent
vigoare
sase
six
decisions
iulie
actually
reports
prezentat
gu@@
enough
serb
took
reforma
february
av@@
signed
sustine
deplin
afara
multa
visa
publica
energetica
festival
februarie
4@@
articolul
election
sustin
job
procesului
alt
forma
sarajevo
official
lead
leader
forces
addition
imbunatatirea
creation
sh@@
considera
subiect
cost
press
economia
sistemului
living
criminal
necesitatea
cursul
governments
skopje
membri
reusit
ho@@
remains
car@@
diverse
extremely
ajuns
principles
romanian
september
domenii
erdogan
ultimii
aduce
mladic
anume
ka
motive
bu@@
septembrie
obiectivul
pace
60
german
intampla
calea
decizie
exprimat
tribunal
comes
ap@@
ver@@
across
statului
deputati
simply
amendment
event
viitoare
legislatia
transparenta
cercetare
externa
bi@@
innovation
devenit
doing
ut@@
thus
guarantee
play
roma
nations
ha@@
agriculture
singura
found
along
film
brussels
inalt
man@@
principal
head
increasing
close
ajutor
centrul
andu
join
ent@@
persoanelor
man
combaterea
balkan
businesses
efficiency
aimed
fondurile
500
values
mentioned
received
5@@
castigat
early
above
director
voting
ethnic
benefit
mediului
mondial
cyprus
eforturi
illegal
com@@
schimbarile
ed@@
ministers
complet
chestiuni
old
subliniat
bruxelles
requirements
ara
practice
organisations
criteria
governance
vital
surse
ot@@
asigure
questions
29
sea
osce
using
stim
conferinta
address
semnat
&apos;t
protect
no@@
specifice
thing
consumatorilor
instruments
consolidarea
bani
cazuri
short
zone
contribui
unfortunately
active
ceva
enterprises
os
top
fondul
negocierilor
simplu
muncii
strategie
won
actions
recently
obiectiv
li
obiective
idea
ali
te
draft
consiliu
age
iran
achieved
chief
banca
integrarea
fellow
ev@@
fim
though
tra@@
north
intotdeauna
appropriate
ent
institutii
pt
field
procedures
scurt
training
coeziune
contextul
similar
existing
quite
reached
men
2012
reasons
belarus
model
lua
ere
servicii
refera
progrese
coming
totii
additional
pus
ajutorul
compromise
eg@@
alegeri
reprezentant
altor
implement
consequences
farmers
understand
fair
ati@@
longer
om@@
strengthen
referendum
uniune
acorda
aware
financing
bilateral
building
home
ru@@
promovarea
presedintiei
dezvoltarii
everyone
program
priorities
produselor
decide
required
urgenta
accesul
solutii
min@@
themselves
pressure
established
application
instead
obtine
negative
faptului
ator
democrat
responsabilitatea
fonduri
sure
establish
x@@
prices
certainly
discutii
f
develop
serviciile
reach
puternic
regionale
mi@@
noile
adaugat
cooperarii
might
supported
ambele
curtea
finantare
oficialii
opportunities
medium
true
ren@@
sub@@
pi@@
finance
decided
rehn
family
kind
air
germany
infrastructure
success
regulations
sarbi
energiei
ever
road
american
7@@
acolo
constituie
ating
proiecte
energetice
ultimul
ultimele
putut
valoare
asked
adoption
autoritatilor
1@@
pleased
gh@@
turc
asadar
asiguram
apoi
membrii
2003
candidate
tourism
produce
steps
throughout
borders
ajunge
persoanele
serbs
intentioneaza
sanatate
duminica
aceeasi
mission
oil
technical
sunday
mon@@
previous
ice
regime
mondiala
ensuring
low
departe
rezolutia
liber
croat
ja
int@@
keep
hi@@
lucruri
nationala
little
cross
drepturi
democratice
dintr
aplicarea
planul
whose
liderii
unemployment
almost
everything
du@@
list
movement
8@@
discuss
femei
bar@@
terte
eastern
centrala
nimic
31
expect
um@@
comunitatea
sai
constitutional
slovenia
incheiat
construction
alliance
saptamani
crea
ten
included
article
gi@@
mechanism
industria
ce@@
association
ni@@
red
incepe
affected
share
et
perspectiva
realizat
carried
contribution
related
monitoring
declaratie
be@@
value
never
consumer
actiuni
alternative
effort
initial
permanent
annual
administration
competitiveness
italy
city
intreprinderile
finantarea
nothing
implemented
le@@
quickly
return
acorduri
east
intermediul
firstly
committed
ridicat
matters
justitie
civile
pur
vest
rezultat
tocmai
brought
athens
earlier
interna
asteapta
scop
grave
printr
statul
presedintelui
contribuie
naturale
outside
suficient
propus
ak@@
ine
partners
france
stiu
rezultate
fo@@
effect
unmik
hard
sch@@
levels
ant@@
prioritate
populatiei
vizita
offer
corect
varsta
br@@
rezultatele
later
czech
moldova
itate
receive
debt
calls
6@@
copii
perhaps
democrats
introduce
boris
mine
cuvinte
providing
institutiilor
deveni
ahead
stabilitate
ban
makes
securitatii
80
came
accept
weeks
agricole
mean
asylum
implementing
contribute
speak
price
israel
pacate
intra
est@@
terrorism
budgetary
creating
kostunica
complete
huge
ski
adopt
luate
basic
intrebare
and@@
expressed
name
au@@
sti@@
mil@@
banks
indoiala
resurse
bineinteles
history
laws
feel
decis
ora
comunitatii
deosebit
agricultura
discrimination
cal@@
parteneriat
serviciilor
secondly
request
violenta
improving
intalnit
team
devina
erii
cl@@
niciodata
ly
demand
behind
express
ro
strengthening
pozitie
supply
germania
apply
cheie
sitting
approved
structural
domestic
fisheries
politicile
closed
discussion
rezultatul
nucleare
aflat
bugetului
presented
leave
standardele
powers
ti
langa
diplomatic
intreprinderilor
water
cu@@
secretary
rural
seful
2002
introducerea
capacity
existat
ruling
side
ez
bosnian
provinciei
sfarsit
implementarea
numeroase
grup
copiilor
iti
bl@@
radio
stand
unit
atie
popular
practica
venit
solutions
necesita
vic
urgent
ta@@
regulament
existente
balcani
ations
stress
ing@@
events
suplimentare
discuta
stop
equal
lege
recovery
trafficking
produsele
mass
acces
opening
higher
washington
regiuni
af@@
solidaritate
live
talking
implica
relation
cut
socialist
enable
200
discussed
provisions
aplica
encourage
forta
emissions
duce
ready
tip
experts
fostul
ind
buget
interesul
pozitiv
italia
regionala
competitive
ovic
respectarea
democratie
goods
tribunalul
atoare
goal
treatment
1995
fondurilor
ideea
balance
imediat
friday
reduction
esentiala
relatiilor
1999
eri
daily
materie
za
companii
politicians
actual
tr@@
treilea
technology
srpska
gra@@
cor@@
mei
actiunile
evaluare
semnificativ
curtii
atii
opened
.@@
message
permiteti
assessment
nl
datelor
avoid
agentia
majore
aspects
confidence
puncte
zece
half
skopie
apel
build
facute
late
datorita
tu@@
vizeaza
relevant
lista
70
ireland
considered
anti@@
populatia
resurselor
run
rata
standard
initiatives
mandate
facing
str@@
negocieri
obtinut
hungarian
imf
incredere
sized
humanitarian
ordinea
decizii
light
strategiei
prevede
eulex
situatiei
totodata
relating
putere
b92
lunii
fmi
vineri
kfor
ber@@
compania
authority
leading
femeile
sprijini
durabila
adoptate
canada
mind
waste
experience
urmatorul
cre@@
known
puternica
numara
talk
effects
macedoniei
sectors
icty
asigurarea
2001
juridic
interesele
dez@@
legislatiei
land
excellent
element
mediterranean
rea
organizate
supporting
compromis
minority
directia
celelalte
jo@@
includes
puna
lives
vorbim
maritime
solicitat
gen
globala
northern
benefits
industrial
ambitious
angajamentul
russian
op@@
possibility
georgia
ultima
campaign
regards
motion
entire
creste
progresul
rating
oamenilor
promoting
death
oficial
documents
respecta
amount
entry
created
deputy
communication
crescut
ofere
akp
cresterii
wants
legea
saraievo
investments
comisarul
eficiente
comertului
provides
principalele
ukraine
ju@@
successful
lot
arile
austria
posibila
religious
exchange
shown
atena
luam
convention
organizat
societatii
sustinut
hold
hu
oferit
participa
developed
eu@@
principiul
resursele
seama
zi@@
ally
dovada
democratiei
cere
aprobat
cultura
enlargement
cont
ministerul
vice
transparent
mijlocii
reglementare
capacitatea
away
challenge
intrebarea
lucrurile
instrumente
paid
incearca
constitution
green
exact
2000
sanatatii
completely
begin
carbon
g20
statements
overall
integrare
croatiei
fishing
army
reprezentantii
parlamentare
directivei
efficient
travel
ea@@
atori
beginning
situatii
absolutely
imm
politia
perspective
deficit
either
thanks
furthermore
minorities
italian
ante
try
apararii
abordarea
calling
felicit
trying
euro@@
turn
coordination
direction
activitatile
libera
sk@@
stage
pkk
standarde
erea
draw
meanwhile
shall
prepared
america
coalition
franta
communities
participation
colleagues
garanta
capat
sectorului
zonele
liderul
prezinta
seems
clara
contact
economies
statutul
des
fl@@
can@@
ta
schimbarilor
veti
j
takes
reala
politie
caused
jumatate
dnei
milosevic
ol@@
cuvant
mii
looking
establishing
mention
teritoriul
destul
vizelor
bbc
effectively
sense
agencies
carora
sar@@
condus
zoran
educatie
iz@@
imbunatati
tomorrow
moreover
wanted
stabilit
ve
institutional
ai@@
experienta
karadzic
largest
justitiei
itatea
unica
sigur
pescuitului
pa@@
fiscal
lucratorilor
failed
politicilor
alegerilor
odata
nikola
pact
ity
organizata
cale
globale
careia
combating
economie
afecteaza
intreprinderi
az@@
culturale
delegation
written
network
task
ac
aims
ahtisaari
poor
existe
export
har@@
militare
declaratia
van
azil
indiferent
congratulate
solicit
me@@
limita
motivul
propunerile
adesea
energia
big
intrebari
actuale
legii
clare
hague
abil
discutat
echipa
reg@@
self
alti
km
totul
altele
analiza
minimum
answer
comprehensive
french
grupuri
stabilitatea
interes
coruptiei
usor
rise
discutie
discussions
applied
reality
mondiale
anual
adecvate
giving
bugetare
represents
generale
reducere
requires
controlul
cur@@
ban@@
em
language
beyond
pachet
goals
haga
ov@@
maine
speaker
90
follow
shows
speech
regret
refer
consecinta
sarcina
participat
sansa
thousands
discutam
session
banii
declaratii
lumii
reducing
urmatoarele
pietele
statutului
adoptata
gaze
inc@@
opozitie
calitatea
arilor
orasul
opt
factor
deci
cul@@
regiunile
sign
sprijina
structurale
eliminarea
irlanda
x
chestiunea
mor@@
limba
inregistrat
nature
juridice
raised
companiile
discutiilor
deschis
9@@
provocari
implicate
ourselves
reformele
mu@@
greciei
dialog
usd
fondului
relatii
publicatiei
hungary
ates
british
saraciei
activitati
ko
organizatiei
ability
families
35
improved
absolut
gdp
domnul
anii
pe@@
measure
majoritate
happen
india
are@@
permita
tri@@
investitiile
conduce
acela
equality
colegii
ting
property
recognise
asteptam
threat
immigration
combat
aspectele
site
namely
te@@
growing
vietii
lost
adresa
ni
centrale
pib
natura
esentiale
incheierea
george
university
stabilirea
maintain
primi
productia
puse
commitments
atia
bancii
copenhagen
over@@
300
politiei
represent
dificil
likely
targets
acordurile
presei
degraba
fiscale
bilaterale
0@@
influence
copenhaga
sto@@
reforme
costurile
fortele
concurenta
bucharest
ways
for@@
profit
heard
online
nor
forum
christian
basescu
dispute
st
functie
item
middle
adopte
ist@@
ki
masurilor
romaniei
activity
macedonean
commercial
near
mer@@
started
libertate
iraq
cause
carry
stabilite
problemelor
anterior
partidele
nevoia
allowed
principala
adecvat
alimentare
elected
scientific
proper
smes
programului
comertul
closely
mele
caruia
dpa
promis
nation
monetary
tunisia
quoted
staff
incepand
bulgariei
plant
erau
sides
difficulties
ucraina
conclusion
reported
approval
gul
ir@@
cuvantul
test
failure
school
pri@@
tii
nimeni
abile
unacceptable
functioning
marii
attacks
arrest
sta
rapida
complex
dificila
speranta
raportor
val@@
intended
fe@@
establishment
aratat
closer
pro
ene
infrastructura
declaration
adopta
generala
larga
propune
nearly
dorit
dreptate
lucreaza
grec
principiile
alaturi
productie
co2
consideram
judicial
gasi
nevertheless
europeans
jovanovic
intrarea
cererea
mecanism
acts
durata
depuse
programe
greu
ts
vrea
province
vazut
impactul
ter@@
achieving
boost
realiza
patients
chamber
influenta
existenta
vota
supraveghere
trust
speram
disaster
ph@@
launched
sine
sanader
libertatii
obligations
ura
cativa
propriile
origin
gar@@
multor
ded
ocuparea
acesti
participarea
ans
ative
tine
transportul
extindere
round
responsabilitate
speaking
pescuit
obiectivelor
depinde
proiectului
nucleara
tratat
comercial
pakistan
dreptului
cap
strongly
vad
study
producers
continues
seven
persons
dezbateri
inaintea
practices
easca
realizarea
pericol
stanga
realitate
fer@@
asia
atul
involvement
gestiune
gestionarea
ism
majora
pat@@
king
proteja
becoming
refugees
raspunsul
afectate
ri
atlantic
immediately
$
noted
introduction
acorde
ou@@
latest
efect
lea
upon
sarbe
pacii
ist
minoritatilor
traficului
ad
detine
mediul
bat@@
protejarea
recognition
149
integrated
scazut
tabled
directly
fighting
partid
alimentara
increasingly
dispozitie
pierdut
armata
comert
note
comunitar
child
ocazia
ds
datoria
societatea
copiii
globalisation
res@@
anta
procedurile
spirit
masa
sef
dea
sic
ted
trial
origine
chance
merita
intamplat
srebrenica
sapte
extinderea
pozitive
cont@@
elaborat
fall
mechanisms
modern
he@@
terorismului
ungaria
accordance
path
haiti
customs
persoana
activ
suma
knowledge
guvernele
mal@@
science
lower
board
republicii
ang@@
submitted
secretarul
tell
semnificative
substantial
progres
partner
urged
starting
respecte
depus
esc
critical
setting
singur
highest
propunerii
ong
lansat
rates
normele
intai
gender
fosta
ppe
parerea
tur@@
recommendations
followed
aj
tarziu
enter
developments
schimbare
constructive
raise
w
ridica
circumstances
nordul
regulamentului
gaza
eight
stiinta
democratica
thaci
mica
emphasise
natiunilor
grava
send
discharge
muntenegrului
lt
scale
ali@@
spain
ra
territory
propuse
normal
technologies
alone
votes
trebuit
parts
protocol
planned
convenit
recognised
cr@@
aprobarea
require
tayyip
agentiei
respectiv
privitoare
cypriot
sufficient
operations
credem
increderea
somajului
ties
recep
gruevski
primele
damage
rest
positions
prioritatile
cine
transfer
medical
product
ones
ov
investigation
albaniei
domeniile
qu@@
albanez
operate
infiintarea
consecintele
corecta
economii
kosovari
respond
liberal
connection
bloc
specifically
aceleasi
institution
evaluarea
traditional
person
introduced
umane
forms
atorii
ore
consolida
doubt
dreapta
via
scope
tar@@
car
societate
preturilor
corespunzator
acele
reduced
traiesc
norme
politics
sistemele
precisely
provision
del
ridicate
raspunde
bucuresti
limited
enta
record
20@@
oficiali
apa
seriously
subliniaza
utilizate
punem
deschiderea
tv
sk
caror
activitate
ay@@
vedem
concept
sent
bodies
trans@@
camera
straine
centru
principalul
ob@@
ivo
risks
libya
consumatorii
target
ramana
goes
premierul
fin@@
separate
legislativ
income
exercitiu
began
mesaj
75
adus
bil@@
dialogul
parere
energetic
invest
southern
sarba
charges
biggest
simple
series
duty
creat
sal@@
guvernanta
competenta
pan@@
spanish
seek
victime
assembly
tic
reale
balcanii
faced
fic@@
ft
bazeaza
je
demonstrat
secure
ocazie
prevention
reformelor
cs
mat@@
sa@@
managed
planning
linked
highly
etnice
strict
criteriile
yes
directorul
resolve
mutual
tre@@
acp
average
territorial
tineri
confruntam
electoral
extent
informare
worth
oral
serios
vorbit
operational
consensus
paper
sc@@
town
evidence
contine
civila
elaborarea
evita
yugoslavia
helping
der
itatii
orasului
mas@@
problemei
ane
aparare
ramas
youth
manner
schimbari
obtinerea
sanctions
col@@
albanians
crize
sprijine
obviously
immediate
son
ks
mandat
deputatii
rezolutiei
integrarii
exprim
spent
bel@@
improvement
partide
mentinerea
views
igor
altii
legislatie
speciale
rec@@
fond
turci
zonei
differences
terrorist
works
puternice
issued
roman
industriei
natiuni
figures
properly
bulgar
gr@@
bid
sustinerea
gives
outcome
spending
dus
ten@@
cate
rezolutii
bringing
counterpart
stressed
remember
im
asta
kovic
medicale
participate
eti
burden
serviciul
migration
impune
prezentate
protecting
rapporteurs
constant
structures
1992
demands
meps
contract
membra
schimba
electricity
balanced
alimente
adequate
liberalisation
disponibile
petrol
aflate
consultati
ente
students
seeking
stie
york
numerous
ground
presupune
promova
ratko
valori
legi
spera
dorinta
textile
relationship
forced
payments
ongoing
obama
angajament
tehnice
facilitate
valorile
supervision
cer@@
vreme
iau
produs
leadership
interior
legata
corespunzatoare
strasbourg
accepta
berisha
purpose
poland
mis@@
continued
deplina
mainly
practici
asociere
sanatatea
ge
parcursul
kar@@
efectele
mobile
solana
wrong
&amp;
serve
ram@@
happened
ast@@
citat
strategii
san@@
conclusions
urmatoarea
permis
inf@@
um
ous
minute
propria
considerat
inv@@
piete
passengers
leg@@
ser@@
kosovar
cerintele
tinerilor
uni@@
bal@@
ga
budgets
voice
stiti
raman
elements
journalists
pr@@
tim@@
competente
companiilor
vojislav
uitam
ferm
standardelor
attack
pachetul
ili@@
puterea
dealing
professional
irish
principiu
bucura
coordonare
sur@@
carui
amendamente
whom
afghanistan
demonstreaza
prevenirea
anumitor
atorilor
monitorizare
administratia
freedoms
finala
regiunii
conturi
aeriene
expression
mandatul
firm
animal
mobility
pol@@
albanezi
raportorul
incercat
tions
lin@@
passed
negotiating
juridica
spania
conflicts
organizatia
body
summer
safe
table
saturday
lider
proceduri
belgradul
cam@@
compared
adding
practical
ziua
sprijinirea
textul
equipment
recunoscut
rezolva
discussing
summitul
mentine
stated
singurul
sexual
excelenta
functionarea
type
lic@@
us@@
id@@
militara
olli
stabili
hit
rau
informatiile
des@@
rog
continuing
exist
suficiente
aj@@
renewable
published
guarantees
confirmed
responsabil
add
ulterior
sel@@
sambata
democratia
presus
organizatii
functioneaza
sursa
vine
rejected
asking
probably
partile
solicitam
moneda
overcome
eni
oase
revizuirea
supports
black
precedent
rii
ings
conclude
noilor
prezinte
solidaritatea
informat
protest
1990
nine
gener@@
net
locurile
easy
granted
arrested
pen@@
recunoasterea
respective
18@@
grupurile
performance
investitiilor
reprezenta
reflecta
unice
emisiilor
misiunea
inteleg
repede
worked
comments
forget
na
proiectele
similare
consideration
celui
eforturilor
impiedica
sprijinit
choice
rapoarte
crima
presence
ilegale
moartea
guvernamant
guidelines
aderarii
conditiilor
ef@@
bor@@
ern@@
companiei
acordarea
dovedit
pozitiva
attempt
individuale
amendamentele
prosecutor
domnului
tion
all@@
implicarea
ment
bugetar
barbati
oficiala
monitor
cover
fr@@
uk
ponte
iti@@
plants
ba@@
poporului
trece
speciala
instrumentele
sport
elemente
lucratorii
investors
convinced
anything
nabucco
fortelor
ministrii
directe
noului
wide
libia
poporul
buildings
recente
religioase
istoria
tinerii
animalelor
pas@@
privatisation
her@@
penal
adecvata
mark
troops
crede
solutionarea
oportunitati
tackle
cipru
healthcare
cabinet
situations
voters
omologul
charter
puteti
acquis
pu@@
welcomed
tema
understanding
mijlociu
diferitele
ses
une
described
itati
victimelor
source
indeplinirea
operating
addressed
banking
currency
activitatii
ajunga
risc
respins
deciziile
auditors
400
conducted
scrise
macar
incheia
programele
stronger
changed
recunoaste
intervention
armed
propose
res
pietelor
slobodan
emergency
organizarea
meetings
putting
portugal
binding
unic
aliantei
island
applause
shared
wi@@
japan
structure
ceha
sometimes
gre@@
oportunitate
sed
contribuit
restul
regimului
vulnerable
britanie
vointa
cap@@
accounts
stable
electronic
beneficia
ah@@
killed
mit@@
aerian
voturi
maximum
acea
african
45
institute
dezvolta
transition
anyone
ir
podgorica
jan@@
ling
agricola
celei
responsibilities
uneori
polonia
ay
islamic
indeplini
otherwise
violations
contributia
azi
jucat
auzit
revizuire
mesic
aplauze
went
permit
affect
montenegrin
contributie
destinate
speed
atiile
cer
altfel
ori@@
sin@@
accident
century
swedish
inteles
ian
posibile
imports
plata
aflam
signal
culturii
exercise
luka
inclusion
rel@@
negociere
ry
sustinem
offered
allowing
intalnire
membrilor
sports
valoarea
deosebita
severe
granita
scara
preveni
hopes
directie
larg
ary
ideas
circulatie
lansarea
getting
bas@@
unable
obtina
cheltuielile
inceapa
dificultati
thought
prison
happy
alianta
activitatilor
traficul
sistemelor
privat
reading
produced
fraud
launch
acordata
intalnirea
tin
ocupa
din@@
hours
bro@@
regulatory
stockholm
educatiei
reprezentantul
pension
djindjic
rurale
palestinian
armatei
sv
vreau
durabile
ambassador
sisteme
avertizat
efectuate
analysis
indeplineasca
employees
orientul
don
heads
broad
ins
exprima
signing
intreb
dificile
focused
papandreou
devine
sec@@
mentionez
radical
deschisa
organizatiile
fear
incep
confirmat
concluded
ance
sute
opozitia
atiei
stabilisation
suffering
continuarea
drumul
taxe
totala
joaca
pre
desfasoara
ecologice
mic
gotovina
semnificativa
colleague
abila
sprijinim
amendamentul
ari@@
limit
crimei
numarului
ven@@
protectiei
promotion
cas@@
atiilor
criterii
evenimentele
dezbaterii
multi@@
ended
comunitare
partenerii
completed
obligatia
2014
semnal
bazata
fa@@
ministerului
sen@@
individuals
-@@
implicati
dan@@
moving
considerable
west
pipeline
neighbouring
continent
alde
castiga
communist
ek@@
presidential
atinge
sol@@
exactly
networks
mana
estimated
candidates
reprezentat
intregul
seara
thinking
determina
reglementari
provocare
constienti
violentei
principale
protected
pregatita
informed
victimele
annan
completa
urge
cro@@
fil@@
emis
dam
win
grav
egypt
ise
released
frontex
inchisoare
truly
construirea
ch
subiectul
urban
alisation
planului
animals
consens
defend
colegilor
experti
gave
yugoslav
vehicles
end@@
ger@@
noii
significantly
ge@@
abroad
pretul
150
expenditure
became
resolved
reduse
ultimately
bur@@
finantelor
statistics
efort
heart
dra@@
front
tratament
traffic
devreme
ep
placed
atingerea
eri@@
built
appeal
raportorului
offers
vechi
riscul
luata
urmatorii
ding
sis
weapons
hear
interested
republika
deschide
oare
honourable
consistent
warned
negativ
pet@@
ovski
ici
places
stabilizare
ohrid
sensitive
met@@
egalitatea
practic
aveti
competitivitatea
conventia
temeiul
trai
evenimente
useful
plati
urmat
formarea
millions
medi@@
evaluation
chairman
consecinte
mitrovica
remind
evenimentul
gestionare
grupurilor
accepted
heritage
apara
tool
punere
enforcement
contrary
facilities
votului
publicat
reguli
tranzitie
deputatilor
preturile
ashdown
folosite
als
legale
interese
content
premiul
exports
schimbul
ps
den@@
constructia
fiscala
inaltul
bh
creeaza
independentei
militar
respectiva
obtain
consumatori
studiu
profesionala
ilegal
stream
alineatul
involving
disasters
publicului
executive
regimul
serviciu
autoritatea
sarbii
eveniment
documente
restrictions
spatiul
incercam
lungul
putine
capitala
continuam
strainatate
intregii
compliance
utilizarii
range
greatest
reaching
inchisa
decades
airlines
easier
anterioare
producatorii
danube
requirement
por@@
actioneze
incheie
partidelor
conflictului
judiciary
prospects
redus
pac
arme
obligation
peaceful
stricte
incerca
spori
solve
sectoare
costurilor
animale
joined
phase
release
atic
port
nevoile
tehnologii
55
razboiului
ire
adjustment
ase
factors
deputat
ieri
neighbourhood
ba
expertii
sanctiuni
decisive
izarea
ru
hundreds
tia
ect@@
estul
guvernare
constitutionale
nr
adopting
monitorizarea
bad
ministrului
intrat
acuzat
file
convins
combatere
japonia
documentul
instance
opposed
procedurii
afganistan
regiunilor
reusi
safeguard
ini
imposed
vina
tion@@
spunem
sufera
deloc
á@@
obligatiile
word
genuine
beneficii
ke
punctele
delay
administratiei
impuse
dezvoltate
adica
neither
bosniei
extend
mentionate
ard
played
stay
adaugand
vara
medicala
ui
incuraja
ska
irak
kurdish
loss
idee
vorbesc
highlight
comply
candidat
reference
eficientei
locala
please
facilita
tomislav
plenary
acordurilor
intern
form@@
award
straini
globalizare
consumption
taxa
oficiale
provocarile
bosniac
criticism
reuniunea
conditie
atrag
secret
concurentei
greci
actualul
dayton
dangerous
tive
salutat
loans
neighbours
allows
rightly
sporirea
yesterday
itor
reprezentanti
afacerilor
incluse
merge
joining
modalitate
debates
claims
don@@
garanteze
portugalia
tiei
thereby
refugiati
folosit
ies
abdullah
atins
else
payment
cheltuielilor
desfasurat
peoples
improvements
schools
echilibru
lucram
planurile
totalitate
aborda
idei
under@@
judiciar
belgian
inapoi
format
realizate
vin
afectat
revision
vrem
visited
14@@
dimension
tel@@
electrice
option
verde
agriculturii
sejdiu
regatul
stabileasca
sunteti
creeze
colegi
advantage
scheduled
stabileste
potentialul
van@@
conducerea
populatie
happening
inovare
holding
got
correct
cities
metoda
acordam
calitatii
recenta
immigrants
angajati
disease
pensii
ansamblu
radovan
flexibility
out@@
partial
determination
welfare
studies
crvenkovski
causes
contains
economiile
envoy
indica
umanitar
festivalul
drawn
sustainability
dodik
redresare
oara
tie
bancile
politicienii
lines
vecinatate
enormous
strategice
atorul
inter
cat@@
integrate
zeci
ras@@
participe
lies
ls
democratilor
partener
functia
coordinated
primarily
intereselor
regular
stiintifice
senior
reporters
prioritati
respected
stransa
furnizarea
critica
ciprului
incident
remaining
etapa
uni
analysts
paragraph
abuse
condusa
tina
voa
transfrontaliere
officers
spatele
presiuni
pa
actiunea
enti@@
ombudsman
cuts
credibility
fac@@
mandatului
relevante
methods
original
ca@@
sedinta
1st
afecta
stirile
finding
barriers
apararea
acceptable
encouraging
awareness
vizitat
cercetarea
bei
faza
micro@@
ble
taxes
indeaproape
hands
informatiilor
soldiers
fine
stabilitatii
structura
adresez
fish
ised
obvious
discursul
resolutions
é@@
independente
normelor
vision
kov
transportului
actiona
citizen
campania
coordonarea
chestiunile
tin@@
determined
britain
q@@
controls
ajustare
dragan
djukanovic
termeni
principii
manage
utilizat
sali
pret
responsabile
rezolvarea
tone
innovative
der@@
olympic
preventing
bucur
impactului
foundation
educational
charge
ham@@
considerabil
gain
semnarea
oasa
ku@@
procedurilor
believes
fail
men@@
1998
bear
expert
suggested
anniversary
urmatoare
personally
datele
cazurile
ig@@
conduct
teroriste
bosniaci
primeasca
viitorului
ecr
tried
descarcarea
mijloacele
threats
muslim
includa
educatia
stiri
sovereignty
distribution
bul@@
angajamentele
comise
iei
ev
locurilor
participants
1991
art
opozitiei
eliminate
ve@@
ter
hal@@
ga@@
accused
fundamentala
var@@
modificari
ron@@
method
vladimir
read
combate
solicitarea
split
1,@@
pusa
programelor
inalta
reduca
baroness
sigurantei
loan
amenintare
os@@
forme
bri@@
gaz
balcanice
accesului
expectations
worst
viza
cineva
associated
vat
lunga
voiced
sound
department
fuel
reconstruction
turned
fatmir
irea
ajute
pointed
ment@@
productiei
exprimare
obstacles
effectiveness
fulfil
treia
34
65
defined
sedintei
fur@@
coruptie
learn
companie
ence
arctic
serviciului
strategica
savings
netherlands
prepare
agentii
cifra
space
dau
elimina
drug
alegerea
ash@@
dor@@
imbunatatire
ek
recommendation
impossible
speci@@
swift
merkel
institutie
cunoscut
egal
pregatit
trimis
comunicare
strategies
rompuy
dincolo
modificare
designed
anilor
erilor
shadow
referred
mijloace
pregatiti
ere@@
anumita
industrie
lose
iceland
diplomatice
details
corecte
punerii
transactions
bush
droguri
commander
ze
interesate
socialists
processes
ak
legislativa
tor@@
courts
attended
id
tinand
concluziile
tehnologie
criticat
material
digital
imagine
sarace
exploitation
parliaments
accepte
dimineata
oferite
acceptat
intentia
insurance
equally
prior
aduse
firmly
ese
atrage
chinese
par
ut
carei
pensions
ü@@
gaseasca
numit
16@@
definitely
atras
emisiile
britanic
generally
sing
armate
worse
prevazute
ceilalti
ran@@
ez@@
spatiu
explained
amendament
aplicate
incalcare
ceremony
2015
linda
cercetarii
astept
asigurari
serioase
extreme
cauta
nefericire
scena
primului
ful
1.@@
supravegherea
games
plateasca
facuta
votez
primary
explicat
frontiera
condition
inacceptabil
taxpayers
10@@
dj@@
proiectelor
strengthened
conducere
sosit
acordate
sim@@
tests
mid
lucratori
ler
spoke
universal
angajat
includerea
represented
incercarea
bugetara
componenta
enjoy
faces
trading
turism
paul
oferim
facility
formare
ms
pal@@
15@@
tro@@
formal
succesul
transmite
om
schimbat
bre@@
tribunalului
historic
lucreze
waiting
capable
ean
aza
turi
tul
rusiei
iranian
declared
acel
permanenta
reflect
mereu
contributions
paris
eib
ure
topic
pt@@
ministri
infrastructurii
croati
veni
gaddafi
demonstrated
procurement
collective
pacientilor
intreg
libere
entity
electorale
considerata
jevic
federation
dic@@
incantat
adaugata
promised
solutia
inde@@
sporita
link
gasim
thirdly
diversity
medicines
garantarea
proprii
costuri
emb@@
liberalizarea
repeat
someone
gasit
addressing
considering
actionam
victory
cuba
ete
crises
directives
simt
base
post@@
nic@@
numbers
determine
prosecutors
misiunii
fran@@
rising
alleged
card
adresata
excessive
oc@@
lucrat
gandim
planuri
descris
competitivitatii
existence
oras
changing
goran
obligatoriu
perfect
scheffer
les
enti
the@@
industries
21st
alism
preparing
crestin
hoop
finantarii
responsabila
teren
coerenta
bunuri
vorbi
folosi
vuk
600
bazate
extended
allocated
deciziilor
deschise
ality
interiorul
presiune
introducing
claim
legaturi
traian
gasirea
applies
closure
nikolic
opinie
players
demonstrate
guaranteed
skills
competence
36
prosperity
degree
cancer
iugoslavie
cel@@
apropiat
figure
ecologica
esti
pasagerilor
declaratiile
letter
intend
utilizare
pedeapsa
stra@@
jurul
coasta
purposes
laid
caracter
intelegere
disputa
dr@@
studii
comunicarea
atacuri
modificarea
ö@@
intelege
rl
universitatea
regenerabile
stri@@
juca
consultation
impose
regim
parteneriatul
rfe
pass
covered
cream
operators
vizitei
industriale
suferit
acting
runda
treaties
turca
auto@@
electricitate
criticised
cerere
adera
morning
niveluri
solid
gen@@
croata
civilian
urgently
alocate
turismului
suficienta
parents
saracie
tva
scheme
sugereaza
arestarea
agricol
motivele
comment
duties
statut
lumina
merely
surselor
kal@@
adevarata
divided
myself
track
declarand
ord@@
carefully
adere
organizatiilor
bra@@
ativa
keeping
urmareste
legally
identity
profesionale
fostului
redusa
hertegovinei
conditia
ambasadorul
explain
carta
dic
karamanlis
sarkozy
penalty
vize
implicat
intention
tem@@
reportedly
albaneze
nivelurile
inclus
principiului
croate
mesajul
anumit
materials
ked
atac
aur
lju@@
dialogului
hashim
temporary
stake
parlamentar
truth
aplice
multumit
ngos
eurozone
agentiile
ner
alternativa
ker
alo@@
targeted
submit
harmonisation
consta
refugiatilor
biodiversity
minim
ocuparii
inregistrate
lectura
cuprinzatoare
cars
playing
sion
insist
comparatie
realise
alul
judges
worldwide
helped
maintaining
3.@@
activa
aparut
referire
doamnei
housing
tiile
saw
costa
dimensiunea
promoveze
adauga
egipt
acte
friendly
mentioneaza
pun
lucra
reformei
a.
depuna
wo@@
stat@@
seem
grant
identified
imbunatateasca
dezvolte
venituri
250
television
campanie
aviation
sugerat
creasca
parteneri
tan@@
adoptam
showed
reglementarea
dist@@
gro@@
contributed
transporturilor
religion
prove
reliable
insemna
rapoartele
requested
discriminare
employed
double
emphasis
pra@@
crearii
haideti
collection
rich
egf
entirely
800
regulile
judiciare
remarks
parlamentara
atului
coruptia
conflictul
comisii
sets
luarea
murder
ilegala
ute
sarbilor
highlighted
jeremic
assess
ves
spiritul
finances
bill
committees
fire
church
prize
itoare
friends
vi
sad
analizam
choose
concentreze
street
appear
legitimate
sive
32
ade@@
reasonable
stabilim
died
desire
deliver
turcesti
legat
apart
compensation
consolidate
obligatorii
lithuania
milorad
recunoastem
austerity
5th
und@@
up@@
technological
generate
assist
hamas
actiunilor
import
paying
demanding
suffered
recomandarile
pres@@
13@@
leaving
unless
running
condamnat
largely
belgium
charged
arta
aduca
solicitare
schimbarea
successfully
casa
joace
exhibition
zero
book
kon@@
reporterilor
historical
suggest
gal@@
incalca
emisii
brazil
bancar
division
milk
ach@@
efortul
eta
we@@
determinat
inovatoare
albaneza
contracts
00@@
code
cri@@
ingrijorare
pledged
simpla
importanti
refuzat
of@@
alizare
arrived
concentram
previously
colaborare
asistentei
users
sit
obtinute
compar@@
banci
involve
efectuat
ends
propriul
wait
ben@@
dutch
decenii
viitoarea
provocat
insista
theatre
bazat
oz@@
eficace
diferita
biroul
exceptional
eau
mir@@
labelling
autoritati
balcanilor
assets
grounds
deseurilor
familie
behaviour
alizarea
sigure
proceedings
17@@
professor
reamintesc
societati
slovakia
specifica
mecanisme
realitatea
geneva
survey
arul
antonio
publicul
danger
whilst
sustina
raspunda
soldati
korea
languages
guvernelor
sought
politically
visas
vamale
consolideze
diferit
egalitatii
hu@@
dependenta
berlin
honour
luand
precise
jan
attitude
far@@
executiv
puteri
eni@@
includ
ambitios
guvernamentale
unfair
ahmet
eti@@
acasa
identify
teritoriala
internationali
e.
48
monetare
interim
pilot
sudul
arestat
tasks
tools
scadere
folosesc
postul
limits
fields
introdus
sovereign
curent
pozitii
reze
losses
familiile
adjunct
depusa
federal
transatlantic
difference
49
offering
brings
ying
lea@@
ical
resulting
pregatirea
generation
nik
aduc
arab
datoriei
hel@@
regardless
forthcoming
ste
heavy
depends
viol@@
semn
georgi
room
save
raising
menite
malmström
opinions
ajutorului
comunitatilor
suffer
interesting
standing
ants
apropiere
perspectivele
ors
branko
wing
hdz
indicated
gue
gone
argument
web
20th
multilateral
centres
votare
acta
felul
commissioners
registered
enhanced
stands
pactul
approximately
clause
deep
sweden
baltic
primesc
politicieni
uz@@
somajul
emerging
sigura
33
respectate
cerinte
provin
pic@@
electorala
naturally
beta
rare
hotarat
cuprinde
entities
firms
decent
stations
lideri
tourists
util
kingdom
ably
deficitul
incalcarea
eye
sanse
jel@@
furniza
cipriot
ordine
protests
depune
reciproc
europol
tilor
irii
cru@@
ordinary
mentinere
concluzie
realistic
infiintat
warning
festivalului
progresele
folosirea
push
votarea
mentina
procurorul
modului
evidenta
guantánamo
proprietate
jean
diseases
garantii
centrului
simplificarea
continutul
120
foloseasca
misiune
granitele
contrar
actively
forte
jos
efecte
mobilizarea
ivan
flexible
increases
explica
ton
factori
succeed
10th
examples
diferitelor
seeks
dealt
articolului
inchiderea
evenimentelor
rurala
municipalities
ators
culturala
prezentata
football
tica
treated
reactie
gresit
drum
trecere
construi
colegul
orii
attempts
extension
sort
showing
med
block
neg@@
grad
comunitati
isti
gap
supuse
regulate
alitatea
comerciala
televiziune
audit
kov@@
poarta
imbunatatiri
register
asume
vel@@
entei
author
miscare
cetatean
detailed
stock
tariceanu
beneficiaza
willing
powerful
comitetului
holds
neagra
vol@@
tendinta
&apos;@@
saracia
dramatic
london
massive
oportunitatea
estimeaza
buy
floor
pierde
resulted
karadaku
migrants
exclusion
desfasurare
beijing
stau
subsidies
egalitate
confirm
actor
dezastru
inflation
mir
scopuri
fiecarui
43
javier
lasa
pacea
stance
resolving
supplies
scoala
mun@@
inaintat
imprumut
cooperate
intrerupt
diferenta
milan
homes
respectul
dependent
officially
medicamente
progresului
deadline
sesiune
5m
conferintei
ici@@
umana
natasa
radic
sincer
museum
break
star@@
ending
minime
settlement
instituirea
voluntary
exclusiv
familiei
periculoase
vis@@
atitudine
afectati
oper@@
transforma
fast
vecine
americane
istoric
sites
learning
unilateral
becomes
violation
12th
reuniune
preconizeaza
aflata
altceva
airport
confirma
totally
raportoare
gold
opiniile
adresat
directa
ambitioase
substances
francez
civilians
advance
complicated
sectoarele
responsabili
orase
restructuring
impartasesc
obstacol
tipuri
sy@@
enhance
seats
mostly
4.@@
violent
parvanov
dignity
spokesman
alitate
sudan
comunitara
documentele
negotiation
organizatie
teama
anuale
manuel
reciproca
ratification
arms
retele
astepta
proposing
interventie
kept
moral
unity
size
inaltului
competentele
dura
tele
liber@@
considerate
personale
veniturile
decade
links
salvare
ons
novi
principiilor
feg
israeli
lucrarile
austeritate
ada
brazilia
door
guverne
turismul
recomandari
alocat
drugs
controversial
sharing
interview
cealalta
forest
bit
applying
promoveaza
relatia
excelent
interinstitutional
purtatorul
guaranteeing
village
plays
constitutia
od@@
abordam
prezenti
adi@@
declare
options
indu
tehnica
recession
missing
vicepresedintele
autor
apropierea
lam@@
viz@@
genocide
imediata
prezidentiale
vulnerabile
lajcak
implice
mayor
speculation
locali
ste@@
aw@@
owned
observat
valorilor
amounts
georgiev
6th
700
reteaua
comp@@
propusa
integrata
spend
appears
reduceri
dovezi
suitable
seeing
coreea
hiv
credite
imbunatatit
cata
saluta
structurile
ridicata
approve
carrying
gn@@
fourth
below
sfera
chair
log@@
obstacole
prisoners
ohr
judge
bancilor
lituania
residents
ets
doha
sri
involves
interviu
war@@
participating
med@@
ajungem
ferma
grateful
partilor
maniera
umanitare
malta
bg
abtinut
tal@@
granting
chosen
reject
handicap
progressive
verts
anticipate
contra@@
ann@@
povara
alzheimer
mediterana
exercita
sold
meat
00
mobilisation
44
entered
nastere
nea@@
electronice
exploatarea
42
ocupare
escu
legala
acuzatiile
governing
marine
usa
viziune
answers
capit@@
pescuitul
hor@@
species
yemen
murit
maritim
uniform
na@@
monedei
reconciliation
stipe
wto
descoperit
mul@@
modelul
import@@
suplimentara
1990s
served
euobserver
serioasa
niste
initiativele
3rd
imigranti
ingrijorarea
ered
martti
lan@@
proved
surveillance
buckovski
imprumuturi
lis@@
sem@@
acopera
presiunea
ass@@
pollution
put@@
pasi
15th
autonomy
host
estic
spoken
slovacia
macro
libertatilor
atilor
polish
exceptia
born
barnier
beneficieze
lastly
cypriots
polls
2.@@
socio
valabil
perioade
iata
ecti@@
woman
suedia
beneficiul
refuza
depasi
di
exists
spring
belgradului
false
creative
evaluate
organiza
chain
rail
granitelor
formul@@
felt
cin@@
supra@@
alist
alege
sustinuta
consequently
definition
belgia
delighted
consolidare
coeziunea
significance
0.@@
reporting
ation@@
fbih
deciziei
missions
altul
comitetul
grecesti
referinta
river
termenul
conce@@
ess
nica
function
ei@@
alegatorii
ships
ear@@
replace
discriminarii
whatever
transferul
depend
moscow
celorlalte
4,@@
delegatia
mic@@
prevenire
evening
located
vremuri
tem
facand
subiecte
utilizeaza
inform
drawing
universities
omc
capacitatii
islanda
opinii
bio@@
unile
integrity
night
ric@@
interimar
operatiunile
prevederile
unemployed
stan@@
gazprom
meant
trimite
criteriilor
dispozitia
financed
tranzactiile
tehnic
match
experienced
jocurile
7th
coalitie
atacurile
remove
utiliza
requests
turning
criminals
examine
christians
representation
profund
subsidiarity
preocuparile
aplicarii
metode
4th
telekom
tinut
affecting
psd
coopereze
core
applications
numirea
rapide
occurred
valuable
destinat
protejeze
exemple
feed
dur@@
personalului
strike
intalniri
reuniunii
justified
cheltuieli
marile
51
85
leads
summitului
qaeda
indicat
nis
oppose
sensul
conflictelor
rezistenta
eliberarea
8th
abia
ke@@
esenta
mann
coalitia
bunastarea
46
mc@@
himself
electric
editie
imposibil
dimpotriva
kr@@
privatizare
vizite
ex
nationals
raportorilor
spread
banja
wall
egala
producatorilor
preturi
ze@@
americii
amending
comunitate
extinde
comunitatile
presidents
egale
romani
fat@@
white
alitatii
insula
ou
tpii
upcoming
schulz
sil@@
sions
proud
0
camp
nec@@
scazute
tackling
entitled
absenta
den
acuzatii
procesele
37
95
talat
reglementarile
alt@@
0,@@
receiving
advertising
reaction
abordari
vis
abstained
salutam
indeplinit
nivelului
obligatorie
medie
abordeze
functioneze
grija
tensions
investeasca
ismul
mag@@
obicei
happens
mecanismul
ajutam
rele
unesco
intends
penale
marks
types
riscuri
syria
marina
rezerva
section
bazeze
inceperea
rezerve
vari@@
provincia
detalii
suspects
raspunsuri
ros
sedinte
intre@@
viitoarele
dati
efectiv
penalties
solidaritatii
marking
electrica
texts
ages
relativ
asi@@
pofida
í@@
simplification
player
condemn
tonnes
diferentele
adevarul
costul
scurta
isa
sam@@
experiencing
47
proposes
ists
healthy
soci@@
dro@@
negotiated
image
structuri
evalua
ativ
iste
instanta
anuala
club
ously
obtinem
marked
congo
abilitatea
scandal
def@@
competent
hearing
romilor
representing
atorului
acuzati
deb@@
revenue
sincere
tului
parti@@
pursue
observa
contributing
weak
refugee
stakeholders
repetat
parteneriatului
dp
mur@@
provocarilor
echitabil
vic@@
hence
believed
cruciala
sion@@
promises
numita
amintim
2nd
lit@@
taxation
realizeze
clean
battle
route
concentrat
opun
stocks
mother
driving
garanteaza
intentions
latter
liderilor
institutul
version
eng@@
comandantul
boala
generalul
firma
rolului
wishes
yo@@
supervisory
pon@@
+
25@@
erile
atele
posibilul
micro
transmis
oferta
auto
istorie
institutionale
flexibilitate
responsabilitatile
trafic
bon@@
ill@@
geographical
referring
indictees
ki@@
economiilor
bearing
define
comisarului
fiu
lo
emphasised
joc
disposal
carne
arrangements
passenger
cadrului
wealth
speakers
reprezentantilor
londra
asociate
wage
mijloc
credibilitatea
deosebire
protectionism
christofias
ought
sus
encouraged
ath@@
latin
orul
preluat
definite
achievement
detention
costas
constantly
analistii
refused
failing
indeplinite
preparation
but@@
endorsed
miroslav
unique
aproba
ano
agricultorii
adoptarii
uman
instrumentul
promise
threatened
sell
cererii
introduse
izate
sti
aside
constitutie
religioasa
profits
cuvintele
starea
engage
chi@@
lasting
finalizarea
smaller
suspended
erele
ine@@
depline
communications
alimentelor
names
sustinere
regretabil
vet@@
riscurile
vecinii
violente
bancare
greens
intelegem
cotidianul
satisfied
elsewhere
eva
intellectual
ep@@
specul@@
38
tratate
pos@@
attend
opune
music
frauda
dairy
nice
exp@@
reaza
vorbeste
bazele
apar@@
dem@@
modernizarea
optiune
confruntat
managing
organise
lipsei
undoubtedly
telecom
trend
widespread
pactului
speeches
switzerland
domin@@
easily
41
cartea
blic
madeira
plen
17th
economically
fica
hy@@
australia
fice
operatiuni
reprezinte
marketing
9th
obiectul
producatori
not@@
acknowledge
wider
seekers
favorabil
aflati
dict@@
david
pic
restore
tender
facts
pap@@
promovare
fenomen
lay
armonizarea
slow
founded
esti@@
familia
extending
proof
incidents
tragic
shi@@
exclusive
saa
constitutionala
eventually
negotiate
alise
coherent
constitui
backed
putinta
societatile
bridge
inalte
rezultatelor
careful
generations
informal
increderii
urg@@
comm@@
foundations
automobile
legile
facilitarea
phone
vicepresedinte
courage
incentives
hasani
fra@@
s.
scoli
port@@
considerabile
fabrica
tru@@
lessons
nation@@
logic
personnel
centr@@
recunosc
guardian
beneficial
ness
organiz@@
losing
indic@@
gandesc
echilibrat
decline
game
recunoasca
vmro
oricarei
transit
petersen
schimbe
assume
jic
tinta
teritoriale
pozitiei
relatively
super@@
arguments
modernisation
sl@@
tarie
lawmakers
struggle
echipei
19th
priv@@
detrimentul
appointed
cereri
asigurare
modificarile
politician
indicators
utilizeze
ivica
sha@@
barcelona
incercare
expects
bureaucracy
izata
jur@@
practi@@
orthodox
farming
appointment
beneficiile
sublinia
eco@@
greatly
jessen
furnizate
enabling
productive
none
concentra
sentence
democratii
slabe
ater@@
estonia
calcul
sediul
multiannual
absolute
proceed
sexuale
pierderea
5.@@
materiale
expansion
intensificarea
nu@@
abordeaza
trupele
parcurs
maghiara
israelul
platilor
dim@@
esuat
cererile
acelor
candidati
austrian
macedonene
bot@@
tab@@
crimele
covering
nobel
distanta
familii
stare
deseuri
izat
greaca
importurile
consolidam
stimati
roads
race
exprimate
possibilities
ini@@
assure
dezbatem
6.@@
down@@
principalii
respectarii
units
aki
afacerile
profunda
sprijinului
succeeded
expensive
istorice
ping
sdp
decisiv
5,@@
drafted
finante
signs
adresate
provocate
poorest
dificultatile
lag@@
detin
pozitiile
mac@@
local@@
ol
birth
aspectul
angajamente
willingness
exercitiului
sexuala
radioactive
faceti
nume
val
antul
familiilor
pi
delegatiei
vit@@
nationalist
autoritatii
6,@@
echo
unilor
ja@@
det@@
insasi
fon@@
exit
brief
uta
obtained
apropie
aud@@
arestati
adapt
jocurilor
concentrate
folosim
employers
doubts
detail
marca
itare
ambition
frontierele
count
durabil
arti@@
63
student
accentul
industriala
widely
inst@@
solutiona
oricine
knows
robert
ambelor
cauzate
puterii
da@@
libertatile
blue
granitei
sera
operator
ameninta
ignore
tourist
slovenian
alesi
phenomenon
sun@@
favourable
relatie
toamna
initiala
societatilor
adunarea
vu@@
libertati
entul
apar
houses
stranse
2050
taiwan
prezentarea
intelligence
destruction
accompanied
imbunatatirii
lim@@
waters
check
transparente
ud@@
follows
unitate
39
strength
itatile
streets
citizenship
sume
rap@@
ani@@
responsabilitatii
prevazut
considers
abordat
credible
sales
instrumentelor
salaries
retea
siria
supreme
anovic
sending
ula
producing
vanzarea
pun@@
couple
removed
invit
chapter
sky
entelor
cup
preserve
alocarea
alternativi
pregatite
vast
conduc@@
integral
patri@@
situat
laura
soviet
inchise
jumatatea
repet
1996
lau@@
collaboration
macedoneni
spaniola
asteptat
preventive
endorse
organism
ova
clauza
dss
inovarea
visits
investing
executia
datoreaza
olimpice
sw@@
formed
ado@@
deals
lactate
hour
constructiv
hospital
affects
ridicarea
sat
11th
domnia
preia
dar@@
discriminarea
declarations
solutionare
privata
seat
dpmne
devin
54
combaterii
net@@
subliniem
quarter
ning
minim@@
deseori
del@@
angajatii
adunarii
capacitate
sho@@
1993
intensifice
counter
zonelor
undertaken
elementele
catch
hot@@
indreapta
resource
entii
recomanda
carte
arestare
proportion
aplicat
newly
borisov
oportunitatile
calcul@@
kg
amongst
female
og@@
concentreaza
ces@@
izare
zo@@
conflicte
desfasura
nat@@
tragedy
dunarii
coal
initially
rus
forests
transitional
incalcari
deeply
56
atitudinea
moscova
rugova
actioneaza
wh@@
delays
mecanismele
sii
concret
michael
ilo
secolul
named
moved
legitimacy
nevoilor
votam
formata
platform
gazelor
apei
multumita
maternity
absence
ins@@
agentiilor
visitors
critici
invited
pasok
software
transparentei
instability
story
scaderea
permitem
pil@@
confident
interventia
reducerii
intregime
proprie
spatiului
ref@@
cota
intensive
bi
strans
monetara
cutting
hen@@
listen
cerem
cons@@
elvetia
intrebarile
redresarea
evaluari
cnn
revenues
indicted
if@@
nonetheless
personalul
presedintie
comunist
comentarii
constructie
restrictii
ster@@
aferent
maintained
tratamentul
manifest@@
actors
luptei
drop
stiintifica
mandatory
hol@@
imagin@@
contained
tinem
constitu@@
cazurilor
causing
initiate
mostar
simplify
echilibrul
gata
lac@@
ucisi
societies
spuna
alexander
constitute
ech@@
vada
ide@@
ministrilor
mijlocul
stefan
intarziere
incurajarea
martin
sufficiently
noroc
lobby
capabila
dublin
ie@@
exporturile
drafting
retelelor
competitivitate
procurorii
fiecarei
entele
cehe
nes@@
consumul
imported
raz@@
deaths
imaginea
dead
weekend
cerinta
possibly
privitor
abilitate
ratified
mexico
consolidata
demonstra
larger
contrast
combined
demographic
natiunile
traditionale
embassy
dui
wine
primavara
fre@@
portuguese
afectata
debating
loc@@
jose
davutoglu
josipovic
repeatedly
echilibrata
ities
manufacturers
precizat
determinarea
journalist
salariile
rezolve
2,@@
atelor
28th
functional
john
veniturilor
intense
practicile
sedere
supposed
regenerabila
highlights
preparations
destroyed
features
clima
conferinte
reflected
afirmand
moderne
ult@@
observers
headed
olanda
bugete
verdict
freely
ila
extraordinary
amended
bulgari
constitutiei
dinkic
primii
urging
suplimentar
evski
tice
invitation
bis@@
sit@@
sfor
rice
understood
directed
pregatire
desfasurate
carla
anda
16th
liberties
prioritatea
documentelor
disputes
autoritate
flo@@
realizam
bin@@
oficiul
inovarii
ade
iranul
minoritati
lanka
ently
performanta
honest
scri@@
contain
depasit
internationally
prosecution
conflictele
olympics
oferind
profesor
vienna
que
ens
welcomes
conventiei
izeze
railway
flows
ship
suveranitatea
initiativei
conf@@
ves@@
9.@@
reprezentand
pav@@
mel@@
hotararea
functiona
feeling
regula
zilei
inside
acknowledged
bile
razboiul
diferente
rome
isation
legilor
conver@@
extinderii
impresia
echipamente
ss
propun
je@@
constructiva
concert
sum@@
unea
negre
banilor
nerabdare
cursa
presentation
ish
atata
democrata
immunity
ament
indictment
piece
returned
cifrele
dovedi
gaz@@
urmarit
bloomberg
ista
react
ined
competitiva
faith
transferred
afford
dispozitiile
ret@@
sor@@
zimbabwe
kos
iri
complaints
baroneasa
salariilor
appreciate
search
criminalitatii
relates
focusing
termin@@
shares
dnevnik
entering
sporite
firme
62
creditelor
sab@@
stimul@@
lasat
analyst
desfasurata
finale
provincie
patient
populations
continuat
torture
modalitati
trecem
1989
clinton
tehnologia
vieti
incurajeaza
lupte
frecvent
limitat
kic
deficits
imigratia
pur@@
akis
antilor
consolidat
allegedly
respectam
aca
bol@@
certainty
worrying
inchis
burg
socialistilor
remained
articol
implicare
milo
retelele
identifica
humanity
intample
etc.
numelui
multiple
draskovic
impression
locuinte
shortly
obliged
asumat
tough
controlului
fying
restrictive
patrulea
sen
utmost
dispozitii
bulgare
abordate
13th
rescue
consent
substance
platit
lovitura
han
alele
closing
suspect
wages
entitati
qualified
connected
minoritatile
filmul
bun@@
transfrontaliera
privesc
collapse
ajutat
vreo
solida
municipality
ria
14th
voteze
competences
surely
barrot
percentage
arului
gri@@
taxelor
covers
jaap
pragul
convingerea
miscarea
extra
dynamic
locuitori
ats
amid
ancheta
turisti
ela
unprecedented
ey
iv@@
commit
suspected
regrettable
ty
discurs
owners
mearga
treaba
christmas
participated
funded
pacific
europenii
anterioara
arhiva
milion
radi@@
bunurilor
victim
tiilor
praised
3,@@
incheiate
pierderi
categorii
multianual
ilegali
iu
alizate
latina
processing
bus
cladirilor
scrisoare
investigations
protejate
station
insufficient
mehmet
conceptul
invested
emisa
offices
sco@@
checks
citing
ajung
sporit
ber
cifre
picture
maritima
expressing
latvia
cumpara
majoritatii
initi@@
claimed
imigratiei
cuprinzator
extins
ajul
inculpati
intregului
grow
istorica
earthquake
albanezii
angajatilor
comentariile
sursele
hotarare
armenia
obstacle
moon
heading
reconstructie
limitate
sex
artists
mobilitatea
indeosebi
class
investigate
aliza
meaning
opera
mediapool
ley
niko@@
finished
memorandum
lip@@
ecb
condition@@
incantata
essentially
acted
unions
insulei
taxele
ć
physical
explicit
elaboreze
cited
macedoneana
kosovare
parlamentele
somewhat
greeks
muslims
correctly
pillar
cent@@
contribuabililor
repeated
fukushima
timely
ner@@
supporters
organismele
solicite
viena
presedintii
intreprinse
greenhouse
spunand
ace
occasions
fotbal
meets
carea
blocked
extinsa
linii
viable
separat
incepem
organe
irregularities
berg
lic
respectat
garantie
ering
terrorists
falls
jurnalistilor
perioadei
clarify
depind
subsidiaritatii
eli@@
risca
sala
undermine
redundant
scientists
killing
metri
rit@@
penala
eyes
chp
rapidly
english
indirect
ax@@
incurajam
ring
slav@@
conduca
broader
66
ceku
finanta
retelei
federatia
helps
moves
revised
urgente
diplomat
parlamentarii
sig@@
efficiently
tells
municipal
mes@@
veto
voturilor
accessible
actiunii
muntenegrean
allocation
avi@@
sarcini
condemned
ciocoiu
pasageri
ur
turile
readiness
bil
politi@@
ocupe
propunerilor
gl@@
extensive
stimulente
aderat
stabilita
ces
tras@@
kosor
studiul
deschidere
datoriilor
constructii
potentially
zaman
category
dubla
finantate
glad
items
uncertainty
remarcat
organizeze
demo@@
daniel
ingrijoratoare
detin@@
speculative
edi@@
ona
expozitie
imp@@
advanced
8.@@
efectelor
topics
dezastre
folosita
cladiri
pul@@
deze
jointly
nicosia
vujanovic
io@@
bec@@
facto
rou@@
makers
consolidarii
solved
numarat
belief
accidents
ecologic
opereaza
pachetului
hab@@
video
nomin@@
stirilor
partnerships
delegations
prevederi
dezbaterile
nobody
diver@@
25th
ely
fundament@@
privim
supus
san
purtate
locuiesc
ys
asteptarile
achievements
sensible
puts
limitata
denied
necessity
criminale
afraid
greseala
cumpar@@
interzice
quick
pel@@
alongside
fu@@
noting
fishermen
ambitions
suedeza
calatori
macroeconomic
islam@@
gor@@
itatilor
erelor
bureaucratic
ownership
americani
formarii
retain
poll
emo@@
libyan
locului
argue
boli
solvit
firmele
asociatia
colon@@
public@@
popul@@
irlandez
announcement
shortcomings
opus
environmentally
filme
discutate
boosting
feroviar
pacientii
depaseasca
tangible
pan
acuzare
sake
particip@@
pastra
undp
admit
53
tradition
ucis
ically
maxima
disponibilitatea
ivanov
linie
necesitatii
aver@@
watch
college
duca
aparitia
map
vitala
command
dolari
newspaper
pagina
annually
flow
enii
existent
compete
urmator
hoping
posibilitati
applicable
amb@@
controlled
explanations
utilizata
ismului
obiectivului
ceara
limitele
iul
accent
functionarii
allies
fairly
ficarea
treaca
urmeze
justifica
urgency
legisl@@
procent
respects
privacy
procese
nota
amintesc
vietile
etnica
intrebarii
inconjurator
treptat
copilului
eventual
superior
headquarters
implementare
subliniind
patrimoniului
reding
agre@@
blerta
comunicat
norm@@
interzicerea
1997
smart
rez@@
paddy
fun@@
discovered
looks
dem
agricultorilor
contra
identificarea
stav@@
convergence
favor@@
adriatic
comandant
asigurat
administratie
solely
substante
adaug
bos@@
gathered
evolutia
inform@@
everybody
orasele
ics
introduca
similara
pregateste
stabilire
flights
sf@@
estimates
vicepremierul
18th
reuniuni
iraqi
studenti
son@@
authorisation
mentinem
ero@@
contacts
regimes
mobilitate
circumstante
complic@@
coordinate
assessments
arate
deserve
actualei
aprobata
liberals
conduse
asociatiei
coast
numeroasele
dispune
vorbitor
accord
importantly
maternitate
itorii
economici
referendumul
books
intalni
patent
ideal
kinds
biroului
52
decida
bugetele
intrebat
foremost
reflects
aplicata
ya
engagement
talked
participare
competentelor
defending
reactia
67
inchei
jazz
aje
riscului
optiuni
dare
harmonised
rely
composition
bila
massacre
primeste
conservarea
privatizarea
fal@@
luare
spite
unnecessary
parallel
vreodata
euractiv
rama
merg
consultations
americana
sim
uciderea
prezentei
23rd
arch@@
putina
30th
internetului
reglementarilor
doriti
geo@@
complexe
creates
reunit
é
ratei
asasinarea
dumping
dezvoltat
aniversare
ofiteri
delegatie
lovit
pir@@
judiciara
exclude
dual
foniqi
ric
fragile
website
locuitorii
nastase
substantiale
armelor
ciprul
sing@@
aud
crizelor
wind
ratificat
tibet
stabila
proven
cancún
inadequate
gestionarii
inacceptabila
amenintari
organ
makfax
underline
consult@@
ited
quotas
reiterat
incurajeze
desfasurarea
aparea
22nd
wil@@
haradinaj
vo
7.@@
prim@@
exemplul
sul
thorough
investitie
femeie
arctica
klaus
ish@@
usoara
illegally
stabil@@
chapters
sustinute
reveni
asigur
rezulta
compromisul
obligatii
ivanovic
bania
initiated
colectarea
reinforce
visible
credeti
movie
lie
floods
background
sm
nikolovski
57
interpretation
indeplinesc
regulated
wor@@
iii
cerintelor
expense
esec
repetate
parea
purchase
impus
absoluta
germana
agricultori
64
intalnirii
propriilor
interesati
conservative
kan@@
mark@@
ji@@
consolidation
protejam
raspundere
investitorilor
hr@@
deocamdata
usually
1,5
petrecut
cauzat
unitati
blame
participantii
autumn
departamentul
echitabile
coastal
expresie
brutal
fears
fermitate
ah
imbalances
advice
finalizat
vestul
revista
ched
kovski
27th
ena
nel@@
warrant
arrests
catorva
functionare
prospect
oficialilor
irakului
markovic
telor
obliga
oarecare
wake
administrativa
cards
victorie
revolution
difficulty
apo@@
cunoaste
invatat
gama
coalitiei
replaced
evite
viewed
visiting
reply
dul
opri
constanta
cau@@
mistakes
begun
efd
prob@@
exercitiul
consistency
insistat
voce
maj@@
genocid
biodiversitatii
bce
harmful
cauzele
asuma
prelua
die
umanitara
saraci
debated
dev@@
consum
popescu
c7
supusa
undertaking
occasion
frequently
identitate
amend
lapte
sav@@
gambling
arrangement
wal@@
banned
serving
punishment
coopera
incheiere
naz@@
minut
transformarea
facilitating
primarul
alelor
donors
dependence
cai
storage
formula
babacan
tolerance
propriu
preocupari
fewer
caracterul
resort
census
suggests
constient
mining
moderna
wrote
antii
conventions
comisari
routes
inteligente
verheugen
ldk
intoarce
backing
lansata
musulmani
hrana
ino
cant@@
stimula
alised
tel
diplomacy
genera
aviz
glo@@
vreun
indicate
pensiilor
spuneti
zilele
actu@@
ferme
riscurilor
fri@@
ascultat
hi
professionals
raportoarei
engaged
marilor
ger
preocupare
mar
inteleaga
parlamentari
formulate
inima
saving
stu@@
occur
transportation
appropriations
dan
kofi
tiva
mainile
capabili
realizata
dusan
opposite
completion
victoria
buni
explicatii
prominent
gross
evacu@@
mer
set@@
consequence
fell
spuse
cunosc
cam
clas@@
telefonie
mem@@
asigurarii
platforma
rutier
constitutes
avantaj
imparti@@
alegere
nor@@
trans
vin@@
person@@
demonstrates
lampedusa
raportoarea
bulgara
premi@@
infractiuni
motiv@@
98
neaparat
mexic
delivered
older
masini
rexhepi
osi
angel@@
terrible
cad@@
investi
asist@@
terorismul
orientarile
condamna
marfuri
train
inregistreaza
strat@@
ratificarea
programata
turnout
cod
suggestions
revine
ruled
ha
drive
elabora
internetul
sees
investitorii
intentiile
injured
rile
apele
salv@@
promoted
ff
gazduit
except
finish
title
let@@
aleksandar
ement
films
duc
mines
telecomunicatii
expertise
inclusive
deutsche
urbane
respecting
ws
muzica
witness
fied
uc@@
prevented
comparativ
sentenced
islam
biserica
entrepreneurs
intervene
extra@@
fis@@
gained
specific@@
expand
retrospectiva
9,@@
debts
deceniu
evitam
atent
orientari
star
independenti
invatamant
apreciez
oarecum
ljajic
pnr
imposing
diversitatea
multumi
tape
calatorie
tun@@
consecventa
apelul
mobila
territories
agrees
cen@@
square
initiale
infr@@
exploat@@
design
guilty
ceremonia
mustafa
gradually
economist
unitatea
ran
fifth
ned
emise
verhofstadt
brut
61
alatura
unanimitate
viziteaza
depunem
viziunea
26th
handed
sondaj
imbunatatim
tehnologiei
fires
anim@@
scazuta
atlantica
ape
pedepsei
fails
populare
drag@@
motor
uriase
concluzii
opens
ageing
petrolului
vac@@
aprovizionare
hosted
accountability
cec
intocmit
aprovizionarii
whereas
facebook
acy
removal
ibrahim
campaniei
alizat
ped
negociat
posibilitate
compl@@
telecommunications
cit@@
justitia
eurovision
reconstructia
dacic
mercosur
partly
7,@@
cum@@
ank@@
terorism
iting
avantaje
frontierelor
attract
foster
diplomats
actionat
surrounding
passports
schemes
posibilitatile
participanti
abolition
codecision
reprezentata
treime
fiindca
lov@@
cia
coelho
manipul@@
uita
climat
acoperi
inhabitants
ener@@
profita
peter
operatiunea
colective
cy@@
favorabila
urmatoarei
somalia
wonder
uti
resistance
discutia
1,000
platile
avertizeaza
atmosphere
sac@@
depunerea
pastreze
qualifications
militari
exception
efectul
ders
promovam
urmand
oettinger
colaborarea
tranzit
telling
realizare
protejeaza
initiat
slab
teatru
trebuia
notes
test@@
atare
legaturile
dam@@
lansa
jurnalisti
peacekeeping
score
afirm
viteza
ich
datorii
invita
corporate
commerce
num@@
iugoslave
beings
observed
google
implementarii
cic
outstanding
hunger
rotating
ambitioasa
balcanica
operatiune
sum
materi@@
raw
constructiilor
intregi
withdraw
mentionand
edition
personala
winter
ignora
verzilor
deschida
kir@@
rezonabil
construiasca
pac@@
camere
reiterated
lat@@
proprietatea
optimism
sl
prefer@@
produsul
selling
detained
twice
ample
worthy
operatiunilor
refuzul
invent@@
felicitat
sefii
opel
raspund
inzko
mut@@
analizeze
pose
atac@@
mps
stimularea
luxembourg
aeriana
mistake
furnizeze
tional
presenting
fena
towns
regulilor
teams
aveau
monitoriza
ingrijire
disabled
basel
delayed
scrutiny
azerbaijan
detaliu
consolideaza
institutionala
ot
sahara
observe
plan@@
departamentului
championship
58
luati
producerea
imb@@
descuraj@@
elderly
respinge
aren@@
angajare
mers
remedi@@
tariff
publicate
avantajele
monetar
lehne
coordonata
baltice
sr@@
genuinely
sarcinile
servi
outlined
nic
recomandarea
civili
davor
milososki
indemn
choices
avizul
allegations
coe
rezolvate
evolutii
satisfactory
miliard
laz@@
ecolog@@
dele
maxim
tac@@
judecata
demonstreze
efectuata
aries
kil@@
advantages
mia
mentiona
alimentar
surprised
reiterate
obligatiilor
distrugerea
milovanovic
ezi
itat
limbi
incidente
relax@@
ancient
serves
marginea
aria
eufor
fapte
excesiv
pericolul
deserves
absurd
factorii
gets
cop@@
purtat
tripartite
forestiere
evic
curajul
crimelor
oricand
considerably
zel@@
threshold
cipriotii
capabile
etichetarea
sansele
plas@@
adverse
finantat
sarbesti
sup@@
fresh
68
ver
activists
inclusa
serv@@
sm@@
ill
magazine
amendamentelor
reducem
respectively
indata
tensiunile
impuna
implications
candidatura
misiuni
crossing
petitions
publici
tobacco
dezbate
presents
cresteri
pasnica
millennium
franceza
clasa
continuation
ths
ajutoare
punand
mot@@
autor@@
prioritare
fizice
consumului
desfasoare
clarity
inteligenta
winner
aprobate
č@@
decentralisation
sanctiunile
š@@
99
flag
stopped
creata
urmari
impunerea
launching
wave
democrate
teme
aferente
dedicat
inte
va@@
chestiunii
rul@@
partenerilor
feature
actele
strada
mediteraneene
campaigns
dropped
detentie
grade
exclu@@
aminte
recunoscator
retirement
besides
destination
kyoto
amendamentului
reserves
neglij@@
ros@@
compulsory
modificat
mentionata
tour
ochii
ens@@
hopefully
lungi
indeplineste
furnizeaza
durres
ok
aspirations
suspendarea
sanction@@
pretului
obligati
richard
terror
ebrd
regarded
insusi
ly@@
kat@@
multumiti
convergenta
ilic
finalul
league
gradul
recognises
vla@@
discipline
medicamentelor
copil
tuna
ind@@
ration@@
alii
slab@@
lucr@@
alia
excesive
restructurarea
shape
referit
ars
intru
provocarea
instruc@@
romanians
vessels
randuri
aducem
plasat
siguri
convince
kurdistan
sah@@
falling
sdsm
elaborate
stressing
fili@@
imigrantilor
attractive
recommended
salary
disappointed
reciproce
12@@
articles
favorabile
islands
usaid
germaniei
motions
urii
programming
erul
concluzia
considerabila
valentin
utila
hoped
lists
lig@@
dovedeste
berisa
postului
oli@@
cautarea
gulf
ingrijorati
researchers
barbatii
amanarea
iile
adaptarea
warming
evolutie
brok
hina
bucurat
mak@@
damaged
recunoscuta
propaganda
exprime
registration
croats
season
dimensiune
demisia
izarii
logica
urmata
enterprise
ratings
mail
producer
berd
executi@@
generatii
sensibile
conturile
sporeasca
renewed
functions
exporturilor
mol@@
models
acti@@
organising
nas@@
110
cotidianului
ampla
proprietatii
ieste
father
limitarea
bakoyannis
teritoriu
unora
career
consultare
toleranta
extrema
farms
associations
primei
relevanta
limiteaza
struck
bin
steel
nebojsa
hurriyet
sorry
alising
travelling
precis
comis
reprezentate
29th
codecizie
deseurile
undertake
atmosfera
grele
prev@@
calm
timber
vers
officer
solide
kova
retragerea
topi
orientation
audi@@
potrivita
stages
dedicated
transmit
uniuni
aut@@
pretext
infiintata
ascunde
congress
bosniace
59
traditions
aged
fermierii
coach
chestiunilor
extern
competitia
mp
stimulate
investitori
antele
conservation
letonia
scene
recall
ents
frontiere
lap@@
transposition
haj@@
icii
enorm
cope
critic
mobil@@
credinta
harm
temerile
messages
jur
modifica
coeziunii
intelligent
turkmenistan
appeared
inutile
complet@@
ess@@
bloc@@
tor
estimate
insisted
protocolul
investigatii
meta
avo@@
spect@@
corec@@
evidentiat
invitat
redundancies
controale
crimin@@
cra@@
istii
fulfilled
evidente
8,@@
computer
inalti
78
blocat
plur@@
rational
lucrarilor
satisfaction
accelerate
parintii
label
radic@@
guvern@@
alului
lipseste
secrete
24th
oricare
las@@
uses
petar
persecution
urges
irile
location
frantei
legislatii
treat
intergovernmental
belong
medicamentele
tribune
variety
extr@@
ecological
hotel
impuls
recorded
discrimin@@
prevazuta
enorme
acceptam
1.5
baj@@
recunoastere
convinge
doctors
entului
lawyer
margin@@
muzeul
ving
distribu@@
momentum
assassination
chances
dificultate
compens@@
slaba
premier
herald
imediate
oferita
israelului
petitii
tibet@@
eeas
cvetkovic
deployment
vehicle
ngo
eroare
depth
propuna
solutiile
rati@@
actul
categoric
comisiilor
placing
distributie
recesiune
folosind
findings
seventh
preliminary
ease
ff@@
menit
plin
intelectuala
bb@@
blocking
sp
manager
exchanges
circa
fies
02@@
unita
stop@@
britanici
puterile
friend
monitored
continuu
pragmatic
promovarii
exercite
aspectelor
cazut
defining
nov@@
angajeze
listed
interpre@@
ensured
airports
factory
duc@@
liu
plecat
asumate
renunta
ordin
logical
alb@@
pharmaceutical
gy@@
demanded
entertainment
dure
goldstone
exploatarii
ngl
scan@@
abordata
tig@@
optimistic
conducta
moarte
alizata
determinata
actori
slightly
informati
islamice
djelic
arising
upi
regularly
calin
ances
democratisation
errors
microsoft
grants
gun@@
consistently
ovska
ficat
operationale
simplified
od
beneficiaries
satul
toler@@
gratie
investit
bureau
publicly
trials
ports
dimensiuni
ficata
statute
openness
chemical
blo@@
pressing
rose
indicatori
bosniak
muhamet
construit
proteste
winning
venezuela
capabil
han@@
noti@@
originea
livestock
adds
amenintarea
ivan@@
tens
arise
umanitatii
major@@
achizitiile
turk@@
ministerial
tehnologice
dezvoltam
ns
izeaza
desemnat
campanii
att@@
albastru
aci@@
baze
83
optim@@
indicator
engleza
cred@@
mental
clasi@@
incapacitatea
prezente
politicienilor
semnul
sesiunea
depaseste
ajungand
arm
nave
mod@@
iza
universitati
maybe
istoriei
genereaza
intensifica
madrid
somaj
subsequent
ji
pregati
inaintate
formally
intrarii
implementat
kabashi
lucrul
digitala
revina
prefera
afle
rein@@
putini
hidro@@
marcat
advocate
lowest
dispunem
propunem
guard
convinsa
feder@@
residence
pot@@
ik
bs
vlado
turks
accusations
ments
itori
voie
necessarily
renunte
exper@@
siune
intampina
refuse
distance
pdk
quo
operatorii
subsequently
bet@@
governmental
ritmul
repression
apartin
opiniei
collected
foods
kur@@
fans
automat
cerand
vehicule
robust
finland
prosperitate
district
asi
esecul
passing
definirea
electrical
ordered
ucrainei
1994
alature
echitabila
separ@@
und
88
,@@
etnic
sacri@@
intele
action@@
contracte
surprise
tax@@
lasam
fericire
dumnealui
900
manufacturing
impozitare
bunurile
institutia
vanzare
raises
non@@
displaced
guvernantei
gresita
responsabilitati
abuses
popoarelor
b7
côte
accesibile
cunostinte
hardly
regulat
extinse
sel
minor
realiz@@
mul
vocational
tajani
restricted
situatiile
statisticile
provoaca
trends
sentinta
traim
prof@@
weight
extinda
categories
nascut
solving
assad
femeii
maghiare
amiaza
ising
trimita
cruciale
meg@@
underlying
rosu
indoieli
stea@@
inceteze
complexa
recommend
ficate
briefly
dezbatut
liberalizare
implementeze
secolului
rezolvata
periods
cunoscuta
cal
generatie
providers
binele
trip
institutului
temporara
geografice
accelerarea
conteaza
padurilor
resignation
neighbour
actualele
arrive
incerce
directorate
migratiei
dinamica
agentie
cunoscute
organisme
72
ency
atica
pacienti
volume
broadcasting
tur
aman@@
tipul
assured
coordonate
consumatorului
accounting
caderea
revin
deci@@
performed
platite
maria
disagree
protejarii
accelera
carti
problematic
bit@@
iasca
stabil
respingerea
famous
obligatie
pastrarea
scuze
uriasa
interference
transformat
durat
cites
calatoresc
creare
populara
excluded
mus@@
drivers
evidentiaza
expozitia
primar
unlike
casele
trecute
actelor
sentences
poses
apartine
realised
justify
ministries
prot@@
buying
awarded
statistical
vor@@
jas@@
zilnic
perform
teachers
mileniului
reusita
basically
wel@@
antului
victima
sentimentul
lupt@@
jurisdiction
kosovara
preocuparea
comportament
schimburile
africii
categoria
identificat
maghiar
intors
enables
regulating
comportamentul
ogra@@
350
cupa
invite
mijloacelor
efectua
aircraft
eligible
purely
prealabila
exclusively
lemn
implicata
fer
capitole
strain
halt
ira
subventii
accurate
extradition
apare
procedural
valid
municipalitati
instal@@
ved
secular
isolation
permitand
roman@@
permanente
vremea
listened
evolutiile
experiences
platesc
filip
mirko
armonizare
lev@@
itarea
bolilor
owner
introducerii
refers
dosar
premierului
cotelor
safeguarding
sentiment
bly
daunatoare
germane
voluntar
premiu
vorbeasca
sociali
vojvodina
totalul
iesc
mergem
observ@@
iesi
atory
critics
academic
recomandat
gan@@
iugoslava
alegatorilor
ward
alimentele
fostei
intr@@
contest
governor
achizitii
regulamente
fosti
bajram
cii
promotes
sia
zeljko
seae
contributiile
fate
destinatie
tanjug
shift
cunoastem
centralele
generat
contributes
parasit
entilor
ny
demografice
identificate
fought
planificate
etc
alaturat
globalizarii
integritatea
incentive
garantam
index
comanda
banana
dates
traieste
afternoon
moduri
inlocu@@
costisitoare
teste
moisiu
repatri@@
ideile
pensiile
capabilities
ultimelor
antelor
authorised
gasesc
ame
explanation
proliferation
lucrari
stojanovska
dy
ier
vas@@
acceptarea
conect@@
gazduieste
tam@@
const@@
concessions
brammertz
deficitului
comun@@
ocupat
diversele
g17
urez
nevoiti
alu@@
stricta
fe
protest@@
metodele
turce
pays
semneze
creditele
alismul
mediator
invata
dubrovnik
constituit
vehiculele
describing
bic@@
elimine
prlenda
republici
siunea
nano
coherence
vorb@@
pasagerii
ys@@
disabilities
arena
timpului
kers
notably
araba
doors
invins
acceptabil
smuggling
prietenii
lived
chimice
ulterioara
learned
almunia
cartei
orientare
uit
suspension
administr@@
iranului
alegatori
subjects
cati
ajului
modalitatea
tehnologica
artisti
bound
prioritatilor
returning
emphasises
accordingly
critice
soarta
cuprinse
menita
medicinal
intern@@
detinute
atacurilor
systematic
demonstrations
suport@@
ton@@
hadzic
econom@@
ich@@
circul@@
ordinii
fixed
waiver
shot
restructurare
placere
sincerely
alista
titlul
pregatirile
excesiva
intelor
studentii
pending
report@@
depasirea
ficarii
echipe
142
noapte
prezentare
unanimously
hom@@
5,000
mep
presiunii
ocup@@
medvedev
emergente
declaratiei
mes
iesit
perfectly
afirmatiile
vocea
function@@
mobilise
berlusconi
ners
modalitatile
iarna
pilon
pasnice
avantajul
welle
transfers
ris
rac@@
w.
capacities
investigatie
ó@@
filed
openly
0m
aging
bogate
climei
obtaining
ratele
craciun
comand@@
imperative
construita
rutiere
insists
dezavantaj@@
circumstantele
cotonou
jurn@@
adaptation
registru
ä@@
importantei
scrisa
incalcarile
locuitor
incetarea
aliz@@
ily
fru@@
kurda
elimination
fines
lunile
dominated
purta
referendumului
brajshori
profile
innocent
land@@
füle
trecerea
granite
2m
trec
dimitris
ung
haris
xinhua
caucasus
withdrawal
destroy
crezut
apere
africane
semne
atea
manag@@
transmiterea
aga
gand@@
urias
uganda
ajele
informatiei
fulfilling
venitul
c6
ratify
prevenirii
bahrain
aiming
stankovic
suspecti
airline
importate
frank
vizate
migratia
ignored
fraudei
gj@@
spaniole
oriented
capacitatile
occidentala
aids
vrut
medic@@
olandez
forgotten
containing
burdens
camerei
marfa
bojana
managers
tabara
orient@@
alizarii
europenilor
error
tribute
altora
formularea
participarii
academy
focuses
exposed
adrian
periculos
dureaza
sea@@
zivkovic
76
macedonians
occidentale
unified
had@@
plat@@
foloseste
konjikusic
dre@@
posed
candidatul
clo@@
contribuind
lacking
vorbind
cote
spir@@
inaugurat
atinga
identitatea
zones
thessaloniki
construim
resident
albanezilor
rezervele
oricarui
approaches
clarifica
ranking
73
planurilor
obtinerii
chancellor
discute
runs
belene
conventie
salarii
restrictiile
arabe
shipping
chinei
preferences
tineret
celorlalti
trupe
supusi
expertilor
doctor
alini@@
alarming
strange
incomes
atura
demonstration
s.@@
retrage
dului
ferate
mand@@
gol@@
eurostat
examined
deficiente
natiune
linia
incer@@
thousand
disponibil@@
ingly
kel@@
vukovar
ion
til@@
11.@@
bonds
fel@@
securing
obstacolele
aplicabile
quote
revealed
inevitabil
romi
norway
ace@@
12.@@
treimi
fruit
impetus
agim
diversi@@
mixed
banane
enhancing
communism
ck
alizeaza
opponents
71
olaf
denmark
expecting
incluzand
angela
candidata
romana
ulterioare
realizeaza
contin
dei
dictator
greva
produca
observam
emerged
paralel
prompt
lansate
utilizam
cooperari
tot@@
educationale
subjected
trac@@
evidentiez
suferinta
ain@@
stabilizarea
ben
implic@@
authors
rock
dispar@@
intrebam
temeri
irlandei
tehnologiile
canadian
lipsit
marovic
liberalizarii
sul@@
reprezent@@
cooper@@
threatening
faster
81
aranj@@
diagnosti@@
fy
paraseasca
decrease
evaluarii
ranging
onor@@
abandon@@
capitalului
anticip@@
nem@@
breach
raportori
tihic
tehnologiilor
stipuleaza
banda
onia
functii
dec@@
ceh
rilor
accelereze
&apos;m
violated
avoiding
denum@@
jurnalistii
publicarea
fugitive
responding
band
krasniqi
sad@@
emerge
ven
fundatia
holiday
impiedice
77
luptam
iesire
equivalent
efectuarea
fum@@
responded
journal
scolile
impozite
cunoastere
91
piracy
stepped
1244
scrutin
earmarked
cally
simplifying
issuing
forumul
salva
competi@@
constatat
inequalities
japanese
inchide
rot@@
oriunde
submineaza
turistice
statistica
customers
solicitari
stiintei
imbunatatite
volumul
medal
82
colo@@
indreptam
portul
centralelor
reflecte
org@@
ficare
dossier
mecanismului
tension
abilitatii
macroeconomice
clearer
recunoscute
raspunsurile
repeta
lor@@
emil
responses
part@@
page
onul
solicitarile
monopoly
ambigu@@
disproportionate
observatii
cinematogra@@
camps
park
rat@@
unda
sloven
130
inundatii
inflatiei
proasta
activ@@
geoana
administrarea
franceze
aeroportul
oni
usual
interdictie
driven
zic
vorbitorul
pushing
rado@@
survive
reunification
red@@
codul
cab@@
datoriile
handling
deplas@@
efectueze
cefta
duri
ational
nigeria
hazardous
migratie
thirds
treptata
inov@@
89
guinea
recognising
modificate
passport
bru@@
bozidar
int
barbutov
transmitem
invo@@
plina
serii
distruge
indication
,5
perpetrators
reform@@
resumed
animalele
prevad
symbol
fic
ion@@
capitol
premiului
awards
comunic@@
140
situeaza
destinata
specii
ridice
organs
oricum
autonomie
presedintilor
retired
pleasure
3m
etic
plenara
spectrum
rev@@
cererilor
jacques
stea
ingrijoreaza
cast@@
urmaresc
imbunatatita
negoci@@
arguing
disparities
religie
eliminat
bulgar@@
counterfeiting
highway
abs@@
erasmus
evitarea
uci@@
sprijinita
swoboda
preocupa
piatra
verific@@
transaction
judecatorii
acces@@
autonomous
mothers
aplic@@
momente
beneficiat
aspir@@
adunat
zat
convicted
ambasada
solutionata
secretarului
eur@@
faliment
stringent
spor@@
bay@@
waldner
unitatii
characteristics
cast
examina
argued
comunicatiilor
abuz
intel@@
tei
answered
anunta
limit@@
bak@@
reluarea
etul
frecvente
obisnuiti
aleaga
deport@@
purt@@
kovacevic
interesant
someri
siuni
produc
inregistrarea
sight
69
confederal
counts
miscarii
marko
vaccin@@
continut
cold
reductions
profesionisti
ption
acceptance
prevederilor
multime
planificarea
construite
amentele
alba
bag@@
orului
orilor
aceia
citit
ocazii
bar
atenti
urmariti
urmarirea
relationships
multumiri
ery
ationala
programate
interzis
pasnic
dezastrelor
law@@
congratulations
singure
comparison
bucuros
ator@@
preliminare
inregistra
badly
reconciliere
aprobare
back@@
harbour
slovak
expuse
ensures
soil
observ
criticile
consecintelor
remuner@@
vizele
finlanda
contributii
traiasca
cariera
pastram
celalalt
unfortunate
distribuirea
importurilor
progresiste
ecofin
spaniol
asigurand
emission
secondary
everywhere
solicitand
declar
anu
restriction@@
rejection
controla
numerosi
preservation
ingrijorat
primite
ukrainian
golden
estimat
oglu
wife
broadband
onoare
relief
nationalism
love
aloca
decizional
air@@
economics
ottoman
clauses
export@@
stresses
decre@@
masina
experiment@@
supravegherii
tortura
doesn
morocco
stal@@
originally
detaliate
explic@@
planet
locuintele
jude@@
trateaza
transformation
strictly
hler
masive
kl@@
damaging
ranks
schilling
romane
forestry
ately
tai@@
prin@@
invitatia
stick
implementa
thanking
resettlement
angaj@@
labus
acordarii
boycott
smoking
enjoyed
contractual
anticipeaza
gradual
cunostinta
returns
stabilirii
lesson
blood
buzek
killings
organizare
stood
implementate
ford
anchet@@
looked
ombudsmanului
atlantice
emite
emigr@@
transforme
hundred
poulos
catherine
planificata
nd
ranked
reflect@@
mentinut
intoarca
coup
tineretul
constienta
licitatie
detaliile
reciprocity
descrie
contest@@
formatiunea
dou@@
credits
raportorii
studiile
reglementeaza
lukashenko
profite
interdictia
blair
substantiala
silajdzic
alizeze
strikes
bac@@
channels
milit@@
retail
barierele
claiming
competitie
caz@@
kri@@
popor
raspunderea
prague
combin@@
regulamentele
intoarcerea
salariul
colegului
jankovic
judgment
polit@@
demnitatea
comercializare
cert
birocratia
corrections
prezentul
wording
schwarz
breaches
atacul
ku
farm
marija
itorilor
jana
dimitrova
avoided
depl@@
fallen
civililor
trecutul
postponed
tare
à
aring
patra
devenind
clarification
concedi@@
kla
solutionate
renewal
amnesty
reservations
argumente
whereby
drumuri
swiss
organismelor
limite
nam@@
dest@@
ans@@
distruse
reactions
bigger
corporation
revizuit
refugiatii
sta@@
indator@@
eam
lem@@
amplu
semna
conducting
fore@@
selected
unresolved
deadlines
apparent
storm
outermost
exemption
claritate
moderate
characterised
74
addresses
belonging
adequately
uz
acuzatiilor
scrie
raniti
insulele
dly
industrii
belgiana
metro@@
cazului
soldatii
hiding
disper@@
informatie
faciliteze
ferrero
96
inei
martorii
ramase
tentativa
nordic
demers
sts
tratatelor
integrat
origin@@
incalcat
plateste
cash
twenty
capture
corrupt
climatul
pursuing
bills
occupation
marcheaza
investim
efectiva
athletes
dateaza
relor
iro@@
antic
stag@@
compromises
disciplina
vorbitori
pillars
inovatie
afirm@@
mere
clashes
breaking
limiting
comentariu
luptat
app@@
donor
liability
transport@@
ures
gerb
alexand@@
militar@@
oarea
stabile
mari@@
flight
conviction
reclam@@
concreta
contractele
definit
aer
sesiunii
nimetz
utile
praga
ast
tas@@
impl@@
acordare
avansa
evalueze
ania
birocratice
analize
ced
franco
abordarii
judecati
exploatare
anov
mladjan
istilor
informarea
usurinta
dejan
dictatorship
ey@@
iter
isic
survival
&apos;re
surrender
pierdem
muncitorilor
provisional
abo@@
informa
citi@@
recentele
totdeauna
preda
cultiv@@
tis
diaspora
posts
sectiunea
harmonise
intervina
unhcr
formation
divertisment
prefer
textului
strive
fly
meantime
wars
extraordinar
desp@@
euronews
simtit
sperante
isolated
jadranka
alternatives
reglementarii
virtu@@
signals
rei
ack@@
cabinetul
dps
urmareasca
finantele
justi@@
investigated
rang
exceptionale
safeguards
document@@
unicef
solutioneze
refusal
centrele
salonic
necesitate
accountable
oficiului
secretariat
intention@@
detinut
semi@@
verifica
worry
sponsored
turk
contribuabilii
liquidity
semnat@@
arts
removing
minoritare
analyse
aste
dere
component
intelegerea
culturi
extraordinara
coordonat
aviatiei
bran@@
intentionam
sie
amentul
shed
evasion
respect@@
pse
acopere
drew
ama
93
memorial
1m
helpful
considerations
rusa
suppliers
jovic
apparently
sole
vre@@
danemarca
medicine
promising
genetic
panel
benefic
my@@
celebrate
dezbaterilor
tz@@
connections
antren@@
liked
suveranitatii
kurzi
struggling
admitted
explains
proceselor
constiinta
realist
journey
vinde
kurds
etape
worried
temporar
acquired
backs
castig@@
els
equ@@
sepa
suedeze
aturi
lv
rusesti
eurobonds
retras
legitime
rezonabile
compatible
rezolvat
sensibil@@
salvgardare
ee
invatam
macro@@
reactii
exceptie
dz@@
numi
dependency
schimbarii
calendar
actualului
aspiratiile
c.
rij@@
pluralism
soren
surplus
maintenance
creand
kemal
sn@@
may@@
maur@@
arele
deasupra
istic
scenario
imperi@@
minoritate
pes@@
symbolic
strongest
demetris
periculoasa
writer
monthly
proba
weaknesses
villages
uno@@
definitiv
orders
jov@@
deputies
bottom
biljana
capitalul
fiat
lifelong
tranzactiilor
establishes
ky@@
assessed
delicate
forming
angajamentelor
complicate
caught
similarly
timetable
rov@@
globally
discriminatory
architecture
decursul
multum@@
renov@@
inacceptabile
barack
reuseste
chem@@
comuniste
sarbo
categorie
protestele
spokesperson
etichetare
amenintarile
hat@@
acuz@@
handle
vicepresedinta
vamal
italiei
pierderile
pack
billions
recomandare
kan
ordonat
fix@@
catastrofa
transfrontalier
sportive
amp@@
dora
tratatele
posibilele
lanseze
aprobe
accidente
char@@
posturi
deployed
asian
oim
inlocui
imensa
schimbam
vski
diplomatica
popoarele
optiunea
ayhan
simsek
th
intei
utilizatorilor
ements
arhi@@
heavily
minoritatii
viitoarei
tuberculosis
tranzitia
ished
sessions
sphere
predarea
frattini
havens
respectand
cilor
secular@@
moder@@
artist
witnesses
promisiunea
oni@@
practicilor
luxemburg
conservatives
suggestion
lantul
furnizarii
varf
receives
precarious
georgiei
promisiunile
ram
sprijinite
incurajat
newspapers
solar
amenintat
attempting
persista
relate
totale
disastrous
crestinilor
liberalilor
argues
channel
sida
disadvantaged
fundamentally
insel@@
abuz@@
angajeaza
republican
prizren
castige
adapted
exceptions
intens
mama
bariere
mr@@
primirea
islamica
sec
devoted
explo@@
suverane
stim@@
asculta
transpunerea
84
georgi@@
resume
birou
nici@@
iling
asista
monitorizeze
che@@
dis
ruta
telephone
sustinand
wed
urne
semnate
imigratie
pointing
voturile
tuzla
strategiile
touch
len@@
divizat
lawyers
datorie
eth@@
birocratie
onto
industri@@
calendarul
gucht
fication
aratam
diversification
simplificare
impun
industriile
prieten@@
ina@@
hospitals
ier@@
indicates
utilizand
felicita
prerequisite
stem
galileo
unt@@
concediu
bosniaca
bah@@
ken@@
31st
protocolului
foodstuffs
negativa
justificata
root
azerbaidjan
mie
accepting
rhetoric
cauzata
suspendat
realizarile
quota
ial
reactionat
incorporate
reserve
jusuf
itul
10.@@
directors
2,000
reprezentanta
movements
dnevnik.bg
suprafata
intarzieri
erori
dezvaluit
acceptabila
urmarim
anna
combustibil
boz@@
drastic
explozi@@
privileg@@
intrebarilor
assumed
abandoned
seze
textelor
tat
sudanul
voices
stricter
baltica
shut
candidacy
colega
marele
insisting
aparent
vulnerabili
corridor
rest@@
cheap
rapoartelor
mediteraneana
piebalgs
catal@@
vietnam
pit@@
observatiile
masacrul
obstruction@@
song
alatur
poti
roc@@
estim@@
reusim
fabric@@
voter
fron@@
migr@@
hag@@
threaten
argumentele
nordica
bought
cli@@
kor@@
eco
cantare@@
descarcarii
squ@@
presupun
seized
.com
caracteristicile
mecanismelor
stiinte
ises
morala
controalelor
attending
rul
tanar
ambi@@
sz@@
repar@@
aflu
unanimous
sand@@
parlamentarilor
ology
centralei
enforce
metres
papadopoulos
tril@@
inaugurata
portal
productivity
mutually
fishery
amplas@@
eliminating
medalii
determining
urmatoarelor
incercand
stimulus
echipament
caf@@
bia
repercussions
financially
mladen
acei
86
ergenekon
bilaterala
witnessed
mediei
severely
objections
girls
pret@@
elling
sustained
pierd
distrus
clauze
speaks
detaliat
frequent
transmita
gazdu@@
dioxid
distributed
garantiile
introducem
asteptarilor
inculpat
srs
dream
artistic
potentialului
administrare
usoare
concluding
prelungirea
ash
familiar
impiedicat
flooding
coun@@
ridic@@
interveni
majorarea
profunde
birocratiei
rent
flu@@
durabilitatea
delegated
catastrofe
generated
tetovo
colaboreze
stiintific
actorii
prosperitatea
indian
dedicata
impas
angajamentului
delivery
transmission
veche
fiabile
plecare
ses@@
tal
reverse
systemic
listening
acoperite
permitted
multilaterale
ordination
mountain
snsd
domeniului
douazeci
burns
navig@@
secur@@
painful
colectiv
cycle
copyright
declansat
preferat
outlook
locu@@
planificat
secretar
temporare
bsp
decommissioning
modern@@
87
maastricht
has@@
demar@@
tit
unclear
acumul@@
disappointment
minors
rezolvam
agendei
worker
dil@@
advocates
reinfeldt
golful
kra@@
silver
misleading
uim@@
insotit
conduc
firmelor
tiv
,000
joh@@
bids
lópez
binevenita
scu@@
broken
grea
vede
divisions
combat@@
irrespective
mafia
adreseaza
izam
aling
clim@@
caute
bed
norvegia
foot@@
satellite
clari@@
&apos;ve
ajutoarele
practically
pagini
intarirea
vizitatori
deaza
daul
aprovizionarea
ign@@
ksf
keen
locuintelor
inundatiile
92
apreciat
tunisian
conciliation
selection
atributiile
parlamentelor
interventii
motivated
predic@@
planificare
analistul
fuels
versiune
racan
dtp
adviser
automatic
james
excluderea
proces@@
producator
conscience
rusine
consultari
transplant
formele
welcoming
anywhere
deepening
navelor
collect
considerati
erg@@
secre@@
dubl@@
semn@@
urs
discursurile
adusa
reforming
tibetan
excuse
ramanem
subventiile
campionatul
conturilor
asasin@@
rasmussen
interesanta
fugitives
laying
linking
autonomia
singuri
casator@@
workforce
imprumuturile
centuries
cheia
asoci@@
amente
sda
temei
sondajele
expanding
papoulias
sire
colectiva
bulgarians
coerent
cabinetului
off@@
sanctiunilor
versiunea
invecinate
proprietati
jak
roll
encourages
capacitatilor
alilor
studentilor
ili
preluarea
desirable
convo@@
troika
wn
examinarea
studi@@
atenta
wins
potentiale
mandri
poluarea
partenere
freight
lun@@
vacanta
prezint
federatiei
digitale
atrocities
dobanzii
excelente
confirms
crestine
jak@@
certitudine
honduras
unt
pregateasca
leaves
probe
wherever
rep@@
sandzak
publicitatii
anadolu
assisting
sumele
sums
concentration
frozen
intreaba
ungariei
arm@@
strazile
divide
banka
alternativ
automobilelor
existentei
telecomunicatiilor
tennis
arie
inlocuirea
dy@@
ethical
cupl@@
liniile
regatului
sends
dozens
investi@@
motors
verdictul
saptamanii
mobilitatii
reunificare
mb@@
iled
scur@@
nutri@@
coordon@@
jen@@
incumbent
enilor
analizat
medals
trouble
democratically
integranta
republics
tensiuni
sev@@
angajarea
cartonasului
clin@@
amanata
begins
top@@
andre@@
tile
gaining
character
managementul
rigorous
conceput
olimpiada
diox@@
compromisuri
ries
assessing
exploit
fort@@
bc
fill
households
p.m.
universitatii
infractiune
efectueaza
reactiona
satisfacator
obstruc@@
consili@@
starnit
finds
biometric
lon@@
itara
remarca
afghan
aplicam
assistant
musulmane
thinks
satisface
rasim
oportun
reviewed
modernizare
counterparts
depart@@
sustinatorii
amploare
infringement
ris@@
tar
permise
fleet
instituie
stadiu
selimaj
warn
observatori
ange
evaluam
fermierilor
respinsa
equipped
reusesc
bisericii
grassroots
articole
itorul
dece@@
introdusa
flexibile
corpor@@
sugar
ieftine
pieces
epu@@
pol
incluziunea
controalele
detaliata
footing
elect
pag@@
businessmen
prompted
respondents
consortium
previna
curi
prez@@
sistematic
cresc
records
presiunile
entrepreneurship
kostov
miss
provenite
deciding
autorii
cauze
arma
violentele
simplifica
simbol
precondition
awaiting
itului
novak
prejudici@@
curente
impusa
obligat
darea
vii
empty
reinforced
requiring
scos
kallas
obligate
sparked
assurance
chile
verzi
stanishev
cautam
chose
colectare
piarda
pesticides
essence
guide
procente
unuia
faciliteaza
terzic
violentelor
organisers
inta
founding
tratati
curaj
stipul@@
ucise
raspandirea
saptelea
bunastarii
andy
reactors
muntenegrul
autovehicule
socialistii
lifting
valid@@
programat
operates
admission
automotive
ang
abstain
dizabilitati
brut@@
statistici
kul@@
submina
institution@@
envisaged
malaysia
disparut
ingrij@@
feasibility
italiene
duble
horizontal
fete
angaja
ecting
condamnarea
cancerului
grown
structurilor
read@@
scurte
coverage
arun@@
gazdui
burgas
ramadan
inspections
preserving
trimestru
nuts
79
identification
broke
row
semin@@
optiunile
precizez
missile
investor
niciunul
plastic
rally
astepte
thoroughly
prescri@@
che
tionale
djokovic
ingrijorator
cultures
infrastructures
lama
inaint@@
realista
2,5
primim
permits
condamnati
amen@@
aliment@@
direction@@
sensibil
ils
competing
vitale
ramadanovic
liderului
atraga
iasa
celebrated
surprins
weather
irresponsible
finalizate
voicing
sperantele
reputation
jko
observatie
run@@
gru@@
silence
gates
du
ther@@
achizition@@
fizica
reconcilierea
charging
emiterea
complement@@
boc
reglementate
instabilitate
blow
mani
verificarea
feroviare
acceptate
adapteze
presu@@
170
misiunile
coordinating
surilor
predrag
ker@@
eurojust
pensionare
diferenti@@
obisnuit
costly
extremist
fermieri
numer@@
pasapoarte
asistat
monti
ghts
challenging
reprezentarea
educ@@
proportie
incorporated
benefica
imunitatii
expanded
sectoral
anumiti
comparable
bugetelor
predat
certi@@
recast
estate
substantially
inlocuiasca
obligatiuni
diary
ok@@
patr@@
indivizi
masur@@
legitimitatea
yourself
gest
concludes
mah@@
neo@@
imigrantii
branch
municipale
sarcinilor
suta
sympathy
unilaterala
argumenteaza
rachete
indelungata
formeaza
elui
provine
sprijinire
slowly
finaliza
valori@@
destabil@@
functionala
navigation
inlocuit
ameliorarea
new@@
ishing
viitoarelor
deficientele
aquaculture
eci
farmaceutice
pierdere
legitim@@
peti@@
furnizorii
alfred
identifying
confrunte
concordanta
tonight
oane
undermining
examination
earth
devastating
bdp
ty@@
inainta
emit@@
mw
egyptian
depasesc
overcoming
lasand
ule
zapatero
terorista
alities
suspendata
autovehiculelor
retraga
roles
incheierii
revo@@
armonizate
trained
interventions
apreci@@
fit
olimpic
coordonarii
pped
toxic
concediul
viabila
gg@@
fiti
impartial
anticoruptie
fuele
sprijinirii
observatorii
sesiuni
concura
eradicarea
promite
asset
consists
urmei
deleg@@
lithuanian
condamn@@
exprimandu
unrest
display
observation
administrativ
eda
svetla
appeals
maxim@@
relatives
prieteni
churches
dg
candidatii
rohan
itarii
vlora
nia
orientate
adaptare
falsificate
princip@@
vandute
dot@@
virus
politisti
functionari
merit
noaptea
precedente
renum@@
bay
vers@@
advances
biometrice
bloca
exprimata
itata
croatii
tes@@
prizonieri
santi@@
ged
raportat
diverselor
ato
modele
relat@@
legitim
ick
revizuirii
water@@
4m
portile
excluziunii
safer
moratorium
urbana
traditie
enorma
substanta
pin@@
ines
indepartat
suggesting
asteptari
gauzès
guvernarea
kroes
postpone
disponibilizati
instrumentului
bunele
ters
handled
consensul
potrivite
crossings
tent@@
scoate
ultraperiferice
analizeaza
stul
tackled
jocuri
socially
indivi@@
karic
attached
ects
indigenous
cm
schimburilor
tendinte
carriers
extradarea
promisiuni
vecina
identi@@
preferential
gandire
pressures
incet@@
lacks
schi
continuous
analisti
combine
voluntara
unlikely
prudenta
acuza
reinforcing
sufer@@
aro@@
bitola
eza
cumpere
adriatica
arelor
evaluat
trajkovski
proiect@@
responsabilitatilor
escape
etichet@@
mix
instru@@
realizari
serveste
imense
fortat
exercitarea
vil@@
principalelor
trait
stocurilor
6m
garantate
spon@@
achizitionarea
garantata
credibilitate
enshrined
occupied
comerci@@
ches
tutun
arg@@
inregistrare
flexibilitatea
ida
orale
les@@
envisions
euratom
dumneaei
operatorilor
scadea
evenimentului
criticise
colabora
depending
dezastrul
provoca
furnizat
examineze
editia
curte
oferirea
impiedic@@
inequality
subvention@@
fericit
numitul
rarea
calatorii
delegate
dif@@
undertakings
ging
locuitorilor
publish
eficacitatea
patrimoniul
cladirile
prezidential
discre@@
colabor@@
bomba
entitate
manu@@
itari
simeon
amint@@
sharp
negocierea
alcohol
tinere
bir@@
defended
cipriote
rival@@
com
cipriota
culmin@@
romii
deopotriva
revi@@
recycling
profituri
recover
output
learnt
conting@@
eliminam
britanii
diam@@
hosts
fao
mentinerii
legality
cancun
mixte
dangers
gashi
verificare
sections
resc
modified
sanatoase
leaga
conven@@
hungarians
artificial
icj
raspundem
dalli
producatoare
satelit
exprimam
bendit
controversy
legaturilor
condemning
normala
cir@@
tom@@
hotar@@
mix@@
minima
concentr@@
imposibila
impunity
pursued
write
parintilor
tiv@@
abuzuri
alei
citez
database
sange
elect@@
demonstr@@
liga
abandon
etelor
epoca
bankruptcy
uneia
israelian
chinez
iu@@
prost
promovat
solicit@@
bases
opreasca
eram
desired
anul@@
nerezolvate
impozitelor
motto
varste
abolirea
intitulata
facilitation
exploited
numitele
svetozar
italiana
stati@@
gasite
carbune
length
determinare
incalcate
rt@@
tic@@
migranti
dc
uite
dint@@
falsi@@
condamnam
nicolas
dri@@
retro@@
barierelor
temper@@
restrict
jelena
trupelor
grand
hr
combata
ombudsmanul
murders
reformarea
mpa
liti@@
helsinki
wa@@
fashion
criminali
cost@@
fed
stabilise
derivate
flu
convinsi
exceptii
homosexu@@
propriei
alists
dependentei
ultimate
madagascar
iugoslav
izati
belgiene
beat
seychelles
airspace
daune
deny
cunostintele
stangii
generali
expertiza
ritm
arabia
belarusian
solicitantilor
barbatilor
&apos;ll
complicata
examining
formelor
ust@@
uncertain
shel@@
offshore
warmly
paramount
restaur@@
kostelic
modest
sting
poluarii
domniei
protesters
ignor@@
negocia
fa
novel
performing
minsk
tsunami
west@@
aparam
esf
continentul
inevitably
bildt
edly
ashraf
ambitiile
revizuiasca
reprezentare
limiteze
familiale
kathimerini
trecutului
onului
jurnal
notice
industrialised
cohn
admis
allocate
conservator
fortate
intreprinde
porturile
polo
pop
ail@@
attacked
tiuni
shame
inele
lending
alismului
mesaje
complexity
reuni@@
profesorul
etnie
fse
itii
announce
invatamantului
limbile
naturii
geografica
punished
fried
deoparte
impartasim
procedat
aqu@@
cheltuit
islandei
fund@@
pretu@@
intensi@@
reformare
obisnuite
darfur
insistam
ultim
ambitia
depun
boico@@
baz@@
viabile
reducerile
situata
initierea
plangeri
testele
atentiei
mid@@
1980
jeopardise
outset
dia
sid@@
generals
iesirea
concep@@
piese
respectare
cercetari
rezonabila
acceptata
deser@@
cere@@
parteneriate
rromi
constituents
minore
purchasing
erlis
ath
posturile
opunem
consolidated
serveasca
pescarii
corectarile
signatures
ox@@
reflection
wood
delegatiilor
adresandu
bunei
tournament
articolele
competitiv
zboruri
modernise
gazda
precare
nemultum@@
bucure
tacti@@
komsic
dispusi
insine
insul@@
intensificat
defenders
traceability
submin@@
sporirii
finalizata
orientarea
afirmatia
transporta
blan@@
ching
municipalitatea
everyday
demonstrators
atile
enforced
inselatoare
q
triggered
lukic
padurile
concediului
adapting
sovietica
volatility
ip
pave
insight
placut
180
settle
sla@@
zand
dispun
stimulent
uphold
icul
liechtenstein
hartie
sir
trata
reprezentantului
execution
enabled
gaps
liberei
0km
diversificarea
control@@
intampinat
appoint
translation
ł@@
innovations
southeastern
justificate
hoc
realizarii
directorului
programare
didn
friendship
rid@@
explicitly
modelului
slo@@
controlate
cy
siv
ljubljana
respectivul
armenian
prece@@
ture
gains
brown
atice
argentina
demonstrating
seminar
raport@@
kac@@
ideological
confera
explor@@
instituit
greselile
honoured
apel@@
dispozitiilor
1974
invatamantul
manifesta
sulejman
oro@@
esu@@
preferred
emisi@@
bronze
suspici@@
antei
investitia
za@@
blog@@
declined
educated
fas@@
coerente
contingent
soldat
completing
turistic
straight
availability
syn@@
decisiva
initiativelor
gallery
afterwards
vasta
monument
vehiculelor
pension@@
satisfy
elaboram
fotogra@@
chri@@
asistam
separation
erie
disputei
opposing
inspection
conciliere
aten@@
ceremonie
profitable
proprietatilor
kyrgyzstan
detrimental
vowed
asez@@
cercet@@
giei
ceasefire
reception
encies
toare
quar@@
pagube
terenul
suprema
sation
incorpor@@
restoration
tele@@
lab@@
lar@@
eliminarii
scores
expedi@@
fan@@
prodi
bogdanovic
lift
necesitatile
discutata
trimiterea
solutionarii
entitatii
diminuarea
rezerv@@
schimburi
ideii
easing
detect@@
delor
mld
declin
jucatori
synergies
procedurale
incluziunii
strazi
tol@@
conductei
excellence
announcing
amestec@@
echilibrate
editor
separately
iugoslavia
performances
brazilian
proprietarii
tak@@
pusi
harms
vide@@
mubarak
functionale
industrializate
diversitate
pacat
cantitati
urban@@
garrido
ç@@
singer
inving@@
phy
indeplinirii
abolished
demisionat
amanat
piesa
tendintele
nevoi
proves
hatred
designated
pursuant
exceed
emphasising
lent
vinovati
0th
cevic
10,000
dublu
indications
ordinul
edi
austriac
lers
conducerii
exclusiva
orientata
8m
suspend
gand
uitat
cancelarul
counting
protejat
pull
wartime
gasita
ingrijirea
incadreaza
subiectele
difera
chaos
tripoli
2.5
elena
raul
regret@@
audience
provenind
nationality
organizeaza
rin
praise
transmise
dos
contractelor
entails
sible
anuntul
concuren@@
eliberare
referindu
armele
potentiala
registrul
stating
shooting
titlu
bog@@
positively
atinse
controlling
rup@@
fit@@
veteran
puternici
underlined
remarkable
comercializarea
furniz@@
hellenic
properties
predea
knew
guri
infecti@@
xxi
anele
aminti@@
structured
finnish
..
adjunctul
expenses
intreprins
mediteranei
abolish
harsh
apelor
asociat
sezer
profound
fossil
restabilirea
divizarea
simic
alina
transnational
falsified
contradic@@
inutil
constraints
multinationale
satis@@
publication
turistii
deforestation
judecatorilor
suveran
rugam
fia
sixth
privatiz@@
permisiunea
plece
satisfacatoare
detinuti
navele
testing
distinction
sari
blocului
bancara
etele
revenit
sectoarelor
nomination
icevic
recti@@
resping
insuficienta
fiinte
optional
naf@@
asks
tariffs
gran@@
minoritatea
packages
civilisation
deeper
indreptate
adapta
plac@@
permis@@
eliminare
inch@@
cut@@
amploarea
inflatia
bad@@
á
indirectly
mad@@
terminat
jurnalist
modifice
justificat
scolar
atingerii
moldovan
suedez
giant
starts
automatically
structurala
provocata
armon@@
fischer
eliberat
stipulates
consulted
intrare
atingem
purtatoarea
tight
kozloduy
mircea
gestiona
purtator
oprit
rog@@
realisation
conserv@@
spiric
fyrom
paz@@
97
zar@@
stric@@
angajate
abortion
capacitati
directivele
aff@@
functionat
refusing
surprinzator
pamuk
producatorul
ect
3,000
revenirea
condemnation
grecii
exo@@
combination
auz@@
preocupati
intentii
sooner
insisi
conforma
pregatim
standardisation
prabu@@
vanda
amana
constituency
anders
contamination
decese
poz@@
purtam
controlata
invatarea
diferentelor
presupusa
meciul
puterilor
negat
cho@@
anu@@
iilor
niciuna
multiethnic
musulmana
pensioners
aducerea
dal@@
reminded
.&apos;
rejecting
parut
legacy
azilul
includem
ordin@@
cet@@
calific@@
ratingul
gordon
mediafax
conventii
inregistr@@
ib@@
abili
textiles
fiei
applaud
proclam@@
whatsoever
components
relevat
speculatiile
outgoing
marin
pasul
dificultatilor
auzim
damages
draws
contract@@
ultimei
definitie
detina
importuri
dered
proprietatile
contain@@
dell
seriozitate
bunastare
deschiderii
alitati
gazului
procent@@
guvernarii
asteptare
mandru
advocated
ocupam
sant@@
unitatile
tragedie
detriment
station@@
7m
dep@@
tito
maxime
cantitate
narrow
ts@@
directii
denatur@@
convenite
contradictie
norma
likewise
korean
constata
disability
attracting
demarat
ambasador
sindicatele
reintegration
wonderful
petro@@
rosii
absol@@
martori
bord
resursa
vandut
syrian
constat
cincilea
radicale
protejati
anuntate
veli@@
gsp
endeavour
evo
barb@@
infiintarii
lovic
await
rav@@
relansarea
terorist
&apos;ivoire
sic@@
cumva
cheltuiti
plaseaza
atl@@
hotarata
licitatia
texte
implicarii
civiliz@@
holder
belongs
overwhelming
continu@@
petroliere
0,000
disadvantage
faim@@
founder
oricaror
remarcile
trage
sirii
intimid@@
rol@@
statistice
asca
defini
dimensiunii
ingrozitoare
condoleezza
tita
kap@@
limbii
affordable
boo@@
kin
chev
internally
victor
adevarate
generatiile
biden
meci
acquire
wise
plenare
peninsula
dezvoltata
palestinians
injuries
pittsburgh
sanatoasa
procentul
connect
declaratiilor
consul@@
definitive
pushed
elaborata
locations
references
employ
ukip
stimulare
pressed
ratificare
dispus
ambassadors
fees
laden
functionarilor
vechea
nenumarate
intalneasca
cipriotilor
paralele
antly
restored
rival
orbán
ka@@
slav
descarcare
cantitatea
neze
scapa
buc@@
teritoriile
disput@@
holders
corespunde
heating
insotita
blocks
listei
cetatenia
counter@@
spital
josé
ambitie
universale
imobiliare
tratarea
delegatii
descri@@
profiturile
elen
lichid@@
erului
champion
aleasa
care@@
incrimin@@
regulamentelor
beautiful
spaniei
consider@@
forecasts
smooth
normally
oliver
retinut
libiei
rov
tran@@
tut@@
fairer
rompres
admir@@
bili
scenariu
extraordinare
cantit@@
eable
highlighting
vizibile
separarea
ham
revise
suporta
greseli
purile
despagubiri
concursul
condolences
swiftly
examinare
indispensable
congratulating
watching
torii
lays
describe
georgian
shortages
bunavointa
proportional
devi@@
insemnat
cz@@
finanteze
dismissed
albert
rosé
utilizatorii
decal@@
capitolul
glu
diyarbakir
atacat
acordand
defeat
avocatul
substantive
slabici@@
vizeze
judecatori
virtually
assurances
god
vecinatatea
stadiul
revit@@
ua
conditional
eligibility
perspectives
courses
migrant
ico
hur@@
transatlantice
elaborarii
lase
knowing
governed
intarzierea
electronica
ferreira
echip@@
biodiversitatea
kosumi
cher
garantat
boyko
afacere
mauritania
papua
agro@@
hide
rece
turistica
initieze
beh@@
inspect@@
vondra
diplomati
earn
combatem
diversitatii
catholic
infrastructuri
felicitari
minelor
imens
concer@@
substantelor
semester
ivana
flexibila
colaboram
incidenta
neoliberal
vesti
donation
ared
avansat
comunicatii
identitatii
exporta
persuade
strengthens
sps
duplic@@
systematically
fired
seas
jkovic
indrepta
gandit
investig@@
dimitrov
transnistria
finantari
sadly
indemn@@
justification
recep@@
luarii
captur@@
disponibil
core@@
ght@@
roots
indemniz@@
curata
cheaper
pd
infiinta
doc@@
freeze
jo
impartaseste
termenii
locatii
fortunately
bursa
oraselor
eve
danish
multumirile
borne
ajelor
papers
recomandarilor
gas@@
anularea
parliamentarians
venture
ideolog@@
3,5
frontierei
dunare
wisner
criticii
bamir
intensify
teatrul
usur@@
zii
precizeaza
fotografii
servants
georgieva
animala
colect@@
deficitele
railways
determin@@
inregistrata
simpler
vul@@
examinam
insuficiente
popoare
update
exclus
questioned
retragere
dez
adri@@
interpretare
originii
eticheta
smo@@
kosova
circula
berès
rin@@
influ@@
amanun@@
ingrijorarile
inovic
160
africana
stone
institui
rupel
avansate
linguistic
suri
ceiling
riots
bert
interventiile
influent@@
tite
los
inchisoarea
infiintate
dalai
cofinancing
finalised
subventiilor
voci
sotia
inaintata
readmission
ajut@@
bosniaks
sect@@
style
capitalist
decurs
fortata
cutremur
distrug@@
stanisev
arte
tinte
agents
bogata
ansamblul
rad@@
divi@@
furtuna
pierre
ofiter
absorb@@
laundering
notion
supplied
proportionality
evaluarile
usi
exterior
uman@@
entuziasm
sfert
nationali
onoarea
herman
transferate
boundaries
comisiile
autostrada
liste
vizat
controversate
finele
asumam
alike
collecting
trimise
fourthly
recunoasterii
ory
caile
finantata
tratam
coopereaza
salari@@
complaint
reducand
cancel@@
inscri@@
adapost
avertisment
mita
dol@@
shortage
ljiljana
europ@@
convinga
favoured
serghei
las
clarified
existed
teritoriului
amounting
bic
dezamagit
sului
infiinteze
tonul
parinti
pick
focului
materii
oldest
constat@@
barbat
program@@
limaj
alive
autobuzul
vice@@
memory
solicitantii
boskovski
recomand@@
michel
ão
poorer
spreading
defineasca
infect@@
hearings
agrav@@
operatiunii
delicata
investigating
disparute
incal@@
interpretarea
rum@@
analyses
synergy
remar@@
teh@@
sekerinska
europe@@
stepping
haitian
repet@@
electorate
laud@@
stradu@@
mili@@
sugestii
vinde@@
conspir@@
extremists
attempted
curile
tabere
lipsita
recru@@
ultimilor
criterion
clarificarea
pretinde
kermabon
folositi
ego@@
recol@@
uri@@
islamist
crops
construct
flexibil
bond
documentation
cicl@@
achizitiilor
secol
statisticilor
documentului
ote
rebuild
comunismului
seemed
vetevendosje
replacing
inappropriate
interog@@
murdered
furnizori
fusese
integr@@
intensa
sustenabila
addiction
dink
tat@@
verification
stein
dzi@@
obisnuita
afirmam
sarbatori
insuficient
intru@@
proportii
respectata
loo@@
navale
confusion
holidays
lazarova
cheltu@@
campion@@
50m
argint
introduc@@
reactioneze
00,000
energies
taxpayer
specialists
laptelui
citand
sively
evidenti@@
prudent
speculatii
differently
devast@@
urmate
conexi@@
itorului
secured
controversat
daianu
cumparat
vat@@
spital@@
noticed
nordului
titled
strang@@
poveste
margin
semnale
mont@@
rape
distrugere
missed
reproductive
gabriel
enters
act@@
preaderare
nav@@
whenever
mosque
specified
adaptate
realiste
tali@@
downturn
taxei
20,000
ofiterii
calificata
scuza
wireless
convingere
kurd
model@@
cease
turns
concluzionat
avans
informatice
solid@@
imper@@
ingu@@
corresponding
gather
componente
coordona
trimit@@
steiner
sindicatelor
portughez
vamala
raspun@@
directivelor
indeamna
rotativa
circulatii
assigned
superioara
rer
mor
delivering
geografic
ken
fostele
agreeing
medii
detinuta
dioxide
influential
obtinuta
regulators
informez
destin@@
dal
publicitatea
featuring
distinc@@
chernobyl
revizuita
parental
vitally
bta
complicat
sds
jag@@
mess
burma
trichet
impac@@
astept@@
teaching
gram@@
ruecker
optimist
updated
presiunilor
democracies
rus@@
unu
atenei
tate
tensiunilor
theme
forcing
cos
religios
accords
gratuit
integrating
incercarile
harder
remedy
benchmarks
intentie
natiunii
dramatice
amintit
straina
frecventa
anchete
ail
successes
etului
reprezint
sper@@
inregistreze
0.000
intitulat
albeit
ambii
introduces
fii
ruga
initia
derea
collabor@@
ots
struga
psychological
targeting
tineretului
vaccines
specialised
britanice
eds
multumim
foreigners
restrictiilor
adun@@
hl
vechiul
vointei
defeated
capete
autoriz@@
privita
aliat
driver
conc@@
situatiilor
uted
incet
concepute
kesh
fest
accompanying
extraction
chineze
ple
pfp
philosophy
stil
famili@@
viziteze
cladirea
cfp
adnan
ingh@@
bomb
incalzirea
uti@@
instituire
firesc
vanzarile
repatrierea
declarate
conducte
thermal
settled
productiva
turco
pareri
fragment@@
prezentam
declar@@
constructiei
prisons
dand
pensie
moratoriu
cumparare
intreprinda
noise
consum@@
minte
nationaliste
fled
integritatii
erei
preciz@@
clarific
vazuta
pamant
determinate
infractiunilor
290
crizele
traditionala
concentrarea
revizui
pedepse
ingin@@
subscri@@
incar@@
restructur@@
monuments
cautious
interethnic
mik@@
simil@@
enjoys
neloiale
identifice
lebanon
fostering
superioare
separata
arab@@
interzisa
super
coburg
azilului
kes
desfiintarea
g8
medieval
folo@@
elaborare
lipsesc
pope
liberty
catastrophe
ovo
albertini
signature
obligatiunile
liter@@
prizonierilor
globalised
numeroaselor
nau@@
measuring
fezabilitate
competitors
desfiint@@
inevitable
faculty
aparat
trou@@
marturie
coalitii
avocat
substantele
egipt@@
theory
younger
djordjevic
coment@@
asigurata
viability
gathering
publicitate
mt
indice
monitorizarii
brcko
questionable
undermined
cing
weber
arrival
eliberate
adunare
13.@@
dictatura
largi
difuz@@
inscrie
1984
clothing
aprecierea
intari
dispusa
i.
accept@@
refuz@@
fab@@
screening
modificata
ict
faptele
urmarire
input
contrafacerii
echivoc
inchida
britanica
disponibila
profesori
naturala
observator
sporire
mului
bananas
senate
caracter@@
engineering
94
von
unanim
aruncat
termene
meh@@
controversata
normale
universitatile
limbilor
silent
communicate
utilizatori
blind
°
libian
kru@@
lavrov
distributia
depasite
neo
interesat
past@@
eca
ortodoxe
siunile
nesiguranta
bailout
invat@@
ball
abord@@
tanara
šefčovič
scap@@
crestinii
alarma
explicatie
restoring
comunista
fostii
vinovat
roughly
inspir@@
200@@
esa
delta
cerute
redress
raportare
sensibila
progreselor
toxice
interpret@@
jat
perceived
inhumane
irlandezi
picior
vizibil
telegraph
inutila
tical
organizatorii
itar@@
ticket
totalitarian
seselj
outbreak
singurele
kurde
legiu@@
plasa
comerciali
autorizarea
arhitectura
hectare
comunica
afecteze
literature
occidentali
alis@@
reglementata
naval
encouragement
permission
reas@@
prosperous
punish
organizarii
simultaneously
publicata
defavorizate
secunde
rezolvare
stagn@@
plane
except@@
ascult@@
legi@@
convincing
fiul
deterioration
dg@@
manifestat
succese
comunicarii
increzator
protectionist
rusi
by@@
imprisonment
minds
scrutinul
100,000
pasii
understandable
--@@
efectuarii
tranz@@
schwab
caribbean
inlatur@@
reamintit
conventional
stimuleze
operationala
preferinte
győri
janovic
circulatia
simpson
partially
illu@@
martorilor
afili@@
workplace
cenzura
i.e.
ignorat
appreciation
privati
ordinator
interesante
sovietice
hosting
toll
omul
apropiate
ingrijorata
unknown
kicked
elite
approaching
ajutoarelor
ghis@@
tied
americans
iron@@
impunem
anticipat
biological
activi
influx
mitchell
clarifice
devices
maroc
stadi@@
restitu@@
recuperare
perioadele
traditionally
with@@
compet@@
concesii
risen
asemanatoare
geopolitical
profitam
timpurie
transporturi
jucator
bluefin
sustinator
ahmeti
select@@
indu@@
hall
ours
confis@@
counterfeit
urmatori
claude
brothers
suit
cladire
tulbur@@
incercari
pastrat
hear@@
ras
lectie
bo
continually
respinse
uiesc
oportunitatilor
viabilitatea
alisti
seconds
transmit@@
inovatii
implicatii
liqu@@
multinational
participante
ster
civic
declans@@
prosper
cn@@
petition
vir@@
securities
hotels
invatare
wasted
sters
cic@@
icg
litigiilor
uniform@@
anulat
inovatia
ratifice
exacerb@@
116
rid
cour@@
opposes
evalueaza
constante
stoparea
lend
upgrade
crestini
linisti@@
decides
deemed
robertson
topolánek
germani
750
estimata
trium@@
advocating
mile
shop
repres@@
contravine
resigned
judgments
store
reti@@
recommends
orchest@@
facilitati
ful@@
rasi@@
sharply
tere@@
util@@
deprived
gent
creativity
ecosystems
complement
pastr@@
anuntarea
reacted
specialist
importul
temelie
incur@@
clarificam
legislators
interfere
supravietuirea
mentioning
etica
revol@@
fatos
durile
ampli@@
dimensions
adop@@
semnal@@
repetarea
aler@@
decente
utilizati
ghet@@
rationale
informeze
mostenirea
traffickers
impressive
eries
warm
fabrici
suf@@
ck@@
discursuri
tras
avertiz@@
simti
neighbourly
stimulating
vesti@@
etice
arest@@
consolidating
eliminated
prieten
ilustr@@
england
gm@@
ipa
restricting
renuntat
intervenit
transfera
omenesti
izolate
cotele
object
choosing
boys
entitatilor
rotatie
poloniei
primar@@
ballot
voluntare
lucrez
implicatiile
diferen@@
aled
impulsion@@
procurorilor
ineffective
interventiei
segment
sutanovac
lasati
dezvaluie
apped
predeces@@
extremism
resumption
actorilor
portugaliei
semnata
admi@@
lucrurilor
ple@@
amentului
integreze
plang
underlines
alocata
3.5
procuratura
mugabe
indo@@
vizibila
translated
nur@@
sol
sko
lansarii
ands
scor@@
accelerated
pleca
directoare
examineaza
predecessor
evaluating
denumit
impun@@
izbucnit
itar
depasim
accentu@@
masiv
incidentul
charles
vent
koha
interzise
bedrana
itat@@
sealed
consilier
proactive
intim@@
asasinat
supravietui
pasa
capability
exceptionally
sefilor
withdrawn
ao
enthusiasm
gjorge
contracting
fruitful
restric@@
petrece
tangibile
kilometri
punctelor
explore
violate
.-
tered
editori@@
pregatesc
evaluated
0s
sarbator@@
publishing
dance
devastatoare
recurs
box
sava
bucurie
functiune
impartite
tortur@@
15.@@
cautare
donatori
controlat
prestigi@@
valoroasa
investigative
alerta
offence
afis@@
shalit
rooted
caution
som@@
colectate
infringements
examin@@
impozitele
recuper@@
rar
invin@@
grav@@
controleaza
dear
amanare
presedinti
az
yan
transferuri
blocul
marshall
tech@@
remit
yed
supravietu@@
fathers
insi@@
angajatorii
striking
100m
stramutate
capita
esm
indictee
cada
protejare
tested
archaeologists
sciences
maintains
stipulated
ingrijorari
mini@@
bolii
kosov@@
variaza
differ
apropiata
centi
reuni
refer@@
metodo@@
thoughts
cursuri
rezolutiile
permanently
weekly
ining
contractuale
sch
library
guided
capitalism
broadcast
aveam
pping
echilibrului
planes
nevoii
calduros
stru@@
accessing
presidencies
intreprindere
adoptare
eliberati
instig@@
novosti
contrafacute
calatoreasca
wallis
censorship
patron@@
appropriately
pod
continuarii
provizoriu
prevedere
simta
hartu@@
nurses
oarele
negocieze
greut@@
transp@@
promovate
banning
flood
observer
angajatorilor
contractul
gratitude
prosperitatii
polonez
hailed
incalzirii
amenintate
milestone
structurii
licenta
gs
115
attracted
izmir
tonului
prealabil
cailor
supporter
climatului
ultimului
carrier
renation@@
aggressive
incertitudine
dependente
teroristi
timing
dramatically
bom@@
dinam@@
olog@@
donatorilor
acknowledges
instruire
concedieri
urmar@@
spunea
varietate
frumoase
sym@@
avute
weaken
surprising
avanseze
aak
fluxurilor
indicating
regimuri
schimbului
tan
fold
judec@@
industriilor
pescarilor
toys
anuntata
petrovic
sexe
offences
sugestiile
independently
2018
50,000
photo
commemor@@
doub@@
depunere
tragice
travelled
contemporary
romano
plo@@
trat@@
vizand
ach
varst@@
armat
ening
ilir
gordana
yl@@
kalfin
infraction@@
arises
incendi@@
obligativitatea
fap@@
mobilised
flags
autorizare
runde
genul
formulat
perfecta
consultativ
trimisi
punc@@
lengthy
cauzeaza
omagiu
defendants
incantati
cyanide
cornerstone
musulmanii
ira@@
seri@@
vechile
convey
gnss
acoperirea
finalizeze
semnificatia
castigatorul
exceeded
gandi
arestari
cetatenie
apartenenta
xi@@
etea
medalia
repair
atoarea
martur@@
ramush
miroljub
ther
skilled
materna
nominated
undeva
revizuim
scada
impacts
tura
intrunire
kill
stabilising
resp@@
frankly
gresite
evska
rehabilitation
relative
mountains
fugari
holkeri
gripa
wild
macedon@@
pati@@
correspondent
apreciem
analist
jail
utility
hydro@@
considere
requesting
obligata
drumurile
salvarea
atas@@
intent
piet@@
alert
interesata
analizate
submission
freezing
disarmament
majoritar
satisfactia
eroglu
legitimitate
unitar
gandeasca
oferte
muzeu
guidance
coinci@@
grew
selecti@@
verdic@@
intimidation
adjustments
fault
drama
mobilizare
oportuna
rafin@@
democratizare
nowadays
trimisa
operatori
directiei
concerte
popovic
milos
globalizarea
suicide
politienesti
turmoil
tragem
oecd
iat
interesului
intorc
sli@@
otom@@
destroying
activelor
generating
beef
contribuabili
defin@@
promit
regain
anexa
renta
custody
8,000
restabili
lulling
alb
dinainte
imprumuturilor
fez@@
consultarea
mam@@
guvernatorul
clasat
incurajez
ampren@@
iron
dramatica
kom@@
sustin@@
advisory
chávez
reputatia
imbunatateste
extremiste
invete
caldura
lanseaza
respectivele
pledge
suddenly
asti@@
guineea
daunele
gazele
realities
indeplinim
anticipated
impasse
exercitate
flagship
specializate
restaurant
exert
cancelled
sefului
kre@@
sustain
hectares
classes
zarea
calificare
thrown
rts
negotiator
apartinand
ef
telefon
trajkov
annex
sirea
zbor
feasible
investigatia
exporting
short@@
simplificate
succe@@
acvacultura
torul
intreruperea
tribunalele
aleg
legislatura
identificare
ń@@
loi@@
suferi
razvan
budapest
websites
imagini
prohibited
echipele
drogurilor
dezechilibrele
ron
satisfac@@
norms
sporim
judecat
cari
kno@@
inland
beg@@
rim
ilustreaza
discred@@
scepticism
nace
schedule
insecurity
echi@@
4,5
prud@@
privileged
tul@@
vigilant
lumi
legitima
bridges
sted
conventiile
contribuim
binevenit
fortati
contr@@
swe@@
protejata
invali@@
gul@@
cloned
prioritar
combustibili
audiovisual
moody
palestiniene
clientii
wards
seriousness
spokeswoman
continutului
grab@@
exempl@@
recunostinta
castro
ankarei
supervised
catalo@@
uniforme
demonstratii
fledged
liberation
impovar@@
phones
excel@@
confiscate
integra
epis@@
bles
curenta
defineste
covarsitoare
semnificatie
turneu
populatiile
bankrupt
tony
slujba
portfolio
vinov@@
donald
è@@
negotiators
ino@@
trimitem
arheologii
scopurile
palestine
conservatorii
shopping
sefi
transl@@
compatri@@
simte
hotarari
sign@@
böge
direc@@
intoler@@
sate
majorare
equity
nereguli
warnings
facil@@
colaborat
suspicion
hot
rutiera
responsibly
unilaterale
studiului
respectului
uniti
sudica
transporturile
reformed
sist@@
garantia
ascuns
ardi
pulaj
operated
protects
expresses
opoulos
sosirea
unded
dezvalu@@
exported
terenurilor
sasa
roaming
promitand
postponement
restriction
meaningful
petrov
tables
suporte
drilling
tipurile
produsului
thin@@
incad@@
lad@@
academia
numar@@
terestre
lobbying
semneaza
solicitate
foot
orhan
shops
modes
strategiilor
certification
obiect@@
polu@@
karolos
rromilor
cercetatori
stiut
contrac@@
obstacolelor
performers
abide
hum@@
institutiei
discriminate
avuta
kin@@
symbols
premii
guiding
license
ose@@
fragila
obtin
precara
recomand
volum
pasaport
ip@@
persist@@
pakistanul
prostitution
dozen
seecp
legalitatea
suger@@
cubic
circulation
exportul
pursuit
aglomer@@
diviz@@
indi@@
bologna
activist
attitudes
instalatii
ik@@
actului
parasi
oblig@@
ariei
complied
examinat
breakthrough
preliminara
roadmap
entuzi@@
turneul
fairness
hillary
bazam
tiune
samardzic
jordan
excav@@
ruse
reiter@@
specialisti
fai@@
partii
successor
annis
basha
abund@@
county
israeliene
reassure
computers
spec@@
moldovei
concentrated
ruijten
transferat
chairmanship
djur@@
threatens
ocupate
legislature
piloni
bolile
cot@@
wished
nagoya
descoperi@@
cairo
offensive
pain
filmului
pier@@
reaction@@
posted
vedeti
calificarilor
tou@@
bail
revendic@@
actualelor
retorica
20m
polling
harassment
distric@@
resign
viabil
margins
frameworks
nicholas
fragmentation
cuprins
decenta
authoritarian
sergey
globe
ain
functiile
construire
valabile
sme
cooperating
ive
valul
cyber
oomen
lobbyists
saxe
insistand
empire
irakul
intreprinderea
specificat
archaeological
pers
gil@@
furnizare
intentionat
gh
tatal
abil@@
lipsite
acknowledging
ciprioti
qatar
circumscriptia
alcool@@
muncitori
7,000
sre@@
aceluiasi
cooperam
occurring
ofer@@
vec@@
peacekeepers
secole
atragerea
atei
avion
opt@@
zilor
reintegrarea
fot@@
nisi@@
.000
stalemate
concepts
keeps
spectacole
deadlock
fosili
predicted
lega
economists
inculpare
oprim
verii
depoz@@
sanitar
afirmatie
inundatiilor
tranzactii
croatians
haos
lake
florenz
monitorizam
numiti
maturity
tend
stefanovic
ented
discut@@
carii
shor@@
carbur@@
stocurile
cashman
locally
biz@@
beth
kenya
kam@@
concerted
saved
cul
drinking
tori
reactiile
administrations
imprisoned
acqu@@
admiterea
releva
tata
gres@@
operative
contacte
formeze
vorbitoare
produces
detainees
dovic
sarbatorit
cuno@@
supar@@
user
incredint@@
clari
succes@@
techniques
numim
perception
aliatii
files
inspired
10m
fuzi@@
transformare
nelin@@
low@@
tehnologic
paragraphs
amanuntul
planeta
dure@@
chairs
starii
asigurarilor
print
opon@@
reuniunile
leinen
lifted
consumator
comemor@@
chaired
renowned
pahor
trai@@
reviewing
alese
asigurarile
forecast
performantei
conceputa
suveranitate
wholeheartedly
disappeared
sublinieze
divizata
chineza
oricat
interetnice
masiva
itali@@
appearance
passage
atr@@
valoroase
suprem
manufacture
shocked
elevi
airways
eding
reiese
trialogue
izand
aeroporturile
reduc
inaltimea
interpreted
poorly
tratata
incalcarii
hidden
confirmation
childcare
ationale
cleared
abordez
constructed
capitale
dezastrului
vita
recuperarea
cartile
veste
arbitrary
utiliz@@
uniforma
poarte
nedrept
privit
miller
concerts
diviziunea
connecting
grand@@
unanimity
ascun@@
guverneaza
verifice
negociaza
bab@@
advis@@
proaste
indign@@
rezervelor
demnitate
emita
bold
salariale
matthew
consecvent
aparate
weapon
implicam
intensified
monitors
regizorului
abilities
succesului
departure
traum@@
deliberately
primelor
indreptat
sporeste
stoc@@
approving
zadar
blocarea
oversight
desemn@@
summary
troica
tabling
resist@@
democrati
indeplinire
inteligent
lady
relocal@@
ortodoxa
acceptabile
instabilitatea
warns
unilaterally
asteptata
impozitarea
steering
sistemice
expunerea
omor@@
default
guvernamentala
incidentally
manevra
prevenim
exporturi
incetare
atenu@@
telefonice
isti@@
interconect@@
reveal
clock
xim@@
gur
introducere
battisti
recesiunii
pet
gestionat
expozitii
amenzi
eec
dementia
indrepte
palace
frustr@@
ological
iv
pekusic
destinations
soft
leverage
intreprinderii
designate
renuntam
deficiencies
ineficienta
basketball
appalling
ignoring
rers
iului
coordoneze
jerusalem
shar@@
clonate
visibility
numeste
prezentand
benefici@@
head@@
gged
necorespunzatoare
cristian
rezolutiilor
laos
isaf
dent
cameron
tassos
intreba
hahn
mitev
blamed
purchased
nevinovati
execut@@
jul@@
autonome
multim@@
covic
morti
ades
verify
absorption
violating
celebrations
es.
expulz@@
revolutia
pozitiilor
inchiri@@
scurg@@
populatiilor
venite
posi@@
finals
orchestra
asociatii
previzi@@
exacte
contents
nearby
alizati
stor@@
poetry
aduna
avantaj@@
pcp
saudi
04@@
indul@@
situate
emergence
uitati
classified
primara
oferindu
altern@@
sf
guvernamental
degrees
elementul
entitatile
participantilor
tolerate
francezi
gur@@
coll@@
ataca
powell
sistematica
adevar@@
dubbed
deteriorarea
minimise
ofer
fighters
deti
differing
stef@@
reaffirmed
curb
competitiei
salariu
explice
abuzurile
reglementa
tren@@
sarb@@
simpli@@
etnici
amelior@@
dark
wrapped
dezbatute
barrier
turilor
inegalitatile
cee
prevada
balcanic
preconizata
revolution@@
liaison
consultanta
toward
entie
transform
telefon@@
replacement
ll
capul
repercusiuni
oslo
dobanda
rent@@
manufacturer
reteta
abtin
liban
cheltuite
native
crescuta
caracterizat
forwarded
etapele
remark
continentului
beqiri
davi@@
fajon
špidla
cav@@
asum@@
divizi@@
masac@@
traditiile
secundare
hon@@
propriului
inscris
boats
candidatilor
colonel
aspru
280
dezastrele
sectoriale
a1
mentions
stories
irakian
televiziunea
macroeconomica
weakness
marginalised
exposure
protestatarii
y.
incurajare
miz@@
discrep@@
procurorului
instructie
criticising
alistilor
lauda
mina
explosion
arunca
feels
azi@@
aeroport
veter@@
farage
adusi
preconditions
sugera
conduita
turn@@
elul
fugar
sofer@@
srbija
conv@@
ming
credibil
typical
chestion@@
dating
fire@@
posibilitatii
otoman
atrag@@
executions
joseph
hand@@
pnl
pion@@
achizitionat
citata
inovatiei
gollnisch
creditare
questioning
constant@@
ciu@@
endangered
consimtamantul
serge
dumnezeu
vulner@@
traditia
bears
courageous
raspandita
privatizarii
mathieu
yilmaz
respingem
throw
radicala
ambasadei
universala
fifa
kovac
necesitatilor
sustinatori
gradu@@
omologii
sr
beneficiu
overhaul
conformitatea
winners
ieftina
riguroase
exercises
work@@
asigurati
iliescu
biolog@@
isprezece
reinnoirea
clarificat
invitatie
urmam
acelorasi
spot
durilor
vaccine
blocheze
comport@@
asteptati
esecului
climatica
unsustainable
dialo@@
factories
criteriu
tongue
andor
diagnosis
engine
03@@
letters
servesc
quantity
ears
rusesc
travellers
amsterdam
autocarul
clienti
premises
dinaintea
pes
blocheaza
ship@@
plec@@
scape
complexitatea
reiterez
ethnicity
bogati
quantities
imbunatatirile
scar@@
precautionary
imperativ
revizuite
scrisoarea
integrala
gesti@@
aminteste
solicitanti
aspre
logie
reli@@
govern
hedge
trains
microfinantare
carries
metal
nai@@
consult
petroleum
viit@@
srdjan
favours
intelectuale
reconcile
intalnesc
intar@@
gesture
factorul
devote
mitigate
regretul
medalie
lyon
diesel
individually
galeria
tionala
inelor
contradictorii
machinery
adis
japon@@
infl@@
caucazul
eradic@@
valorii
fundatiei
irilor
platforms
cuban
navigatie
lansare
phil@@
intermedi@@
budapesta
revizuiri
transformed
abused
dominat
drazen
employee
demago@@
rie
mayors
tering
alleviate
intolerance
tratamentului
exacta
patents
muni@@
bou@@
progresa
necdet
experiente
prom@@
finlandez
devot@@
ascultam
aturii
taiw@@
lux
stres
adhere
alocare
describes
dunarea
wat@@
natiunea
sin
radmila
celebr@@
ocr@@
flying
compensate
teen
erdf
ght
ingredi@@
executare
mobilising
diminu@@
vot@@
gi
conservare
unitatilor
commodity
pledges
ual
dragi
fatih
limitations
ziar
desch@@
mediation
sculp@@
demnitatii
veterinary
diamandouros
technically
suportate
extremis@@
reafirmat
monopo@@
lingvistice
aka
cauzelor
ry@@
prioritara
gazul
committing
assuming
criminalitatea
aprofund@@
ofici@@
merits
traduc@@
adapt@@
comparabile
escal@@
vand
diplomatii
baroana
surpriza
preparatory
coincide
privinte
indepartate
shoulder
atingere
combinatie
rebels
pornogra@@
facultatea
apreciaza
muntenegreni
rapi@@
invers@@
orian
bombing
tly
policemen
carnea
corect@@
vesna
worsening
neutral
motivate
seal
prelungire
long@@
afirme
ests
descriind
landscape
ece
pack@@
eru@@
condamnata
fta
trase
egiptul
cateodata
dovedeasca
atis
polar@@
depist@@
aceleiasi
crestem
alistic
poluante
applicants
eat
voastra
ards
multora
gasirii
influenced
monitorizat
descoperite
iter@@
1986
imprumut@@
frica
unrealistic
municipalitatile
portion
calatoriile
brand
exacerbated
investigarea
iub@@
veness
cladirii
axeaza
complex@@
reco@@
barely
sprijiniti
justificare
reliability
incendii
tanja
lunar
kiev
decreased
gravitatea
teroristii
kaletovic
declarata
intereseaza
123
denumirea
experientei
hyseni
contina
fugit
exceptionala
fulfilment
dobanzilor
yu@@
afirmatii
staying
bronz
govern@@
bowis
him@@
shi
darko
benghazi
domestice
odds
cuvantului
accumul@@
clubul
rationala
disappear
vely
guests
termo@@
impasul
sugerez
nimanui
expira
teritorii
profesional
primita
investigatiile
ides
occident
ı@@
ren
saf@@
intentionati
zemun
leterme
simul@@
1,2
cla@@
sfat@@
bat
vit
suspendate
fondata
phenomena
congresul
branches
judecarea
processed
flat
rom@@
redresarii
brevetelor
vei
aero@@
extern@@
domn@@
siva
insele
striving
urm@@
izol@@
indoiesc
goodwill
rebuilding
alakbar
scandals
spun@@
somehow
eea
inability
glu@@
earned
definitia
pluralismul
inainteze
unchanged
pleaca
strip
saptaman@@
times-
administratiile
peri@@
ement@@
incendiilor
delic@@
cubi
haven
dragul
federale
vizion@@
astrono@@
iri@@
laj@@
junta
wishing
primire
extends
profesionist
intrunirea
mario
aprobarii
h5n1
embassies
dedicate
plea@@
slaughter
muncitorii
preserved
prevail
inconjur@@
contactele
amentelor
aloce
raportate
tarifele
coleg
cautioned
amane
relevance
dedic@@
minele
prezidat
foc
projected
exercising
complain
entail
ón
inspre
lectii
anex@@
observations
reinstalare
arestate
concentrare
pakistanului
hostage
raufoglu
judecator
echipamentele
thailand
lire
barricades
bai@@
corel@@
comitet
randurile
cavic
smul
eliberarii
allocating
wol@@
ocaz@@
izolare
deepen
indigene
plenty
commend
spar@@
precautie
intelegeri
crowd
antreprenori@@
wolfgang
harmonising
hil@@
nevoit
erhard
predictable
sided
ş@@
insarcinat
porturi
somebody
literatura
povestea
romanii
radmanovic
siner@@
genereze
yield
transfer@@
refuses
stabilesc
norveg@@
preocuparilor
refrain
jovan
circumst@@
tasked
deces@@
radovanovic
submitting
contributiei
sloveniei
popo@@
1,6
continuity
passes
mosten@@
consulting
populatii
raf@@
spal@@
criticata
vecinilor
autostrazi
aegean
vague
ingro@@
copi@@
transported
zastava
measured
adver@@
ungara
accessibility
pregatirii
return@@
negru
confer@@
supplementary
zborurile
inregistrati
slavery
maker
gases
targ
450
xiaobo
garda
glas
alexandroupolis
rute
disappointing
zannier
rezuma
referi
construirii
fications
philip
tickets
consuma
discursului
semnarii
infractiunile
hardest
sportului
tipar@@
accomplished
discutiei
cautat
ante@@
ferata
picioare
tractors
failures
eventuala
sakharov
pow@@
supune
fluxurile
regretam
izari
ceremon@@
blocate
arest
ideology
otul
rasturn@@
facult@@
dominate
vizi@@
overnight
upheld
testelor
doved@@
candid@@
nevoite
apologise
poultry
instantele
carnii
racism
georgievski
titudine
nad@@
aturile
sun
vuk@@
obiectii
altogether
documentary
amenintarilor
busuttil
neurodegenerative
brusc
felic@@
producerii
comit@@
retained
milic
kampschror
xynthia
conta
bilitatea
sceptic
renovation
1980s
featured
elu@@
asteptate
compare
crescute
reconsider
confronted
constientizare
contrabanda
invecin@@
chemicals
consiliere
husband
avansam
col
atribu@@
elevii
denying
orizon@@
cell
ministerele
rever@@
spitale
ppp
rescu
gaseste
xvi
iugoslaviei
infected
ultranation@@
discriminated
parerile
dovezile
incendiile
lif@@
natalitatii
dauneaza
karas
redact@@
dovedesc
homo@@
sarcinii
garantare
650
accommodation
smoke
terenuri
distr@@
embargo
terminal
wounded
mare@@
turistilor
lj@@
affair
bour@@
exploiting
ahmadinejad
caci
audio
enko
monastery
550
dezastruoase
primare
marja
insot@@
evitat
recensamant
complying
admisi@@
relatiei
lion
exploration
4.5
petrescu
religia
sceptical
sarac@@
inscrise
ults
condamnate
pagubele
imbatranirea
demonstratie
decor@@
ziarul
harta
scolilor
pastreaza
cop
socialisti
organisational
capitalei
tarifare
preval@@
intreru@@
bilitatii
remarci
pledging
drastice
problematica
cile
axat
metodelor
cumpararea
exemptions
explaining
benedict
anyway
imagina
religions
declararea
speculators
odihr
colegiului
tehran
scor
declinul
arbitr@@
exporters
corps
caracterului
poll@@
tioning
shield
qi
recesiunea
acoperire
aie
aeroporturi
identificam
garantand
riguros
imprejur@@
listele
enver
dezamag@@
regizorul
abrog@@
nenad
micilor
conferences
vecin@@
constientiz@@
organizam
recunoscatoare
simbol@@
intentionez
reactoare
electricitatii
novinite
guar@@
aerului
metohija
cells
deploy
profession
4,000
divizate
hard@@
implies
somewhere
scand@@
migratory
cc@@
reste
hea@@
ieftin
intrunit
fdi
arian
favorizeaza
dr
exerc@@
nerespectarea
beneficiari
prezentului
nokia
donations
reglementeze
tragedia
spe@@
gestioneze
contesta
aducand
worries
onorabili
slabi
impuscat
tremendous
seize
egnos
undermines
clean@@
ky
disagreement
mediate
acoperit
valoros
etnicilor
ataturk
luxury
istul
rain
definiti@@
explic
holbrooke
agu@@
ia@@
siei
anunt
evaluata
vassiliou
ungare
ativelor
ader@@
2030
mente
communic@@
camp@@
produsa
monopolies
trag@@
benefited
kosanovic
vegetables
rush
brain
peacefully
accidentelor
condoleante
abat@@
degrad@@
mentionam
aic
ignorate
promovand
nerabd@@
versa
atomic
puteau
aminti
sle@@
spouses
infiintare
lituani@@
wanting
auspices
abuzul
codului
scotland
luck
pat
attributed
productiv
demogra@@
kragujevac
rounds
deschidem
miha@@
rooms
apping
expresia
populated
epp
credibila
feith
minorilor
acquisition
izetbegovic
miscari
patience
hoxha
demonstram
carto@@
distribuire
bal
lasted
transferring
perspectivelor
calificari
catastrof@@
invocand
glob@@
giile
1987
infiint@@
targul
pline
obradovic
colecti@@
heated
antonela
caracteristici
speciilor
teroristilor
trist
parameters
ciudat
istor@@
indelungate
platim
reuneste
she@@
breaks
conceptului
beneficiarii
suspenda
dific@@
gestionate
duration
participant
inghetarea
cercetatorii
redactarea
sc
celul@@
supplement
papa
volcanic
sittings
protectii
pare@@
avioane
anato@@
dervis
differenti@@
neces@@
echilibr@@
considerente
passy
invitati
nul
finanteaza
movies
configur@@
male
religiei
platiti
transposed
conjunction
demn
fier
concurs
raului
inquiry
pirateriei
benefice
inculpatilor
cincea
monitorizeaza
marian
voastre
maghiari
witnessing
caut@@
exempt
universitar
lyn@@
exercitat
pozition@@
substitute
reasca
sacrifice
insiste
stemming
contradiction
japonez
dezechilibrelor
prospera
trezore@@
tec
raspan@@
pretextul
definita
organismul
elled
petrec@@
pornography
fjellner
cenusa
scen@@
familiar@@
inchidere
mam
commodities
gului
ditore
tuberculoza
feminina
preocupat
reclama
unstable
tries
ide
tendency
solicitarii
proeski
inchiderii
admite
descentralizarea
prevents
rang@@
modernising
salut@@
indem
jef@@
rijeka
proprietarul
teacher
greco
filled
duly
associate
liberala
onal
disturbing
demna
bytyci
emin@@
bird
imprumutul
voluntarily
forth
ameliora
standardizare
comisarilor
profil@@
ziare
broad@@
spectacul@@
contradictory
anybody
interval
neaga
exercitata
intampin@@
eliminata
sufl@@
evre@@
tle
aggression
hypocrisy
asociata
imunitatea
nen@@
adverti@@
investigheze
solvency
loiala
obe@@
aduc@@
uting
cooperative
stram@@
capitals
gay
laure@@
pescaresti
microfinance
clients
uefa
tigari
cus
household
rost
imperialist
intercultural
rez
descend@@
shala
litera
scored
pride
cij
structur@@
liberale
parteneriatele
ranite
frankfurt
asociatiile
planific@@
balanta
dezbatuta
cercetarile
codification
tank
credibile
tunisi@@
mancare
incheiem
excluderii
caspian
nivelurilor
mobil
estica
ziune
basin
paternitate
fix
concediati
unificarea
alinierea
atit
zec@@
consci@@
excluse
abilitatile
ologist
lukovic
bull@@
partenerul
eased
termina
criminalilor
formatiunii
eradication
distant
minor@@
dezavantajate
influenteaza
incalzire
statale
consultat
stalled
incorrect
organis@@
bazei
prejudice
asigurandu
ratificarii
240
respond@@
apelurile
fireste
suc@@
film@@
distor@@
atatea
ghi@@
experientele
broadly
mex@@
attach
german@@
traditii
solare
ake
heat
forumului
dismantling
vaccinuri
reserved
promptly
pachete
rectificativ
approves
tho@@
daram@@
voteaza
owe
adoles@@
apro@@
conn@@
clu@@
bucur@@
bud@@
privileges
spg
petkovic
restraint
disputele
russians
profe@@
locuinta
defines
intemei@@
persist
jury
repete
pipelines
executed
oficialul
dezamagirea
investitor
inaugurated
benefiting
legislator
despadur@@
rezidu@@
marime
photos
eria
impre@@
suspect@@
dur
loud
complementary
confront
orientarilor
treating
recur@@
atoarelor
migrantilor
dess
mo
demisioneze
congestion
criticilor
tiunile
inumane
ficam
restructurarii
pericolele
implementata
avaz
kidn@@
aching
councils
ossetia
prietenie
ignoram
sceptici
traders
protectioniste
omo@@
riguroasa
weaker
furnizor
intarzierile
impozit
bananelor
00m
furt@@
rarely
italieni
diplom@@
incredibil
sindic@@
walk
taught
dvs
lesbi@@
imea
vie
responsabil@@
www.@@
ridicam
boicot@@
iraniene
writers
paternity
restaurants
pregnant
carbunelui
judecatoresti
semnaturi
menti@@
disputed
aresta
locatia
inund@@
detas@@
bea@@
argumentand
certificate
undergo
reflecting
regimurile
izolarea
absent
sent@@
sustinerii
downtown
attr@@
temporarily
pled
methodology
recentul
apr@@
argum@@
inefficient
siunilor
ficari
modificarilor
incetat
benzina
horse
backdrop
hitherto
fibre
fixa
indicatorii
siri@@
pretin@@
harmony
list@@
lamassoure
bashir
zlatko
baut@@
dica
sns
114
sy
understands
simitis
coples@@
asumarea
duplication
improves
pesc
ected
respinga
matches
australian
prilejul
orientat
juncker
kool
contamin@@
prevedea
dres@@
fruntea
popovski
rambursarea
marriage
printing
rai@@
localnicii
lying
jes@@
poloneza
paraly@@
cutremurul
privi
sanitare
confuzie
palestinieni
zahar
macovei
fabricii
simultan
reaminti
acuzatia
combinate
jum@@
deturn@@
misiunilor
staged
financiari
cunostintelor
testimony
latitudinea
previziunile
intoarcem
gilad
d.
vase
pul
durabilitate
grupa
spectrului
dispuse
populist
brother
instalatiile
indoiel@@
protective
protesta
predominantly
inflexi@@
ites
obligatory
clasificate
sam
siege
weakened
goale
fondat
eric
legend@@
jewish
coordonatorul
conclu@@
cinema
argumentul
vaccination
9m
controverse
zidului
ordinated
dispuna
judged
sos
actionand
30,000
supr@@
axa
efective
tuberculozei
mol
vlas@@
steadily
limitare
inge
acute
submineze
gic
sf.
walls
asculte
turcii
frustration
puneti
bulk
signatories
folosirii
load
dnevni
aliste
span@@
dorintele
distinctie
obisnu@@
muta
aplicabil
problematice
sors
fabricate
finant@@
yves
urs@@
lasate
referim
compensatii
valley
autorizate
deceni@@
deosebite
convers@@
fee
persecuted
inculpatii
saharan
oce@@
fragil@@
vary
agent
ivanic
ung@@
neguvernamentale
collapsed
arheolog@@
celebrating
viu
repressive
revoltele
carlos
materialelor
pay@@
anted
vremurile
cuk
brian
operativ
reactionam
ghana
revolta
catania
suspectati
legislaturi
organele
evitand
moldo@@
siz@@
preti@@
ocde
satisfactie
echipamentul
accesibila
statehood
performantele
mutil@@
deregulation
bombar@@
jurisdic@@
poet
feeding
conditionat
inlaturarea
organ@@
pose@@
elului
power@@
factorilor
jut@@
plang@@
exchanging
christ@@
tehnici
greg@@
reluctant
micii
kurzilor
inii
torului
abolishing
litor@@
balancing
priviti
1,3
reamintim
installations
pts
lav@@
ares
propri@@
controleze
peak
garriga
derived
constitutii
optima
contin@@
arhit@@
partaj@@
sfi@@
escalation
anon@@
adeseori
tacere
atalanta
collectively
dé@@
fost@@
imbalance
obligatiunilor
amounted
protestors
tas
siunii
kav@@
adults
incidentele
includerii
suprematia
simbolica
intellectuals
occurs
discover
epas
combustibilului
adv@@
earthquakes
importing
revive
beneficiilor
uts
diplomatul
dementa
nemultumirea
upgrading
relocation
lands
umbra
atragand
sot@@
reads
speculatiilor
autorul
sensibilizare
dabilis
afecti@@
interguvernamentala
belarusului
exprimarea
wai@@
concomitent
neoliberale
jarinje
vam@@
appointments
solomon
utilisation
palestina
proving
zenica
ganditi
individuala
dul@@
plen@@
incompatible
ratelor
nova
donator
uirea
eligibile
sex@@
jam@@
draw@@
interoperability
arriving
deficite
counterproductive
stephen
tratamente
civil@@
aya
romaneasca
permitandu
petrolul
aps
intermediara
marty
distin@@
negociate
tenis
uprising
criticisms
operatorul
pc
wit@@
priveasca
remembered
nit@@
1,4
.bg
ñ@@
elibera
sanatos
stic
eighth
sistematice
apropiati
sibenik
unification
polluter
revolutie
inlocuieste
dosare
even@@
actualizate
divergente
interpretat
boat
internation@@
garantarii
periclita
entitatea
spectacol
bars
sh
tune
mortality
micile
pity
fani
separa
domiciliu
reluata
suspectilor
indraz@@
tajikistan
sondaje
incalcarilor
remuneration
mesajele
vicepresedintelui
ack
confirme
abuzurilor
forefront
tftp
flow@@
reia
stipulate
zapata
binecuno@@
paragra@@
procuraturii
itele
summits
musicians
indicarea
termenele
scuti
gebhardt
separati@@
defer@@
outline
borislav
absolv@@
lantului
emen@@
reunificarea
transatlantica
pretty
mour@@
reciprocal
portului
subsidy
achizitie
steagul
undergoing
gradului
decisively
minori
remarcabil
corespondenta
revolte
comiterea
ecolabel
investigators
agic
exercised
shock
festiv@@
berlinului
regrettably
proceda
militants
electoratul
rocen
inteleg@@
definitiva
echipamentelor
principali
mandates
pum@@
elaboreaza
sustenabilitatea
atoarele
treasury
arestarile
incheiata
tose
consisting
businessman
corporations
cheltui
pachetele
prosecute
transformam
dominant
uring
sectiuni
pp@@
poloneze
decid
milanovic
recensamantul
blockade
distorsion@@
premiera
deficitelor
considerand
dimas
lowering
infection
simpl@@
ruseasca
muz@@
eggs
planificarii
suspendare
fauna
dick
circle
ima
estrela
cos@@
columbia
remote
grou@@
zon@@
ivoire
koci
decurg
atiz@@
marco
shkullaku
posselt
contaminated
prelungit
reabilitarea
inghetate
amestec
radiodifuziune
grey
parc
ground@@
reun@@
vehicul@@
fenomenul
indrept@@
cea@@
sos@@
sportiv
calificat
weakening
bing
successive
ecosystem
furaje
plasarea
st.
dogan
declining
severin
migratorii
generous
fenomene
discut
bili@@
vulnerabila
minunat
clasamentul
stam@@
rtk
armistiti@@
catastrophic
iresponsabil
oling
mobiliare
translate
than@@
temperatures
indelungat
purchases
foam@@
percep@@
speeding
denumita
descoperirea
expenditures
monopol@@
proven@@
disparea
lukoil
actualmente
resedinta
stului
assert
examinate
kpc
instances
razboaie
grupari
ologice
flota
humili@@
necesari
term@@
α@@
solutionat
rupt@@
narro@@
radio@@
prostitu@@
turbul@@
crackdown
etei
cole
overview
obtinere
adul@@
sistem@@
uzbekistan
mihai
intensificare
cfsp
icc
executarea
entia
vizitatorii
diplomatia
inj@@
krajina
forums
prescription
spate
125
muammar
rusinos
stambolic
acelea
sinuci@@
break@@
combinata
kurti
fructe
capturarea
stralu@@
1.2
indiciu
identical
inceput@@
demararea
carl
profit@@
stadium
insotite
gol
cuprinsa
attain
atici
bans
testul
foca
scumpe
munitions
presi@@
ashed
unitary
ativi
asteptarea
avanseaza
hinder
fugar@@
cadea
ezita
reformist
circum@@
predict
luc@@
termenului
descrisa
precau@@
pesticidelor
transfor@@
bate
vasil@@
monitorizate
1967
universitare
assumption
prejudicii
joins
partiala
adjust
iveala
lucrand
soldatilor
prietenilor
nesovski
prioriti@@
prest@@
municipalitatii
armen@@
amandoi
fitch
prabusirea
win@@
gracanica
inam@@
ipo@@
seg@@
spo@@
boards
dimit@@
accentuat
incas@@
aprofundata
eventualitatea
drumurilor
accesibil
mentinuta
lant
labor@@
upper
pronuntat
itand
contact@@
frequency
autoare
globalizata
declaring
amenintata
finalise
scenarios
sinceri
derulat
taliban
pages
invitam
urmatorului
munceasca
dom@@
trateze
transplantation
golfului
flot@@
oprirea
gruparea
adaugate
valuta
observatory
biserici
turnover
volatilitatea
engaging
clientilor
universitatilor
definim
retrag@@
reconcilierii
protestelor
biblioteca
impr@@
cuvenita
acce@@
periclit@@
voi@@
smugg@@
fondatorul
faz@@
popular@@
invers
homeland
interzica
resist
fits
schema
remarcabila
separare
dans@@
fragmented
glass
profunzime
criminalii
ascund
cartii
dus@@
sferei
oblige
peter@@
cepol
vanz@@
shareholders
cedo
eradicate
kilometres
ink
broadcasters
director@@
balk@@
standar@@
poluare
energ@@
violates
aliati
suferite
gbagbo
checked
imbracaminte
rejects
recruitment
existau
estimarilor
intensificam
alegem
selectie
bling
ailed
eligi@@
pledeaza
formulated
asser@@
pvv
alimentatie
envisioned
citi
saptamanile
supportive
tarea
atractiva
foaia
apropia
solicitarilor
suspectii
numite
punctului
subsecretarul
pest@@
decisa
ethnically
diferiti
avocatii
andreas
encountered
incurajate
jones
dying
tinute
incurajatoare
apartment
emas
pragmatica
trimitere
radacini
munci
subiacente
aforementioned
marie
stabilind
lagging
eide
multilingualism
formate
301
locked
extindem
veterin@@
simtim
masculina
fluxul
behave
inspectii
negociem
václav
persistent
profesorii
alizam
pierderii
progno@@
proclaimed
ceremonii
isn
militant
lock
instruirea
exclusivitate
legume
exig@@
lectiile
hans
foreseen
sugestia
imposition
muntele
geographic
dans
cofinantare
itors
reinno@@
underground
totalitar@@
bees
ishes
adele
concureaza
slight
solv@@
cruel
helm
precon@@
feminin
neloiala
largul
gri
destinatii
pted
distortions
alitatilor
procedam
assisted
municipalitatilor
retention
1,500
fortress
valued
egali
supravegh@@
inceta
disponibilizari
qimonda
prioritise
ologie
spati@@
parcur@@
alcool
fiecaruia
rosie
vorbiti
reven@@
travers@@
plante
trigger
costisitor
politieneasca
hala
edge
respondenti
fabricarea
tarifelor
outright
inqu@@
rolling
aflau
regener@@
adaptat
stii
hran@@
bb
construc@@
mundus
hate
implementeaza
contracara
ituri
contractului
muncit
steady
instituirii
sudden
tighten
perspectivei
religii
obiecte
renuntarea
mint@@
convingem
demografica
anger
surface
feroviara
elita
tintele
protectionismul
bid@@
epidem@@
shorter
apic@@
incurajata
6,000
ę@@
filozof@@
pula
revenim
forestier
laudat
stopping
standardul
presupuse
partition
incurred
japoniei
reprezentati
unte
controvers@@
egee
excess
creditors
borrowing
objectively
nava
obiectiva
delaying
brave
apartamente
lumin@@
planetei
acelora
contractors
asts
comfortable
venezuel@@
dator@@
minimal
ducem
prohibition
cecilia
acred@@
bor
humans
branislav
analizata
ads
primarii
etnicii
budva
eth
epa
indicii
fouere
domeniilor
zu@@
goe@@
eron@@
zagrebul
gel@@
nagorno
scanners
kyi
adopts
wortmann
outdated
distruga
batut
instalarea
precadere
scrisori
acelei
patrati
recrut@@
confirming
protestatari
amenda
pom@@
championships
promovata
venitului
pescu@@
communists
cobor@@
cuprinda
candva
ereaza
eless
speedy
multilaterala
equitable
worthwhile
disruption
flagrant
verificari
aparute
importa
rudele
provizorii
rezist@@
reaches
psiho@@
eas@@
casei
succinta
emn@@
diet
denounce
cocaine
professions
sian
infring@@
eoliana
predominant
anni
clubs
insistence
stein@@
alocati
matic
aches
automobil@@
dv@@
cern@@
feelings
restaurante
kps
muncesc
viktor
socoteala
birourile
kazakhstan
abandonat
switch
bach
imbog@@
cunoasca
virtue
acic
praising
multinationals
tw@@
birds
salbatice
monum@@
membrul
organization
feet
consulta
patrul@@
reafirma
producere
slau@@
icic
deliberat
virtual
ucid@@
avertizand
suspectat
rubrica
castigarea
deadly
settlements
validity
exhibitions
separated
bazandu
bombings
cartierul
audits
comment@@
incredible
indrum@@
munitie
undemocratic
proce@@
accompl@@
reglementat
marit
antimicrobi@@
continents
alarm
supplier
plant@@
chin@@
cou@@
implicit
prosecuted
residential
conditionality
inclu@@
joachim
lustr@@
ratio
diplomatie
consilierul
reminder
cv@@
concurente
mini
democratizarea
arity
rumsfeld
23.@@
spiritului
patten
efsa
sanger@@
bloody
pole
bitter
secul@@
já@@
intaln@@
scandalous
progresam
ray
jac@@
coordonator
genocidul
sluj@@
foamei
situated
midst
discriminatorii
bariera
pakistani
valabila
sincera
drain
artistilor
vulnerability
rezultatului
sprijinind
mentin
marfurilor
fatal
ziunea
pedepsiti
mareasca
smoothly
nationalitate
avionul
multipl@@
intalnirile
hax@@
sensitivity
inadecvate
patrimoniu
yiel@@
shaping
titul@@
motrice
scandalos
analysing
institut@@
accidentul
sust@@
reciprocitate
clash
inevitabila
marirea
cheltuim
prepares
celebration
snow
besa
thro@@
bunul
fulfils
organelor
unsatisfactory
incorect
atate
insurg@@
fam@@
coexistenta
combustibililor
proportion@@
biased
reput@@
numitor
cupei
apeluri
tightening
intentat
demersuri
utes
advancing
suu
ved@@
thomas
angajam
op
appealed
amaz@@
composed
oarei
revolu@@
taleski
doban@@
accusing
ultura
ambas@@
gang
writes
dum@@
awaited
necorespunzator
plea
activeaza
ancy
fizic
recastig@@
svensson
ungar
ativ@@
romanesti
paradisurilor
yard
condamne
clauzele
semi
exclusa
vecin
creada
surveys
suspectate
109
giu
insu@@
buried
muntii
latvian
200m
influente
semnific@@
adevaratul
outrageous
asiatice
vlatko
pavkovic
furnizorilor
droutsas
productivitatii
subsidi@@
there@@
orele
uneasca
busy
binevenite
concluziilor
compatibile
τ@@
kost@@
volunteers
colaborarii
hezbollah
economisi
ag
conventionale
aprinse
deposits
staun@@
politic@@
yer
fiabilitatea
lukasenko
varstei
insistenta
merg@@
drago@@
unusual
afganistanul
insult@@
lu
raj@@
compatibila
evaluarilor
nit
svilanovic
kovska
estimarile
disparitia
polluting
riscam
neoficiale
umpl@@
vele
closest
opuna
curate
nevoita
labels
plied
inchisori
pensionarii
protectionismului
prealabile
orizontala
reaffirm
ceausescu
celeilalte
epidemic
pericole
200,000
ptk
optimismul
aeroportului
fts
1.6
nisa
evil
phrase
deplore
explozie
facilitare
centralised
beauty
platita
zh@@
unjustified
confu@@
subordon@@
lacune
backbone
intari@@
umil@@
commun@@
distrusa
minci@@
dezacord
medicina
reconcili@@
culturilor
esses
reward
allied
argumentat
logice
dismant@@
ligii
fumatul
aplau@@
economis@@
gratuite
descentralizare
bern@@
regimurilor
balances
tendencies
polonezi
predare
ramad@@
manoeuvre
astra
beqaj
nicilor
belder
alex@@
thailanda
avant
credint@@
ences
activele
kuci
echr
tannock
enforcing
specializat
countless
grid
intreprinsa
consti@@
disagreements
wearing
perpetu@@
numerar
misuse
periodic
nesolutionate
protagon@@
titluri
sfar@@
scol@@
deri@@
dropping
apart@@
insarcinate
unconditional
risky
gues
fluvi@@
crescand
cely
determinarii
colaboreaza
sponsor@@
mas
concentrata
organic
quiet
evaziunii
cluster
urmarite
quest
condemns
wear
herself
retinuti
macedonenii
constructively
ingreun@@
fleets
decedat
interguvernamental
ludford
diminua
calculatoare
mode@@
profitul
oic
activisti
anun@@
turceasca
popularity
chine@@
veritabila
manasti@@
preliminar
nesigure
sarbesc
achiev@@
posing
bot
jevo
lovite
revising
ň@@
sexu@@
gualtieri
xenofo@@
possession
youtube
confirmarea
reduces
incurajand
angelilli
zvon@@
imminent
evidentia
tatlises
algeria
adaptata
jonilda
incap@@
uneste
musulman
nowhere
invataminte
sap@@
pian@@
firmei
assemb@@
residing
stopa
correlation
reimbursement
rusin@@
instituim
quantitative
coordinator
clearing
nicaieri
cesare
inferioara
extin@@
invasion
lingvistica
allowances
aim@@
calculated
expusi
envi@@
cosmetice
campionatului
eligibilitate
autentica
materialele
liniilor
insumi
procuror
cetateniei
cadrelor
conforme
repartiz@@
liv@@
electro@@
utilitare
interdictiei
apropi@@
provider
sick
cuanti@@
cigarettes
abst@@
casnici
accentueaza
lungime
nms
concili@@
proportionate
burs@@
cheltuiasca
pretutindeni
journalism
chim@@
intelept
enumer@@
bargaining
resi@@
definitions
proprietari
incerc
agenti
policing
armenians
demonstratiile
gest@@
handic@@
gospod@@
bav@@
programarea
injustice
transferului
unregulated
icelandic
birmania
prespa
interrupted
jucatorii
expectancy
rivers
lasata
numirii
conservatoare
dezii
cpi
shantek
itation
discour@@
crude
colombia
servit
femin@@
gering
fasia
celsius
thanked
inversun@@
cariforum
surján
surprin@@
rulings
bers
damanaki
incapable
onorabil@@
obiecti@@
ratifica
exem@@
louis
misko
denies
implin@@
mosch@@
circulatiei
calatoria
omeni@@
appealing
refugiat
caracteristica
impartirea
durabilitatii
aline@@
remarcabile
demol@@
bonuses
intruni@@
zen@@
decidem
decreasing
mitigation
ė
shelter
bnn
obicei@@
vukcevic
infantila
umbrella
sezonul
secretariatului
comitology
democr@@
petition@@
scorul
recital
descur@@
waves
nez
rupt
macrofinanciara
provocand
distribuite
devise
patriarch
secularism
mentinute
tobin
confiscated
fond@@
fati@@
venizelos
flee
detali@@
veles
renew
nedrept@@
suring
tahiri
generata
uig@@
concentrandu
patterns
energiile
bombs
twitter
electoratului
odi@@
aprob
nolog@@
intolerable
bishop
zarko
lichiditati
sional
manipulation
sinergii
shkodra
hygiene
josip
constituent
foame
sustenabile
fluctu@@
expressly
pliva
mediteranean
combustibilii
atrocitatile
impozitul
sportivi
ishment
audy
deta@@
baran
shameful
coridorul
chris
evi@@
boycot@@
trees
andrija
blago@@
šemeta
genetically
appreciated
dim
aung
sydney
rell
joe
galic@@
rug@@
fuga
filiala
colegiul
cauz@@
persecu@@
encompas@@
grossetête
economisire
constituirea
protesting
suits
absor@@
scut@@
plangerile
produc@@
tense
tragica
derogari
aspira
slogan
discusses
hikes
consolidand
formerly
saharov
explozia
corespond@@
criminalitate
creativ@@
masurare
tolerated
additionally
osul
capitaliste
shut@@
scade
formala
periodice
cazare
fiinta
deteriorat
tp
cifrelor
cernobil
cite
autocr@@
indispensabila
restaurarea
dev
baric@@
miezul
unveiled
intermediare
sumei
inradacin@@
assassin@@
travel@@
statala
veld
indemnat
logy
belgradean
cheltuiala
enders
deterior@@
kas
subsidiary
scutire
honestly
vals
miscarile
gbp
usile
actorul
vity
childhood
caraibe
kargazstan
anagnostopoulos
attacking
tragedii
neutrality
abdul@@
engines
contur@@
clarificare
enemy
deliberate
virg@@
contempt
controversa
intretinere
milenkovic
wales
voluntari
anovski
ramburs@@
jet@@
dire
kyprianou
academ@@
directionate
chair@@
poluatorul
avocati
136
fildes
inadecvat
laboratory
usilor
ince@@
initiata
insule
acuzatie
advise
baby
progres@@
facturile
austriaca
lament@@
ams
itei
bank@@
autorizat
revolutionary
handover
referendums
audieri
monede
clon@@
incorecte
derulate
angajatori
lemnului
cicek
prestigious
ballots
categoriile
combina
miodrag
expune
hopeful
disgu@@
disregard
consortiu
facilitated
genc
interpret
intercept@@
simbolic
touched
oning
ambal@@
irlandeze
ghid@@
intelepci@@
40,000
semnalat
seiz@@
án
oua
neglected
scoreboard
blocata
themes
descentr@@
reflectam
arisen
informing
ungureanu
rem@@
textila
varna
mati@@
check@@
mihajlovic
promo@@
atism
tracking
outlines
incul@@
sece@@
buz@@
ideilor
planifica
minunata
relaxarea
centrelor
simplul
sefa
generarea
distinguished
kumanovo
paliadeli
186
salafranca
luxemb@@
khadraoui
ingredients
djurovic
raspandit
polt
tokyo
enjoying
cadrele
pavili@@
elector@@
condamn
guvernamentali
derul@@
&apos;clock
compatibil
izolat
immense
degradation
thetic
clarifying
poles
aurul
mutilation
ub@@
scourge
amenintarii
appendix
adanci@@
nationwide
foaie
marinescu
transpunere
corner
ceremoniei
accepts
aleg@@
illicit
compromising
ges
mij@@
acordati
votarii
formulare
textele
despagubi@@
hampered
couples
luptele
hou@@
danez
bucuram
paint@@
owing
drought
congratulated
shocking
scandalul
ammunition
vecini
quarters
deschisi
ajunul
solutiilor
safely
sponsorizat
relying
impressed
locate
excluding
alovic
bombe
ideal@@
230
trupa
unused
tranche
challenged
expelled
tolera
arestarii
expus
sint@@
investiga
ilu@@
unds
sheep
imposibilitatea
kaz@@
flux
complained
embargo@@
ğ@@
awarding
autom@@
forestiera
cui
bonn
alpha
rem
rescu@@
caracterizeaza
rated
nationalists
simp@@
prins
este@@
platforme
ambitii
renovarea
jansa
coastei
gig@@
contabile
concession
simplificata
ridicare
orban
sidelines
alimentarea
inspectie
guards
potentialele
baieti
neadecv@@
consecvente
raporteaza
nicolae
taseer
atlanticului
retaining
tari@@
oas@@
intoleranta
atribuit
faze
daughter
protesteaza
intampinate
ota
marathon
dimitar
disproportionat
flex@@
domina
premature
concepte
gunoi
analysed
nest@@
supraveghea
lou@@
wholly
adaugam
sustineti
profes@@
agri
afir@@
adm@@
unequal
exemplary
modernizarii
foste
pling
kick
zagrebului
scotsman
fotografie
inghet@@
hrant
codified
titl@@
recentei
matur@@
preference
pescari
deranj@@
pelicula
girl
visegrad
coexistence
finlan@@
professionalism
miza
inc
derogare
logging
kind@@
william
stalin@@
magnitude
cian@@
sezon
zer@@
feio
castig
exhibit
renewables
sson
zilnice
ineficiente
campaniile
colegiu
congres
mixta
pöttering
constrang@@
chic@@
rank
miere
vulcan@@
posibil@@
muf@@
pierdute
sperat
relua
elene
sfer@@
therhood
inci@@
withdrew
generatia
pledat
reprezentam
obiect
medics
presupus
ethics
cuiva
regreta
buses
domain
depriv@@
imigr@@
itam
olandezi
asociatiilor
lituaniei
exoner@@
cents
varied
corido@@
alizari
corporale
tenis@@
modelele
stuck
deplasat
continuously
kadare
fulfill
reau
convorbi@@
montenegrins
intemeiate
elementary
compara
slovaciei
protoco@@
remunerare
indicand
tradition@@
cure
activistii
somerilor
atent@@
pool
reciprocitatii
legifer@@
ament@@
contributiilor
romanesc
admit@@
ocean
tiunii
ascunse
fug@@
gps
conexiuni
ost@@
supplying
condamnare
abu@@
proportionalitatii
oppression
prelev@@
countryside
discriminari
formatiune
azore
informatia
incomprehensible
elementare
window
phys@@
prizonierii
topalli
farmer
peru
benchmark
ured
galilor
arbit@@
chinezi
asbestos
dac@@
percent
lob@@
1.3
olimpiadei
atrocitati
crestina
honey
cements
delegatiile
elveti@@
confederation
sele
volumului
nast@@
separatist
marcata
character@@
domestica
influenteze
asigurate
marginalizate
solului
stores
maps
acceleram
brutala
ocalan
basbug
tery
po
moratinos
pasapoartelor
daci
strategically
efortului
a.@@
ghtened
exhib@@
gazoductului
coro@@
ell
ecosistemelor
reusite
individuali
uzat
noro@@
portofoli@@
realising
slobo@@
rabdare
1,7
aftermath
corridors
beliefs
incuraj@@
kouchner
revigor@@
amanate
ficand
captain
occupational
veterans
delicat
recipients
taining
fetele
invad@@
pamantul
termen@@
ulturii
ascunda
frey
departments
motiune
imaginii
eded
papademos
paza
protestat
inaugur@@
atlanticul
cabot@@
peis@@
numitei
transnationale
regulator
clinical
exploatat
borissov
iugoslavii
raspunsului
adevarului
graba
retra@@
publicatia
jandrokovic
tentative
catalyst
auzita
qualify
transplants
su
ziei
jna
stimulentele
cocaina
2,4
savar@@
muscardini
anin
pedep@@
credibilitatii
beneficiarilor
inse
recompens@@
ale@@
jah@@
inti@@
dividing
permisa
contractante
orlando
tex@@
virtutea
hasan
hac@@
brevet
canale
balzani
fish@@
schimb@@
ador
pov@@
tos
accommodate
bread
tablo@@
coloana
ochi
dig@@
manual
ž@@
forever
nedjeljko
concurentiale
raspunderii
mai@@
specialitate
turcesc
mistaken
ranit
orala
severa
completeaza
suscepti@@
muntenegrene
protestul
derogation
hat
germans
politistii
jews
pauza
spatii
archy
consumatorul
stocarea
traducere
raspandi@@
dorintei
adaugarea
neconditionat
atributii
solutionam
gel
jaf@@
vran@@
sor
pleasant
sof@@
martor
addi@@
inic
conscious
numeasca
angajata
saraca
pice
quanti@@
conducator
comparative
mainstream
reflectat
aprobam
compromite
arhitec@@
hotarati
bulet@@
musical
ceo
standardiz@@
cable
ropoulos
procurori
jeopardising
administratorii
chi
clubului
blackmail
adjourned
suspend@@
belgiei
spitalul
dignified
accesarea
administ@@
straduim
haul@@
searching
isi@@
irs
jurisdictia
headscar@@
operare
acoper@@
caracterizata
stilul
innov@@
agers
angry
dominata
birouri
conducatorii
actress
siile
angle
compensa
cry
7,5
recurge
intoarcere
inti
conferi
osama
pover@@
rezumat
ema
rut@@
adapost@@
transfere
indreptata
slu@@
regas@@
designation
eurovignette
deliber@@
euronest
principalului
paving
liable
cameroon
impoz@@
proprietarilor
gate
genital
furajelor
urmau
ratingurile
facea
integ@@
journeys
congresului
demne
certific@@
transferarea
palatul
confused
alic
containers
schol@@
damir
1973
selection@@
esua
bernard
bilete
petroliera
giorgos
intreved@@
uncontrolled
contrariul
insofar
remedia
singapore
protocols
accelerating
rutelor
premisa
dezvoltari
approached
ear
monitor@@
generalised
afirmarea
beating
disen@@
arresting
tripl@@
soldier
gjirokastra
machine
liberi
christos
ancor@@
sensibilizarea
rugat
egiptean
reaminteste
hong
mcguinness
spheres
vaz@@
diversify
immigrant
monopolul
drumului
greenland
decentralised
defectuoasa
ibar
nonsense
pere
accesa
hussein
susp@@
repri@@
herczog
angajarii
unanima
colectarii
descentralizarii
scep@@
havel
viziuni
safeguarded
prelucr@@
larosière
multilingvis@@
surgery
oceanul
1979
descrise
ami@@
velor
secession
formulata
fleeing
vul
ministere
delors
analiz@@
entiei
zdravko
desperate
polledo
eupm
rudovic
filling
unaware
mamele
master
sudanului
progresiva
diana
presupusele
dge
convictions
scandalo@@
alarmante
depozitarea
gurile
expirat
asasinarii
fixe
casnice
pilda
influentei
exhausti@@
jer@@
liberali
altcineva
lit
11@@
intreprindem
unexpected
accelerat
tioned
cher@@
loyal
revenire
torturii
eul
predecesorul
arctice
reminds
continente
fragmentarea
pristinei
mist@@
subliniate
osijek
ridiculous
baschet
elementelor
alitatile
culturile
scenari@@
inul
ender
petrecute
historically
transeuropene
sceptics
magistr@@
ambasadorii
accidentele
extradite
indirecte
iminenta
sighted
intensiva
intervi@@
kristina
privilege
alcat@@
supliment@@
contaminare
demersurile
indeplinita
spare
achizitia
prelungi@@
referenda
intor@@
braziliei
depa@@
sudic
extradited
izbucnirea
deteriorating
retinem
beneficiary
kne@@
jurnalistul
regular@@
annul@@
shores
multietnic
concureze
disbur@@
vorbe
perpetrated
detection
uzii
timeframe
somal@@
maja
tyres
tougher
andorra
combining
efectuam
0,5
medicii
kop@@
mediere
diminueaza
carti@@
cancerul
omni@@
wikileaks
oscar
provoked
neglect
kuneva
bazinul
alignment
incluziune
contraz@@
aired
munc@@
interconnection
exploata
settling
dezamagire
festival@@
mhp
intalneste
sat@@
lia
vigilenti
deserti@@
opereze
tribunalelor
stars
rundei
god@@
abtina
stamp
discovery
tist
pric@@
estice
gent@@
socat
directorii
dezafectarea
illness
accelerata
flagr@@
deschid
pericliteaza
referendumuri
consultant
mff
dezamagiti
ums
evolution
antreprenori
disparitie
pied@@
coast@@
regul@@
bands
asting
omir
clar@@
barbu
inson
districtul
castle
energiilor
farmaceutica
tories
inarmati
artistice
mim@@
aming
schi@@
til
ranko
ofensiva
fitosanitare
cuvine
pta
nordice
exportate
supuna
mitreva
sali@@
actrita
whe@@
varianta
furi@@
buyers
aptitudinile
tures
torilor
denis
votand
negociatorii
1.4
gli@@
calitati@@
resortisantii
insult
elibereze
cannes
alkalaj
inted
bazelor
1,8
salutata
correc@@
studying
dealings
region@@
bogat
pti
acquiring
trecand
padure
chea@@
quicker
advised
subsidis@@
genit@@
dinspre
rezida
hero@@
deni@@
ril@@
ciclu
incomplete
cement
indivizilor
vassil@@
livrarile
referendum@@
dauna
adresam
itable
dr.
sporind
cerii
compasiunea
quartet
conexe
vulcanica
prinsi
scho@@
poezie
omologului
carbonului
stops
trialo@@
interpreters
theft
kic@@
rumours
fant@@
presupus@@
qualitative
vanzari
discipl@@
vodafone
citesc
hoteluri
compus
alerg@@
singurii
primor@@
zeri
checking
embrac@@
analizarea
plight
muze@@
natala
autonomiei
distribute
comportamentului
cadre
itelor
mixt
lichi@@
dumit@@
supravietuit
holdings
impartas@@
azores
igiena
reiterating
gradin@@
armonizarii
biofuels
croatilor
relans@@
prerogatives
devalu@@
gripei
colin
unesc
trucks
vanzarilor
confirmata
pref@@
cattle
digit@@
disputelor
0.5
oanelor
fan
denunta
cathy
ø@@
zapada
paradox@@
colegei
extermin@@
lung@@
jocic
dimitrij
etate
doubled
dened
umple
cafen@@
dimensiunile
socialista
captured
testify
precisa
janez
stra
umerii
aerieni
inadecvata
aresteze
mila
preven@@
asymmet@@
incurajator
pointless
pakistan@@
ilovic
wea@@
limitation
mutat
utilised
inlatura
risi@@
zis@@
precedence
informata
inherent
saselea
dezechilibre
hin@@
adriatice
modurile
prabusit
loopholes
tenders
janic
bulgarii
concurential
atives
stro@@
observatorului
osetia
auspiciile
temperature
lulzim
lieutenant
irreversible
utilise
rezista
cotidiene
guler
crescanda
neutr@@
precious
economistul
revival
corpul
calma
evade
ostil@@
indicele
sticking
isd
bosniacii
abduc@@
1325
performante
epidemi@@
sarbatoreste
valut@@
ific@@
nemultumiti
alarmant
dering
obj@@
prezentarii
implinirea
eliber@@
concreti@@
porc
clauzei
alatur@@
activated
armean
installed
vestea
tergivers@@
plovdiv
tibetans
entuziasmul
spectrul
radically
aplicabila
rh@@
partiz@@
evaziunea
bruno
exploateze
tarife
coborat
convingatoare
interaction
center
contribu@@
intermediate
solara
anast@@
dezafectare
eski
esma
lewandowski
master@@
calatoriilor
renumit
lambsdorff
blueprint
fro@@
novo
privati@@
halted
limitam
evaluations
guvernari
poulou
pirateria
oci@@
furnizam
insistent
sadiku
eurocontrol
chen@@
simtite
sorts
rezum@@
beaten
originating
specify
potentiali
baku
omg
proportions
nocive
convingerile
qualification
suna
fiji
simplifice
raspandite
tensiune
ato@@
intelegerii
antreprenorii
atenuarea
avor@@
anuntand
albe
author@@
pregatitoare
derogations
aparitiei
escor@@
infrunt@@
holy
studia
laborator
crestin@@
opr@@
unearthed
rel
omolog@@
preced@@
heroin
lenta
unhrc
modificarii
derulare
suffers
gruparile
otis
kozlodui
lobby@@
folk
judecatorul
evalu@@
desperately
fermele
platformei
forgetting
dicarlo
mute
sita
vietilor
manufactured
neglijenta
rigi@@
fraudulent
blogg@@
bloggers
paras@@
ideals
traga
wilderness
dependenti
asistente
usage
ections
graduates
acelui
documentare
votata
adreseze
memoria
saddam
contestat
despagubire
paramilitary
frumos
memb@@
confidentiality
anula
absorbtie
trasabilitatea
monopol
cardin@@
plavsic
hike
hurt
dosarul
propun@@
gasiti
slip@@
rigorously
accidentului
inflatie
138
denunt@@
backwards
tunnel
presupusul
generatiilor
databases
vacuum
vlasic
runoff
icala
cna
vlad@@
σ@@
gruparii
sibility
ingul
pamantului
kou@@
overly
atitudini
counted
6,5
desemnarea
efici@@
presum@@
certitudinea
universal@@
expectation
instrumental
studiilor
gospodarii
apartin@@
evn
12.00
sedi@@
pc7
totalitarianism
malul
echilib@@
jump
vicepremier
podul
surile
vehement
reviews
tortured
americanii
acuzate
fastest
investigat
catches
licente
zid
saudita
imply
objects
reinforcement
detinem
candida
scotia
dureroase
oponentii
valea
solutiei
marat@@
stabiliza
vazute
pasari
lovita
profitat
vigilenta
instalatiilor
arrog@@
prezide@@
afectand
suverana
instantelor
recurg@@
use@@
locatie
pertur@@
opuse
regionali
uzie
secundar
cain@@
atan@@
procedeze
muncitoare
civilised
simtita
vizit@@
capcana
suporterii
piscicole
transforming
stimuleaza
2,500
phic
europarlament@@
investirea
academiei
pargh@@
medici
h1n1
fotbalului
morale
ney@@
geneti@@
facilitarii
rapping
pte
autodeterminare
hesitate
adelor
downer
ziarului
panic
scepanovic
arhin
desfasuram
respectiv@@
personality
equip
comen@@
ables
relansare
mame
cetateneasca
avi
impartasita
asimet@@
izi
frecv@@
unfavourable
acuta
preventiva
allowance
schem@@
adan@@
layer
ipote@@
shake
indreptati@@
sufere
recuno@@
usura
troubled
exten@@
bere
putinele
cerea
observing
potentialii
discourage
recensamantului
biologice
abkhazia
burning
senz@@
numesc
hes@@
literary
adoptions
overlooked
dobandi
stolen
porn@@
tale
inflic@@
obo@@
six@@
wei@@
boxes
aggrav@@
restructure
obsolete
diviziune
stagnation
inciner@@
arov
finalizam
catalizator
conflicting
abuzului
compatibility
iesim
distributing
pronunt@@
penalised
profesorilor
emotional
inregistram
hotararile
moments
zul
buil@@
apartments
favourite
band@@
ezia
musulmanilor
tree
irakieni
ply
vorbitorii
prestige
privite
measurable
restrictionarea
recipient
originala
slowdown
universitate
recourse
purilor
descurca
rence
sceptic@@
autonoma
biei
wellbeing
interzic@@
devastated
ducand
temei@@
fogh
tl@@
elele
ingrijirii
embarras@@
instructions
utul
plot
prote@@
sustinatorilor
comentez
salutand
interdictii
intens@@
palestiniana
austriei
elabor@@
a.m.
duratei
prag
sed@@
ection
remikovic
bucuroasa
externi
obligatiei
fp7
beekeeping
sever
scaderii
ested
intarziat
disgrace
btv
contrare
rous
sami
tim
avans@@
yi@@
arbitration
transportatorii
intocmai
dom
40m
szájer
mount
30m
cereale
raids
excessively
ineficient
mandu
ă@@
trafic@@
lef@@
eficienti
proasp@@
avertizare
soko@@
materiile
eoliene
cad
incapacitatii
parasesc
employing
envisage
ologica
cle
difer@@
presedin@@
anymore
petrec
compromisului
recalled
privilegiat
documented
sondajul
decern@@
fericita
allocations
selimi
demisi@@
licence
refuge
mccreevy
semnare
criminala
prevailing
realitatile
prerogativele
atom@@
exceeds
earliest
reciclarea
rapprochement
alimenteaza
dobandit
secreta
12,@@
inchisi
stavrakakis
posibilitatilor
clarificari
communautaire
thirty
dissemin@@
correction
plecarea
cigarette
profitabila
majoritara
cardi@@
anteriori
samir
srbi@@
represive
sreten
motiunea
zukorlic
laptele
reserv@@
doream
zator
depasita
antrenorul
draftsman
sentimente
impiedicam
belgra@@
yemen@@
ciocni@@
sudice
descoperi
accesibilitatea
corupte
cehi
honesty
studied
nev@@
withdrawing
socialiste
ispas@@
oming
vaste
completeze
vocile
evitata
emi@@
rutele
prelucrare
atractive
500m
corp
veniti
prezent@@
bau@@
detinutilor
optim
cheltuiesc
deeds
islamul
sloven@@
accid@@
reda
ocupatie
destinatia
nefiind
passive
anivers@@
plut@@
dinamic
neproliferare
supravietuiasca
profesion@@
atri@@
unfounded
transa
autoh@@
daunator
venues
reactor
prohibit
sarbeasca
royal
indeplin@@
oul
minded
supran@@
procesarea
finger
drept@@
investesc
atribuite
derivatives
ints
launches
prezi@@
compati@@
incepere
contrazice
deplor@@
2.4
reprezentante
povesti@@
oned
human@@
particul@@
invitata
parii
audiovizuale
meteorologice
straightforward
gratuita
concentrez
fanii
spur
watched
reprezentarii
refl@@
motivation
aci
intensificarii
scad@@
road@@
circles
quoting
distributors
suspende
negatively
slovaca
cev
spectatori
hugely
numire
constrangeri
cotei
guinee
dow
teheran
sudanese
xx
lifestyle
interv@@
overseas
copac@@
anglia
anei
ideologice
constructing
marc@@
licitatii
pedeps@@
cibernetice
frumoasa
cargo
discutand
superfici@@
constructiile
radacinile
potabila
surrounded
slovac
introduc
hydropower
albinelor
indemnam
nevinov@@
enp
federala
americ@@
hali@@
fierce
atragem
1.7
pupils
conving@@
ordon@@
gestiunea
sentinte
dizol@@
aur@@
ierarh@@
dollar
petitie
newest
fingerprints
exile
distinguish
tives
calificati
inlocuite
blasfem@@
cultur@@
somerii
gangs
eficacitatii
disadvantages
donated
cfm
flour@@
extracti@@
evolueaza
materiilor
valului
modificam
brutale
axeze
vamali
attaches
prisma
imbunatatesc
complica
ajust@@
activistilor
regiz@@
scufund@@
slog@@
orph@@
garantiilor
path@@
reluat
temele
ass
sca@@
miile
inser@@
preventiv
dinamice
juven@@
indeajuns
trio
compromis@@
geared
exploateaza
managementului
hap@@
impartit
inovatiile
captura
reducerilor
sians
1970
harv@@
relaunch
avansata
devalor@@
rich@@
reinnoire
camioane
slovena
radiation
dollars
14.@@
pure
tranzitiei
illustrates
mise
realitati
intensity
scriitor
interguvernamentale
interpretations
domni@@
alises
mortg@@
bek@@
deliveries
erorile
shr@@
zele
nou@@
solicitata
stin
festivals
reuniunilor
sounds
magazin
niv@@
recovering
primate
porte
racial
liberalising
administratiilor
aprecia
teatrului
fruc@@
wealthy
lovituri
portu@@
progre@@
obligativitatii
mounting
interzicere
notorious
inmormant@@
aliile
funeral
drogurile
satele
dirij@@
bankers
favoriza
infections
confined
foreseeable
ulei
cercetarilor
south@@
dedication
bucat@@
offenders
miner@@
figura
actualizarea
obtinand
arc@@
socio@@
costat
vigorously
optimisti
smallest
prelucrarea
bunelor
perchezition@@
blasphemy
armonizata
transferurile
fantastic
ails
folos
hunting
ziarele
pictures
overlook
brusca
flut@@
mentul
conferred
disciplinary
gheata
tranzitorii
destiny
filmele
reamint@@
prepar@@
coordonari
oriu
circumscrip@@
gon@@
echoed
arbitrare
crucially
refinery
cunoasterii
impover@@
cuban@@
pasare
excise
fericiti
greutate
generalului
breast
relatat
comisarii
asedi@@
placerea
hranei
inceperii
admittedly
percepute
conventiilor
directions
foametei
intareasca
exploatate
exam@@
reuneasca
sarbatoresc
europen@@
stored
treizeci
intamplare
aviatice
outcomes
cola
surro@@
potriv@@
surveyed
paths
promisiune
adres@@
defeating
completarea
soferii
side@@
facilitand
cresc@@
ilia
constatam
ious
wines
economisi@@
infrastructurilor
harmon@@
aloc@@
negociatorul
urcat
depos@@
twelve
risc@@
plasata
coupled
tically
hurdle
charity
creditului
perfection@@
pain@@
sotul
afacerea
alling
instaurarea
mobiliza
muntenegreana
caucaz
adoptie
turneului
alled
lituanian
dilema
auster@@
misi@@
eficientizarea
datorate
terenurile
smokers
supervise
licenses
jucam
impadur@@
fers
tactics
votati
attendance
ramasitele
kuk@@
aturilor
spectacolul
divizare
urmarind
undersecretary
birocr@@
continute
dezvolt@@
politist
athl@@
infrunta
adunari
creditul
costului
oferiti
plangere
straz@@
scandaluri
ention
rezistentei
gene
registering
questionnaire
meth@@
stramut@@
landmark
explicam
ingrijor@@
lots
reasonably
moldov@@
biodiversitate
tacerea
neobisnuit
entirety
agres@@
drastica
allevi@@
rethink
incredibly
constiente
ozitate
rece@@
dorite
inspiration
chil@@
indepartarea
comprised
destructive
sublini@@
redre@@
risipa
jumat@@
consensului
intimidare
beneficiare
sticla
semnalul
persistente
colelor
avioanele
curilor
spots
endang@@
accentuata
nefondate
frau@@
ingrijiri
evolutiei
mobilizat
rapport
managerul
consortiul
canta
pesti
listing
cursurile
grupare
intinde
north@@
volunteering
oaie
depic@@
instaur@@
tinuta
briefed
brigada
consist
portugheza
recunoscatori
harmonious
entrusted
investiti
artistii
repeating
forwarding
sentimentele
ballet
sensi@@
pacientului
discutarea
mortalitatii
ureaza
procesare
usu@@
matern@@
realis@@
neajun@@
marcarea
funer@@
agra@@
construieste
tind
guvernante
multietnica
indispensabil
logistics
scopului
incoming
owns
endanger
distinctia
truck
unhappy
rises
scarce
perceptia
calatorilor
defic@@
chronic
frumus@@
norwegian
amenint@@
autoc@@
perceputa
otel
reacti@@
cita
irlandeza
viewpoint
stret@@
landsli@@
neregulilor
bordul
putand
digiti@@
faci
antibiotics
noptii
reabilitare
temerilor
asu@@
expulsion
employer
turii
reflectie
outlining
notiunea
definitii
axata
oda
tiny
crop
stud@@
escalad@@
erupted
accommod@@
tivi
sterline
corrective
divizarii
observatorilor
capital@@
comandat
evoluat
repeal
seasonal
alinia
poverii
traduce
windows
distant@@
castigator
mentality
profitabile
profoundly
rezolvarii
extremisti
š
pilonii
retailers
succesive
rests
judeca
ucrainean
carilor
anelor
antice
pregatirilor
nepo@@
antre@@
redactat
audiovizualului
catar@@
infrangerea
focuri
facilitat
expires
severity
virusul
transportatorilor
derularea
sloganul
invaz@@
sportul
inmatricul@@
miting
studieze
iere
preconizate
hurdles
psych@@
pastrate
premiile
cautati
sements
evitate
notwithstanding
antevorbit@@
psi@@
iordania
afgan
marci
inaugurarea
repe@@
transform@@
stays
juc@@
energii
mood
stran@@
anxious
vessel
capturilor
cercetator
adu@@
ordinara
origins
consultarile
caritate
vac
aining
inrautatit
cunoasterea
exacerbate
productivitatea
nepotrivit
zare
terap@@
notable
comprising
nejustificate
penalise
irregular
emergencies
arat
persecut@@
disciplin@@
indifferent
adoptand
impresion@@
amed
regan@@
spatiile
disclosure
gm
lah
detinutii
tragedies
consac@@
lingvistic
oms
cies
restului
ï@@
approxim@@
neinteles
chisinau
pornire
caselor
swit@@
resortisantilor
prapas@@
pedepsirea
comporta
sweeping
vizitatorilor
sezon@@
confrontation
expres
incipi@@
invitate
autentice
civilizatiei
hydro
farmac@@
invocat
fusion
distres@@
decizionale
confirmate
teen@@
vaselor
imobiliara
weakest
planuieste
notification
pompieri
insulta
imigrare
graduate
sentintele
liberalise
observatorul
contactul
policy@@
installation
comercializarii
assistants
inculp@@
dezamagita
convingeri
clasei
neconceput
1970s
interfering
trips
punish@@
testi@@
sugestie
ambitiilor
exagerata
scriitorul
encounter
rani
consultative
falsa
amenzile
artei
echivalent
mea@@
atomica
inlocuita
destabilise
armoniza
habits
inrautati@@
workshops
obiectiile
machines
eness
workable
manev@@
occidentul
voivodina
inaltime
ize
surpri@@
led@@
analistilor
stia
ofertele
ened
readmisie
lowered
pockets
prelungita
understand@@
satisfaca
metre
cancellation
ples
aniversarea
extradare
preconizat
sectiune
accounted
repatriation
moment@@
inegalitatilor
crucea
venim
preferintele
recovered
zur@@
day@@
rroma
unpaid
recicl@@
wre@@
resolutely
provo@@
remarc
indiei
ailing
reintroducerea
deploy@@
podg@@
pesticide
dictators
importat
aptitudini
complies
autorilor
rezer@@
apreciere
ulei@@
survived
handicap@@
paradisurile
otel@@
competencies
situ@@
tors
rian
penet@@
fabricat
prizoni@@
atur@@
acquitted
explosive
vertebrala
muzical
unlawful
dreptatii
corespunda
credentials
2,3
facilitam
busin@@
duse
televiziunii
tona
tonne
persistenta
reside
och@@
brigade
prilej
compusa
ramasi
artefac@@
nik@@
assault
infractori
affili@@
antevorb@@
auzi
serb@@
wers
unavoidable
sectii
attorney
proportia
hidrocentrale
isol@@
dili@@
encing
gros@@
auc@@
cohesive
conditionata
redeschiderea
bucurestiul
reluate
scuta
traverseaza
inclin@@
transpl@@
longstanding
infor@@
sotii
eficientiz@@
perturb@@
seceta
bill@@
heroina
sely
alegerii
bt@@
tranzaction@@
implementam
infaptu@@
ias
masinile
separarii
here@@
handing
gestionata
twin
tanks
exclusi
depozitare
insemne
majoritati
neincredere
gestion@@
fulness
underpin
esp@@
zis
horri@@
levy
legislate
tragedi@@
boom
boy
nominal
​
dificultatea
jocul
subcommittee
countering
scutite
decree
neregularitati
contributor
spalarii
eventu@@
elevilor
devenim
bribery
cio@@
paduri
postponing
audierea
equi@@
imbogati@@
inmates
anonymous
denounced
cancel
succesele
intoc@@
telecoms
entit@@
altei
proactiva
rascruce
hypo@@
acceptati
munich
ols
licences
motoare
corespund
cucer@@
orile
instabilitatii
deriva
infantile
intarzie
consultarilor
crow@@
15,000
chirurg@@
rom
trimit
psih@@
insarcinata
ninth
initiating
olimpica
fusesera
carton@@
favoare
atacului
crash
articolelor
certificates
deter
emigration
egida
workshop
zecea
masacrului
anuleze
spr@@
functiei
ileg@@
eigh@@
endorsement
underestim@@
nesatisfacatoare
intreprinz@@
cuv@@
batt@@
vizei
ideala
debar@@
israelieni
10,@@
occupying
provocarii
posters
songs
simplificarii
eventualele
conferit
reactioneaza
superviz@@
regasesc
confiscat
greve
tribunale
oanele
regularity
torn
profitability
imposes
dubi@@
generational
roluri
declansa
copilul
enter@@
dismissal
recogn@@
armies
sanction
guns
abuzive
displayed
ration
alarmanta
scolii
invinge
rating@@
moderat
arheologic
neclare
aparatorilor
traficantii
conveni@@
ajungerea
cultivarea
wed@@
spiritual
recunoscand
campaigning
canadi@@
mediteraneeana
northwest
thu@@
toarelor
mosques
maturitate
otic
aterale
cambodia
intensively
predomin@@
certificare
difu@@
inot@@
evazi@@
preocupata
hunt
rezidenti
teach
prompting
dictator@@
turing
dosarele
deblo@@
fructuoasa
mondiali
permit@@
ups
datorat
ambitiosi
recomandarii
audiere
elea
tenth
aplaud
gren@@
utate
cartilor
informeaza
inging
scoata
vinuri
compoz@@
discrepancies
analizei
trenul
dispozitive
prospere
cari@@
renovare
iclet@@
excludere
denial
suediei
gazoductul
thank@@
cleansing
finishing
tiranei
ern
bee
lectia
accentuez
rasa
juncture
concetatenii
incercati
whoever
contribuabil@@
spitalele
austri@@
sufletul
joy
alimentat
erup@@
donatii
renegoti@@
warsaw
reacting
sanat@@
aseman@@
regele
corectarea
consistenta
neprevazute
varful
condoleantele
transportate
abtine
placea
trafficked
unwilling
rels
prevederea
teoretic
commemorate
concursului
accomplish
regretabila
wisdom
60m
functiilor
municip@@
continuand
bogatie
proemin@@
plac
incidence
opta
supervising
confort@@
tric@@
confidential
distante
birocratica
felicitarile
incetin@@
transpose
marin@@
masculin
characteristic
contemporana
acciz@@
tutunului
divul@@
muzicieni
asp@@
navigabile
ism@@
colapsul
frag@@
hearts
imbatranirii
reinforces
ratiuni
normalisation
promotional
dorea
contempor@@
fratele
secundara
oting
surpl@@
locuieste
ultranationalist
osity
nasterea
conservatorilor
oes
eous
infrang@@
bilantul
provizorie
facilitates
tionally
insoti@@
inghetat
cloning
select
siv@@
bogatia
libieni
iord@@
conformity
canadei
cimiti@@
panica
penur@@
progreseze
dor
juri@@
updating
textilelor
employs
ume
commerci@@
bluetongue
curi@@
explosives
parcul
scapat
inspectors
comit
contracar@@
ajung@@
salvat
verificate
tez
canal
uncovered
pensionari
importers
vinovate
adanci
appliances
exceeding
electronics
bility
stems
justifies
motor@@
institutes
unitara
alleg@@
statiunea
asiei
tuale
letoniei
sinceritate
alter
bilitate
dilemma
trap
formale
aded
dissemination
iss@@
wrap
multimea
deau
interet@@
upholding
alie
bes@@
itoarea
upgraded
trebuiau
standardizarea
dureros
sarbatoare
noon
refe@@
curti
signalled
opusa
blatant
dominanta
incarcer@@
capitalismului
abol@@
illustration
reveals
overwhelmingly
griji
optimista
itated
aprob@@
corupt
conferite
mentinand
parent
commendable
implicand
narcotics
coloni@@
rezid@@
suport
doctr@@
birocratic
gestioneaza
amprenta
ids
conceived
homosexuality
imile
dispara
prohibits
acro@@
lement
codificare
aviatic
economisirea
incetam
longest
youngest
our@@
demonstrand
pron@@
hotarate
consumed
promitatoare
utterly
bags
indoielile
fabric
dies
bolster
recei@@
stire
denuntat
pne@@
inregistrand
rocket
dorita
secrecy
fortareata
dubiu
realitatii
ectul
assumes
inilor
ective
lansam
itori@@
powered
inhab@@
taberele
competitivi
selective
represiunea
vl@@
complaining
respon@@
unanim@@
optulea
anticipata
ading
eapa
mamelor
zisa
meritul
alistice
ime
ezii
helicopters
intunec@@
suedezi
periferice
onora
adjusted
nefavorabile
unambiguous
limbaj
cado@@
overs@@
radicals
pev
dci
minuti@@
transpunerii
teorie
lecturi
exporter
comitologie
metodei
handball
projections
anatolian
device
dos@@
conversation
blast
tinuti
economistii
mostenire
py@@
signatory
recrutare
indiferenta
situri
amelioreze
ane@@
populate
comerciantii
sofiei
embark
supplemented
eritreea
homeless
throwing
mecan@@
smen
holistic
piram@@
refacerea
irlan@@
fumatului
babies
echivalentul
brevete
advisable
uzia
calificate
nereglementat
demon@@
pasa@@
halting
intampl@@
antibiotice
transplanturi
fundament
scum@@
carers
intrevederea
celeb@@
coordonam
phasing
affirmed
tolerantei
smului
ambasad@@
upset
mov@@
weigh
black@@
outlets
eering
dogs
colaps
16.@@
dezmemb@@
apendicele
deruleaza
surprinde
enemies
facuti
regizor
marriages
incurajati
neschimb@@
funda
campioana
sasea
rat
inconsistent
mentioneze
separatiste
unate
literally
sal
photograph@@
rach@@
lis
whereabouts
deste
swimming
sacrifici@@
iev
egiptului
premierii
demara
phony
zie
viewing
recupera
veritabil
neastept@@
responds
candidaturii
cosmetic
raportarea
roade
aston@@
marj@@
inauguration
investeste
eradicating
careers
professors
telefoane
stam
speciile
cercetatorilor
fronti@@
ariilor
prezentati
tops
gestionam
propice
teritoriilor
contracted
mosche@@
dad
stones
anunt@@
austriece
cvart@@
forwards
surge
amandoua
lows
hazard
increzatori
persecutati
ministeriala
proceeding
expusa
cetateanul
reason@@
combinat
informale
curajos
prolonged
odm
achitat
inaltei
dictatorships
rand@@
instituite
aflux
avertismente
pornind
unequivocally
centred
vanzarii
sitoare
derii
entrepreneurial
amenintati
visul
contributors
mediev@@
compon@@
refuzului
progressing
reluctance
frontali@@
suspicious
exce@@
interpretari
administratii
riv@@
dusa
natal
pierderilor
currencies
awaits
nazi
oteh@@
lord
indicative
weigh@@
supposedly
registry
detected
worship
ologists
reuseasca
intram
union@@
fratii
revolutiei
portra@@
profiling
investite
plafonul
exagerat
hotararilor
donat
tox@@
supermarket@@
impartasit
dossiers
camerun
olive
mandra
stock@@
sesi@@
priet@@
grids
cartier
25m
subur@@
relies
5,5
resor@@
likes
refuz
intretinerea
fake
enthusiastic
dynamics
icd
picked
conducive
married
nis@@
reversed
incorporating
raporta
mortii
dubii
muzeului
optat
licensing
thrust
uncertainties
paral@@
1,1
ramanand
principally
amend@@
scuti@@
maini
jobless
ousness
afganistanului
appreci@@
intruniri
pis@@
stele
posting
muzicale
coridorului
calculation
razboaielor
venice
alunec@@
mone@@
efecti@@
donatorii
deri
statii
varying
preparedness
subsahariana
profitand
gim@@
museums
outs
promisi@@
reinnoi@@
protestatarilor
izbucni@@
adoptati
prelungite
jand@@
fierb@@
wast@@
evidently
imunitate
bituminoase
opponent
ocu@@
advers@@
razboaiele
elicopt@@
refugiu
utilitatea
incre@@
marcate
peripheral
stiind
estului
log
moun@@
antreprenorial
inversa
despr@@
blacklist
extrag@@
zatoare
supravegheata
conformitatii
flawed
vizitele
pertinente
overdue
tripartita
pharmac@@
broadcaster
bene@@
estimari
underestimate
design@@
profiturilor
pedepsite
manastirea
calculations
17.@@
scris@@
redactor
impartasi
auzite
explodat
anvergura
chains
anxiety
partici@@
nelimitat
nutrition
navi@@
subterane
administered
authorising
trez@@
cheltuirea
influentat
neoficiala
iala
provoke
gift
hei@@
persecutarea
politici@@
contrafac@@
400m
panels
buzun@@
bucurestiului
beer
arsen@@
delegates
revizu@@
watchdog
cuprinsul
anulate
unitare
tratativele
folcl@@
edy
golf
arose
memor@@
tech
transformarii
talent
2,7
ij@@
avertisment@@
varsovia
redistribution
frunte
groaz@@
mayoral
adanc
deteriorated
thir@@
incon@@
bureaucr@@
commissioned
inchisorile
legum@@
incredi@@
disclosed
therap@@
destram@@
essness
reac@@
specialistii
mandrie
chambers
stretch
sibil@@
topical
pivotal
adoptiile
identit@@
autori
cadem
nar@@
afg@@
numitului
opted
dipl@@
airs
expired
disponibilitate
modification
proportionale
sclavie
mil.
documentar
horn
plumb
aju@@
appropri@@
iranieni
burdened
dezavantaj
scoase
tentativele
inchidem
motivat
aviatia
proximity
hits
insulelor
gence
terenului
divorce
rapid@@
urmelor
finantam
paci@@
literacy
pioni@@
compensare
ouri
confiscarea
facilitatea
barbaric
cerul
cehia
inte@@
suficienti
subcontract@@
unreasonable
legali
evidentiate
lankan
alistii
districts
rance
owed
universit@@
insp@@
lati@@
protejand
abandonarea
consiliile
penitenci@@
codes
urani@@
liz@@
ipotec@@
eurovinieta
aviara
exagerate
imbatranire
silvic@@
soli@@
compos@@
stun@@
garant@@
con
autoturisme
pledo@@
borrow
plangerilor
ateli@@
raza
diverg@@
ingului
inovator
orie
cutremurului
spectacular
abandoneze
forteaza
vechilor
iries
semnatare
bron@@
expan@@
apreciata
dispersie
necuno@@
shocks
cunoasteti
extractia
consecv@@
refuze
phases
atively
crossed
devising
renegoci@@
logies
bombard@@
consular
stocare
deranjeaza
distortion
eating
progresist
maximise
cooperat
ilul
fare@@
identice
aboli@@
resorts
aflux@@
spons@@
hamper
propor@@
perceptions
packaging
labelled
unfol@@
mr.
19.@@
scr@@
intrebati
sporesc
comprises
maro@@
ains
commonly
dubious
inchis@@
profitului
horrific
sfarsi
differentiated
renumitul
mainstreaming
surprinsi
refin@@
cedeze
mackerel
imbrac@@
trebu@@
chiefs
investigatiei
frontul
distruc@@
genic
islamului
asul
provoace
misl@@
consacrate
livr@@
aviatie
magn@@
disproportionata
posibilelor
scump
chang@@
radac@@
aia
photogra@@
ε@@
apl@@
imin@@
imente
episcopul
publishers
psihologica
militarisation
neut@@
rad
infir@@
continuati
motorul
0,7
blocuri
pie@@
paradoxal
totalitare
volatil@@
taxare
coleg@@
netarifare
austr@@
objection
volcano
nebun@@
cantat
infatis@@
euroobligatiuni
fortune
diplomatiei
summar@@
waited
academics
atmo@@
indiscut@@
protein
figuri
150,000
incontestabil
intoar@@
cyber@@
activat
institu@@
conveni
sugerand
sang@@
wheat
arh@@
accel@@
revitalizarea
livelihood
aw
instruction
instante
exprim@@
inteleasa
indictments
intamplator
redactorul
sitor
unequivocal
necesitati
plaja
spl@@
exportator
restrictioneaza
classification
administrat
justifiable
incendiu
ioan
guvernator
ascult
ultra
christianity
karab@@
embrace
instantei
tear
cyclical
afforded
lamur@@
nejustificata
prezidentiala
echivalente
inrautati
statu@@
ciolos
dian
confrun@@
edf
replies
cenz@@
gun
theoreti@@
puri
armat@@
obliges
aparatorii
dows
acceptare
celebrates
frauduloase
eritrea
performantelor
cade
nationalismului
presiding
adaptam
binecunoscut
agit@@
particular@@
inspirat
prolifer@@
bibliotec@@
editorial
inginerie
symbo@@
ucrain@@
intruneasca
treatments
inspec@@
eligibili
premat@@
transmisa
facilitatile
vill@@
dialogues
acv@@
sporting
colonelul
champions
fals
deplasarea
modifications
proaspat
reales
intrerupe
stakes
rist@@
esueaza
inherited
vities
intarzierii
impozitarii
sacrifices
transpuse
wondering
desfasurarii
7.5
crew
adaptarii
mult@@
boiko
salariului
dintotdeauna
arrang@@
observare
individ
logia
depozitele
impe@@
exporte
privatise
cinc@@
overthrow
masacru
judici@@
sophisticated
propunand
hypocritical
nets
antiracheta
asocierea
opiniilor
queu@@
limbajul
identifies
semnele
channelled
insarcin@@
ucide
acceler@@
show@@
strangerea
embarked
icilor
tulburari
closures
cameras
preventative
denti@@
placuta
neoficial
distort
uzina
folosul
destule
broaden
flac@@
flora
atitudinii
deepest
izolarii
forge
invatate
emphatically
concertul
rica
capitolele
optimal
strengths
interventiilor
won@@
engineers
linist@@
faceau
incorecta
parlamente
consideren@@
tier
zealand
umul
orizontale
comprehen@@
concentrating
portofoliul
fluxuri
autentic
febra
angliei
revenind
protested
enacted
surrendered
polar
auditing
scutul
pessimis@@
autorizatii
genocidului
verified
venetia
provinces
automata
restrictionat
fol@@
fibres
jal@@
trimest@@
vreti
cinci@@
placute
inn
dun@@
wrestling
constientizarea
tfeu
moroccan
meciuri
locating
schimbate
temel@@
executii
ames
rankings
transilvania
particulare
discontent
lessly
answering
spin@@
unjust
onorat
istice
ordinate
reciclare
comunisti
coordinators
observance
nanoteh@@
activarea
democratizarii
criticam
constituente
500,000
incep@@
endorses
nationalista
medic
resortisanti
escaladarea
destined
falimentului
imigrarea
moda
flotei
mature
liberul
atten@@
coasts
sergei
heed
como@@
intrerupta
accuse
televiz@@
medium-
common@@
arat@@
audienta
segment@@
exhausted
authorise
teribil
soul
pertin@@
rugaci@@
geti
asera
felicitam
zilnica
freed
intalnim
widening
trimisul
pronunta
student@@
canalele
intarziate
demis
adaug@@
peze
subiectului
satisfacerea
transformata
locals
inning
stranga
chimica
ascend@@
inegalitatea
curajoasa
privatised
restrans
interdependenta
midnight
eliminand
depasind
vinerea
feed@@
reap
kosovars
pere@@
salb@@
sezonului
ilicite
sperand
navy
birthday
demult
nedorite
classic
descuraja
corporatii
continuitatea
peer
lovit@@
discretion
chiri@@
saptea
recommending
see@@
sympath@@
pretind
grips
thailan@@
dlor
nega
creditorii
intelegeti
livrarilor
ajutand
courtesy
normalizarea
sands
chet@@
intemeiat
platformele
ciberne@@
terta
identities
craciunului
measurement
campul
persecuti@@
summit@@
fiable
jocului
antreprenor@@
coin
meritele
riding
realisti
slow@@
spatiilor
competitii
amintele
sirian
bolnavi
ministeriale
gigantul
interioare
depozite
intruni
extremismului
preceded
regularitatea
fiica
parteneriatelor
murde@@
licitatiei
provocation
deposit
spect
distinct
employ@@
reglementam
rareori
holocau@@
casualties
underp@@
tailored
castiguri
insulting
paradi@@
crossroads
noble
respectivei
pertinent
prosecuting
aligned
interferenta
aso@@
petreaca
rromii
survi@@
stereotypes
constra@@
embo@@
restabileasca
0.7
onorati
ingreuneaza
oy@@
balot@@
alcatuit
develops
disappearance
interconnections
portfolios
amintiti
canalul
kazahstan
tighter
personalitati
academice
perioadelor
opport@@
distrugerii
enormously
prinde
etichetarii
hoo@@
unlimited
drink
anihil@@
ofiterilor
fixing
recurga
revolutions
meters
troicii
ń
acord@@
transferati
corespondentul
cis@@
tinde
clan
societal
procedeaza
junior
trebuiasca
physically
onic
cycles
scenarii
iraniana
lucrare
inaugurare
numarandu
distrug
dir@@
banch@@
restrictie
pensionarilor
suspicions
ridicol
dinea
livelihoods
imaginile
corectitudinea
gestul
diversificare
ache
fronts
armonie
vicious
ireversi@@
dezarmarea
calificarile
persoanei
gat
intreprinzatori
reprimarea
vehicul
impresionanta
dynamism
ignorand
masurarea
suppose
hist@@
necesarul
mouth
epur@@
tower
ft@@
investigatiilor
religiosi
triumph
inspira
vanatoarea
pest
incertitudinea
accentua
appointing
tfue
prematur
cuprind
furnizand
enthusi@@
holland
raid
platii
invitatii
haiti@@
ortodox
tad@@
mostenirii
fetelor
nanotech@@
totalling
ae
burse
poduri
snap
parcului
confidentialitatea
xenophobia
titles
seria
insum@@
coincidenta
spanioli
holocaust
moschei
impresionant
defaim@@
bielor@@
zborurilor
catolic@@
intreprin@@
erat
dreadful
audiences
oarelor
free@@
zguduit
adanc@@
affirming
tinere@@
teribila
supervisor
finalising
calatoriei
ó
investigheaza
minoritar
motives
difuzarea
sounding
prescol@@
reporteri
marg@@
coastline
inman@@
competentei
pari
spectru
discrepanta
bz@@
incalcand
numere
1.8
tamil
depinda
libiene
bonus
roz@@
cruci@@
indemna
marcajul
absorb
statue
privi@@
ental
excluda
giilor
interdependence
unlea@@
recentelor
evolutiilor
dissatisfaction
coalitions
hotararii
varies
retinute
indispensabile
abandonati
psy@@
krem@@
kurzii
bear@@
trade@@
horizon
shipbuilding
moham@@
documentatia
correspond
smil@@
woo@@
subzistenta
educate
punishing
interrup@@
warrants
analizele
aticii
sinergia
prada
hotari
ambiguous
tionary
variate
atleti@@
repl@@
shipyards
simplificam
scolare
simboluri
ratifying
odihna
accurately
enz@@
finantarilor
confronting
levi@@
perceptie
tir
distra@@
happiness
perf@@
rigour
advancement
60,000
consultarii
caduce
administrarii
bre
arrives
multianuale
inviting
expulzarea
plain
transylvania
inclusi
sosesc
repetam
prezece
curen@@
dispoziti@@
homosexualilor
shale
intervened
cup@@
originale
plantelor
racist
familiala
volumes
&apos;d
mort
modify
groenlanda
capatul
defender
shaken
formam
grup@@
loved
imbold
25,000
profesionista
caspica
seasca
abandonate
terorii
ratat
pacific@@
turkmenistanul
recording
fostilor
profesie
13,@@
comercianti
escaped
paragraful
asasinate
fului
exonerarea
renovated
00km
contraven@@
flexibilitatii
finali
exil
portugheze
speople
generates
prietenul
ket
belarusul
livrarea
mentiune
prerog@@
doreau
interoper@@
unofficial
eases
cunoscuti
ipocrizie
alineatului
dezastruoasa
uranium
emisie
daunelor
kit@@
verzii
volunte@@
replaces
siveness
partener@@
continental
dealers
possess
spaces
zil@@
distributiei
streamline
rambursare
morm@@
monitorizata
inuman
descriu
standardised
belonged
irakiene
criti@@
neconditionata
stadionul
emblem@@
question@@
evidentiem
atenuare
puternic@@
apropiem
proliferarea
targului
reopening
kremlin
nesfarsit
vasele
garilor
agende
abrogarea
rebelilor
prejudic@@
determinand
comunicari
colele
practise
inadmisi@@
prerequisites
arbitraj
intarzi@@
aparenta
2,9
reconstruirea
2.3
echivalenta
explicatiile
mergers
convenita
gam@@
exercitam
kids
unicul
misi
eurobaromet@@
imperialiste
analizand
transparently
realmente
standardis@@
depozit
transferata
traficantilor
right@@
lawsuit
terri@@
richer
lec@@
info@@
unsuccessful
omis@@
rebel
medicament
forged
lacunele
larg@@
siti
destabilisation
clipa
burned
convene
rezult@@
pregatiri
explicita
obiectiv@@
turbulent
facturilor
libi@@
praf
roti
arizare
suplimentari
indeparta
prescribed
denominator
reminding
imbratis@@
atics
gma
alcatuiesc
ucra@@
cina
3,3
hartuirea
buyer
weighed
demareze
asted
formulation
commended
pasapoartele
gmos
critically
cheze
enrich@@
stereoti@@
renumiti
intermediaries
enlarged
bogatiei
impresionat
collaborate
incunun@@
monumente
exercitii
ele@@
ciclul
dureze
provina
philippines
mentionati
indon@@
harsh@@
confruntarea
undeclared
copil@@
alocam
evolving
povesti
entat
adulti
crowds
sanselor
avort
logistica
rub@@
profession@@
essly
eventuale
discriminatoriu
fenomenului
6.5
productiv@@
mercy
comandantului
devastator
zgomot@@
complementare
incarcat@@
sentiments
graves
limpede
regrets
ride
continui
valoreaza
intensificate
scoaterea
invechite
slots
producem
fenomen@@
arheologice
contraban@@
imbunatatind
abro@@
disparuti
ocupationale
blocati
demonstranti
noci@@
istanbul@@
ital@@
osilor
oversee
plic@@
incertitudin@@
codificata
restra@@
dezbata
identificata
guest
cheese
transe
stati
ministerelor
testare
taiwanul
soc
castigand
exploded
feder
conservatori
tightened
educarea
deportation
islan@@
devastat
plafon
tabloul
misery
gend@@
anchetei
razbun@@
rolurile
restante
bacter@@
itor@@
continuari
shing
antreprenoriale
muntenegren@@
lib@@
alizand
agendas
reitereaza
rezervate
gena
neajunsuri
caring
bosnians
paved
numitelor
legend
academica
meciului
atenua
dictaturii
contabilitate
muri
perseve@@
telecomunicatiile
compasiune
concetatenilor
300,000
aevmp
cation
inculparea
comite
redres@@
intra@@
magaz@@
retin@@
supervisors
montane
feedback
turcilor
provenit
guer@@
indivizii
contrara
streamlining
beaches
contentious
interconectate
hitting
impozitului
geopolitica
scutirea
progresat
credinci@@
dings
echival@@
cloud
edness
adauge
firm@@
contaminate
boundary
opri@@
intampinarea
ο@@
aruncate
disperata
ridic
drastically
constrangerile
excur@@
nag@@
50th
logistical
timpuriu
exteriorul
thri@@
abandona
briefing
orientului
intelectuali
categ@@
atribuie
lot@@
hed
polon@@
headline
cutremure
eted
sarilor
cresterile
paves
nesemnific@@
volatile
pragmatice
pierduta
ameliorare
cet
erec@@
distrust
afe@@
ozone
ascultati
eana
screen
lin
foresee
absurd@@
echoing
sosi
optiunilor
beach
exhau@@
sou@@
commented
teri@@
weee
dimin@@
hill
ecran@@
consultatii
mest@@
structurat
cantec@@
invitati@@
struggles
conectarea
pakistanez
absurda
educati
dedicati
conservarii
pist@@
senatului
indicatorilor
actualitate
grabit
soccer
cotidian
supranational
fraude
simtul
melor
prelungi
shipments
aeronav@@
tipic
uigh@@
repararea
ativele
riei
peisajul
confidenti@@
examinarii
colonial
formatiuni
briga@@
falimentul
autostrazii
anunte
eager
sibly
directoarea
devised
unifying
resti
transmisie
amant
apartament
liberalii
environments
retinerea
rela@@
pred@@
ories
ortodocsi
manipularea
gimnastica
porturilor
ajutati
telefoanele
verb@@
batran@@
gardian
adevaratele
complexul
susc@@
wrong@@
echipate
extremistii
ului@@
customer
atra@@
subliniata
stap@@
cult
3,2
reticenta
purtand
ofertei
consecutiv
oi
300m
geogra@@
jurisprudenta
banc@@
subminat
riot
influences
dieta
comunice
extradat
14,@@
20.@@
presedintei
catching
infrunte
mandatele
wer
endless
achizitiona
ingrozitor
nefericita
brazili@@
ierusalimul
gging
comisa
scenes
subi@@
istanul
echipamentului
metru
annex@@
amag@@
informatica
nology
depreci@@
diu
oficiu
neutilizate
compiled
adjournment
contractor
confederatia
celule
verge
vaccinare
publications
tabo@@
maladi@@
explorarea
furnizata
completat
lax
guilt
informarii
slowed
respingere
parlamentarul
britan@@
controlarea
assent
lesser
cubanez
flooded
uia
distorted
mineral
continent@@
criteriul
vezi
posturilor
autobuz
occidental
dele@@
cord
exaggerated
headlines
recrutarea
interviev@@
5.5
secretar@@
biomass
atractie
vant@@
migrantii
justifice
shoulders
gear
probabilitatea
imprumuta
clinica
recunoast@@
vulnerabilitatea
acoperind
issuance
subsidised
impulsul
amendarea
folklore
elev@@
tuala
2.7
likelihood
ambul@@
adei
premiere
fundatii
ostatici
apela
cotitura
schimbata
evol@@
meritat
religi@@
iale
imigrarii
eurobarometer
establishments
degetul
clarificate
perea
pering
bra
neigh@@
autoritare
bbing
dovezilor
masurii
proportionala
reformeze
demisiona
photographs
eled
rob@@
eficacitate
expressions
achite
accede
municipalitate
[...]
